00111100001001100010110000011011
00111100100001110101000000100111
00111101100001010111001011100101
00111110000001001110100010101010
10111101001010111110111111110000
00111101101111001000110000111110
10111101101000011111101010011001
00111101101100010011100101100111
10111101101011111101010101000110
00111101101001011110101100100111
00111100111011111111000000111100
00111101101001101010000111110111
10111011101010000010100110010000
00111101001100101001110100111111
10111100010100001011011101111101
00111100110101001010100110100000
00111110000000010100011011000101
00111100111111011001101111011000
00111101100101000000011101000000
00111101001100010101100011110101
00111110000000010001111000101101
00111110000000000010110000111101
00111100010101010101001000101010
00111110000101100010101011100011
10111101101000101010000101000110
10111101001001101001100001010110
00111101011100011101100101110010
00111101101011110110001010111010
00111110000100010110100100100011
00111110000110101010110100010000
00111100111001101100110001100001
10111101110101111101011101110101
10111110000011000011111101110000
00111100110101001101100011000011
00111101000000011111000010100010
10111110000001001011011100001000
10111100110100010000010011100001
00111010110000001010100110100111
10111101110101011101000111000110
10111101101010000101011000100100
10111101010110101101110111001000
10111110000011010000010100011001
10111100111011000010100010000100
00111100110011000011011110011100
00111011110110010000110111101010
00111011110101100110010111011011
10111101100100100100101010011100
10111101101110110110001111111100
00111100000011000001011001010010
00111101110010111110110011001001
00111101100000000010111000111101
00111101001110101110110011110001
10111101101100001100101110001110
10111101011001111001100010000011
00111101011010111100100011100011
00111101100100110101110110100111
00111110000111000111000101101110
00111100000101000001111011100111
00111101110010010111100100110111
00111110000111010000011111110111
00111100111011001010000001110110
10111101101110001101010111001100
10111101010011110101111001010100
10111100111000000011100101100101
00111101000111100010011000110100
00111101101101100100011101011100
00111101011001001001101010110011
10111101100001010000011111000111
00111100001000001101000000011110
00111100100100011010000100110001
10111100110001101000010010001111
00111010010011101000001101100100
10111101100000011111001010011001
10111101001111000000001100100100
10111101001001010111010100000001
10111101010111001111110010100000
10111110001110010100010000100011
10111101001111101101110101101100
00111101110000011111001000101000
00111101000011000101001011000001
10111101110011001000001010100001
10111100111011010010001010110000
10111101110101011001101101000110
10111110001000110000111100110001
00111100111110011110000011000001
00111100111001110100010010101111
10111101111110101111010110000010
00111101000111011100001000000010
00111101110011101110110011111000
10111101110100100011010101101001
00111100110111010010011110000101
10111101000001101011111001100011
00111110000011000001101100111001
00111101111000010001010100000101
10111101000010011001111001111000
00111101010110110111010011001100
10111101100000101001001010000110
00111101100000101011100111011101
10111100111011111001100111110000
10111101111001010101101100100010
10111101000011111010001011110110
10111011100001001101110001100101
00111101110001001110111001100011
10111101100010011000111010101110
10111101110001111001111110010001
00111101000110110100010111011000
10111101011010001000001100000100
00111101100001110010000110001010
00111101010101110110111011011111
00111100011010101101010111100111
00111100011011000001000000010010
10111101101000001100110011101000
00111101001010101001100110000100
00111101000111000000011010000111
10111101110001010110001100101101
00111100101001010111110000000101
10111101110011110010110110011111
10111101000100011010001100111010
10111101010110100100110110011010
10111101001110001000000111000101
10111101000000111010100110100101
00111101100111011111001111001000
10111100101000011010010000010101
00111101100111010010001110001101
10111101100011111110000100001100
10111100010011010010011111000010
00111100001110000110110111100101
00111101101111101100000010111110
00111101100010101000101000010110
10111101001011010101011111001111
00111110000001110001101110110110
00111101010011000101101101100010
10111101011011011000111011101100
10111101100101101111101101110111
00111101011100000110000011010001
00111011110111010101110101000010
00111101101000110010000000000000
00111110000110001111000110100001
10111101100100110111111111111111
10111101100111111000011011100100
00111101000001100111101101010001
10111101101000010110111010001011
10111100100011000100011111100111
00111101010000100110001100100010
10111101101100101001100100001100
10111101000111001100011100001110
10111101100110000001100111100101
00111100011100101011010101000100
10111101011001111000001100110011
10111011101000011111000010101101
00111101100101000001100010010100
10111101110101100111100011001100
10111100110010010111010011100111
10111101010101100011100111010101
00111101100001111101001100100110
10111101110111111100000000011101
00111101110111101111101111010101
10111101101100011111111010001110
10111101110000110101100100101011
00111100000011111000010010110101
10111110000011000100011110111101
10111101111010010010110100001010
10111100100100100011010101110110
00111100101001111001001110000000
00111101010110110010000101101110
10111110000001100110000000010000
00111110000000100101111001110000
00111101101110000100101110111000
00111101110010110001011111011101
00111101101001100101111100010100
00111011110010110000001100101110
10111101100010011010011010011011
00111110001110011011011111110001
00111011100110001100100010001001
00111101101000111111111010100001
10111101010001111010010001100100
00111100101101011100101011110110
10111101011010000101010000001110
00111101000101010001110110010001
00111101100100100001000011011100
10111101101111111100100111110110
10111100111001001110000000110100
00111101101001011011001010101001
00111101101100010001011111101111
00111100000011001010000101101101
10111101000000001001010101000001
10111011101110000110001001100010
10111101000111001101101010110011
00111101111101110101011101011010
10111100111110010110011101000000
00111101100111000011000101101100
00111101110100000100101011101110
10111101000110101110101011110110
00111101111101001101110110101111
00111100101010010001001101101001
00111101110000100001100111111111
00111110001111100001110101100100
00111101100010010111011011110001
00111101001000011010011101101111
00111100011001001001100111000100
00111101100010001011111100111000
00111101011011001011000001111010
00111110001001001110000011100101
00111110001100010011000010101110
10111101100010111110001101011010
10111101001010111111100000010011
00111101000100001010111011011111
10111100000110001111111010110011
00111101111011101101000111000111
00111101000010100110001000110110
10111101010110000001110111001010
00111101000001000010101000000011
00111101010111110000010001001110
10111101101001010100000100111100
10111101000001101110101100110111
10111101101010010110100111010010
10111101001100011000010001001110
00111101110101010000010001011110
00111101011011000101000110001101
00111100111110111111111101011000
00111101101010010011010110101011
00111101100101010100111011001010
00111101100111111100101001100110
00111100101000101001000010000110
10111101011000001001011111100101
00111110001111010010001010100011
00111010111110110010011001000011
00111101110011011011010011011001
10111100100100111100001001111100
10111100011010010000001011101010
00111101001011111011111100111100
00111101111101010011110100001101
00111101000001111111010000000010
10111101111110111011100000000101
00111101101000010001010110010011
00111101010000001011000000110111
10111110001011001101100011001110
00111101110001011110101111011011
10111110000100101100110011101101
10111110001000001000011010000000
00111101110101100110001010011101
10111100011111011100000010111100
00111101100101011110001111101010
10111101100101111110000111010101
10111100110111111111010010110000
10111101110001001100100111000101
00111101000000001111000010101010
00111101010010110010000010110101
00111101011001000100110001110010
10111101101100000010001010100100
10111101110100101000111110011001
10111101000010100011100001010110
00111011111111101011111110110011
00111101100010111100110100011001
10111110001011110100000100111101
10111100010110100011110101100100
10111100100010100111011010111010
00111101000001011011011111010100
10111101000100100001000110100100
00111101011000010011110011010011
10111101111110010111001000111011
10111101110111100010100110011011
10111110001101100111010011011010
10111101110111001010111110000000
10111100111101010111010001011111
10111101111001001011111000101100
10111110000110011100111000110000
10111101111000001100111011010010
10111110000001111000001100111100
10111100001101100100001010111100
10111101000010100101001101010011
10111100001100001100100101101101
10111101000010001001100011010010
10111101100111001110010010010011
10111011000011111101000001111010
00111100101110000111101011110001
00111101100111110110100011010110
00111101101010101010010101110111
00111101000111010101010000010101
00111100010000110100010011111110
10111101111111011001001100111011
00111101111100111001011110011011
00111101100011111011001001100010
00111101000010100101010100111010
00111100110110011100101001101101
10111110000101100110000000101000
10111101101101111110110001001011
00111101110010101100111011110010
00111100100110110111010011101000
00111101101111001010011001100111
00111101010000111100001001111011
10111101111000111100101110111000
10111101111100100100110101111110
10111101110011101111000000110011
10111101110011110111101001110111
10111101101011100100000110010011
10111101101101011000111000000001
10111101111101110011000001100011
10111100001001100010011001001001
00111101000010011011101000000101
10111101101010000100011000111011
10111101100011111000101011011010
10111101100010101000000001010010
10111101000110001110011100000000
00111101101000010100101111110111
00111100010101001010101010111001
10111101101011010111000100111111
00111101010010100100000011010001
10111101010011110100000110010010
00111101110011000100001110110000
00111101100011110001111111110110
00111101111101110010100110010110
00111100011000110011110001000011
00111101110000101001011001101100
00111110000100101111111110100011
00111110000101000111101101001001
00111101011111010100010100000011
00111110000011101110001011110101
10111101100111110101011101111001
00111100001110100110101011011011
10111101000010100001001001011100
10111101100100001001110101100000
00111101011001101010101000100100
00111101100110011110000100011110
10111100010101000100110010000101
10111101001001000010001110000010
00111101011001001000011011101010
00111011100110110111001011011010
10111101010111100111010010001001
10111101000101011001011000011101
10111101000001101011011100011110
10111101101010110011000110011100
10111101001111001111100110000001
00111101110110111011100000010010
00111010111110010011000000101110
00111101110010000111110101111110
00111101010100111111011011111110
00111101101111011001010111000101
00111100101110000100001111000001
10111100011111011010010100110101
00111101111010010000011001010011
10111101000100001111111110101010
00111101110110000001011100110010
00111110000001100000110011000010
00111100110000110111100011100001
00111101100001011110110011110010
00111110000000100000000000110010
00111101011101100100010001001111
10111101010000111010011010001001
10111100111011000111010110110110
10111011111100101111010000110010
00111101101011011000110100010000
10111100001000101010001001010110
00111100010001010100000100001100
00111100100110100010011101101001
10111101001011110000010110111111
10111011010000000101000100101110
10111100100010100000101010101001
10111110000010110110010010110101
10111101100111001101100100110000
00111101011111011011000111010010
00110110010010011101111011001110
10111100100100101001011110101100
00111011110101110001100111101100
10111110000111000110110000001010
10111110000110010110010000011100
00111100111111000001101110011110
10111011110110010000000110001101
10111101011010001001100110010000
10111100100101001011011100010000
00111101101011000100000001011101
10111101110110100000110110001110
10111011110111110000100001000011
00111101101101101101100001111110
00111101101010101011010010100001
10111100101001101011100101110101
00111110010001101110010111010100
00111110000100011100101110011101
10111101011100101001010101100101
10111100001001000101011001101001
00111110001000000011010001010101
10111101011110110101011000101111
00111101000101000100000010000110
00111101100001100011110101100111
10111100110001101101001101111111
00111101100010100111100011100001
10111101100110111110101011011111
00111101101001000111100011010001
10111110001100101001101101001001
10111110000010000011010010110101
00111101010110101110010011101011
00111100001111100100100100000101
10111101110101101001110111110110
10111100101011000010110001011011
10111110000001000100011011001100
10111101110110000100001010011000
00111101011000110011110101011100
00111110000000100101011100000010
00111101100010111001000101100001
00111100101000010100111110100011
10111011010100111110001001010100
10111101100001000110000010001010
10111101111000000111010001010110
00111101101110001001101000101001
00111101100101011001010111010011
00111101101110000001101111101011
00111101101100100011110110010100
00111101010000000110010010010101
10111101011111111101111001010001
00111011110011110111011001001010
10111100100110100000111000111110
00111101000010110111110100010000
00111001011100111100000010100110
00111101011011110100111010011011
10111101001011100100011111010010
10111101111010111011100101110011
10111101011101011111110111010101
00111100001000110111111100011011
10111101100110010011010010000111
10111101100111011101100000101110
10111101100101010100110101101101
10111101101110011010101010010011
00111101001001001111100011101001
10111100101101111101110001101100
10111101100100101110110001001000
10111100101100011001110101110111
10111100001101100011011010010111
10111100101110010011001010100111
10111101101100010101001010001101
10111101111010011000111001100001
00111101100110100111000100001011
00111100101101011111010111111100
10111101100001000110111101110001
10111011101111001011111000010101
10111011010100100110101100111111
00111101001111000011110000011001
00111101010101101011111001000111
00111101010011110000111000010001
10111101101010110101010111010001
10111101101010100111011011111000
00111101100011110010010110110111
00111101000100000101010001110011
10111101100011000100001000111011
00111101011110010010110001101100
00111011101101100010011011011001
10111101110001110111110111111001
10111101110110011100000100111010
10111101111011010111001001111001
10111101101100111111110001010001
00111100111100110111110011111101
10111101001010110101011000110100
00111101011101011010000001101110
10111101000110011111101100111011
00111101001011111110111100001111
10111101110110111011000110110000
10111101110010000111011110111010
10111100010000010110110010000110
00111101101001100011110111001111
10111101010010000000010101000000
10111101110101101110010110001010
10111101110010111000100011001111
00111101100101010100010011001011
10111101101001100010011010111111
00111100000100110000110100010110
10111101010100110001110000101100
00111101100111000010111010111110
10111101010100101001001010111010
00111010111011110001110010110001
10111101000000100000001101110101
10111101100001011110111000110110
10111101010110011111001101110111
10111100101000010010101111110101
00111101001110000101000010110111
10111101101011011100110011001111
00111101001111010100000010001001
10111101101100010101010111100000
10111110000101100001110100100010
10111101110011111100111000100000
10111101100110110100110111101111
00111101000011111010110000011011
10111011111010110100011101100110
00111101001011000110011010011000
10111101111101011100111101100011
10111101111101000111111111110010
10111101011010001001001000011000
10111101011101100001100100101010
00111100101111110000111111101101
00111101100010000011011001011100
00111100111111101010010011101111
10111011100011001010010100010110
10111101100101001010000000100000
00111101101101001011001101000011
00111010111011010110111101011010
10111101101101101101110001000101
00111101001101001110000010011101
00111101011000010010000011101100
10111101011010000000111000011100
10111101011000110101010111000000
00111101100010010100100000001000
10111101101010011100001010000111
00111101101101010110101001000011
00111101011000011000101001100001
00111011100101101100110011010100
10111101000110000000111100101001
00111100100011001110101010111001
10111101000101000001100011110101
00111101111100101111100101011100
10111101101011010010100010110100
00111101011011101111110100101001
00111011111001101110111010001111
00111101110011010011000001000001
10111101100000100100111000101111
00111101011100111011111010001001
10111100001010110010100000011100
10111101101000101000000111111010
00111100011110111111111100001001
00111101100110110001110111110001
10111101001010010101100011111000
00111101111110111101101101000101
00111101001011100111111001111110
10111100100101011111111001100111
00111101101100000101011010110001
00111101100001010011101001010100
10111100010001011011001110101010
00111101110100010000010110111010
10111101100000000100001001011111
10111010111100001010100110101100
10111100110110011101000111110010
00111101011000011000100011001001
00111101110001101111011100011010
00111100011000011001001001000110
10111100000001001010101010001001
00111011100000101100011000001110
00111110000010110101001010011111
10111101100111110001001101101011
00111101101101110100111100111000
00111100101111000000011010011010
10111101000010101111001001110101
00111101000110010100011101000000
00111110000100011101101100100111
00111100111100111101011101110001
00111101011010001001000011011110
00111100011001110110101100000101
00111100100001001110110011001010
00111101100111110111111011011101
00111101000011000110010111110010
00111101110000111001011000101011
00111100110001111110011100100110
00111101010100010011110010110100
00111100111001010011110111100001
00111101110000011000001010110110
00111101101001011010010111111111
10111101101000111010101111001111
00111101110111011001111010001010
00111101101001111010000110011010
00111101001011110010000111001111
00111101110111000111111100010101
10111100111010100011110101101000
10111101011000001010010111100111
10111010010000110110111100010110
10111101010001000110001110111110
00111101100101000110000010100000
10111100001011101100010010010101
10111101000001101000100111110101
00111101001011000110100011011001
00111100100101001101110011100111
10111011001010101001010001000010
00111100011111100100011010110000
00111101011000110010010001001010
10111101010001110001011110001010
00111100110000111110101001100101
10111101011010100000100010111010
10111101001000011100111101100001
10111010010000000011000111001000
00111101010010111111100011001011
10111101101000110011001001000011
10111101000000000011001000001010
00111101000000001001101010011010
10111101100111000101001011110000
10111101100000000100101000010100
10111101001000001101100100100110
00111101000001000010101010111111
10111101101101000001111001110010
10111100011100110011111111000101
00111100101110100100101010101101
00111110000000010001101111001110
00111100001001101001110111011000
10111101111100010100111001010101
00111011101111000111110011011101
10111101010001010010001101111111
10111101010100001010100110101111
00111100110010101001010000100000
10111100111111100101001001110110
10111101101011001010010011011010
00111011011011101111101001011110
10111101001000001100110001111001
10111010110101101000010110000100
00111101100100101010000000110011
10111101101001100110110011110101
00111101001101010001100100100100
10111101101101111011110111010110
10111101001111111110001010110000
00111101010101110100101010111110
00111101110001011011000111000010
10111101101100101111010100011001
10111101010010010001001011110111
10111011100011100011111010000011
00111101000110110111000100100001
10111100111111101010010001100010
10111101101011110110010111100011
10111101000111010101000000001101
00111101101000011110001000010010
00111101000000100111100101111110
00111101101000000110010000100111
10111100011000111111001010011101
00111101001001111110011000100010
00111100010011111001001010100110
00111101011011000001111101000010
00111101000111001100110111110010
00111101010010011110011000000000
00111110000001100101100111000010
00111100110011101011101001011101
10111100001011101010110011001100
10111011011011111011011011101000
10111101010000011000011001111011
00111101100001100111111100011011
10111101011110101001111010000110
10111011110101011000101111000100
00111101111011011111100000100100
00111100011100100101110010010000
10111100111110100100001110010011
00111101110000011001010011010101
00111100111000010001100101011000
00111101110101011101111001011000
10111101101000011011111000101010
10111101100100110111110011111001
00111100111101010110110100001011
10111101010000101110011111100010
00111101000110101101010011010111
00111101000011001111010100010101
10111101101001110010001111101100
10111101110100000001110001100110
00111101101001110100000001100010
10111101100000001010010101000000
10111101001111011101010000000000
00111101100010011111011001000001
00111101101100000101101010010001
10111100101110001101101111001111
00111001010010111111010001110001
00111101110100011111001001011111
00111100100100001100101011001011
00111101001110110110001010010010
00111101011000010001011101001100
00111101110111000011011011111011
00111101101100110001101000000010
00111101001010100111101010000000
00111101011010100011101010010010
00111101110010101100110100101111
00111110000001000000101000010000
00111101011100000110111110011001
00111101000010101111111010101000
10111101110011011110111011111001
10111101101111110010110000100111
10111101110011110001111001011000
10111100100110111010000111000000
00111101010111100100011110001011
10111101101000110001111100110111
10111011100111100100111011110111
10111100000101001010100101011110
10111101001100100101100110011110
00111100010101101100101001111111
10111100100000011100110001010000
00111101100111101101110001001001
00111100110101100111000000000111
10111101111011110100110000110101
10111010001011110101100000011010
10111101101100010101111101000101
00111100010110100011001001001101
10111101100111010000111111011011
00111101001110000100010000000011
10111101110110101011000011110011
00111100100001000100000100010001
10111101100100010111000010000110
10111101101111110101001100110100
10111101010111010101000001111010
00111101010000000010110101010010
00111110000011100011001111101001
00111101011100000001100100101110
10111101011101011011011000110101
00111101110000000111101000111111
00111011100110111011011000101000
00111101010101011001111101001101
10111100110011001101001001001100
10111101101001011011001110111111
10111100101001000001001111100101
10111101100010101010010101010100
00111101101000101110111111101010
00111100001001011000110000000011
00111101101000000011000101010110
00111001111110011111111100011100
10111101100010001010010100101010
10111101100111111010000011000101
10111100001010110001000111101010
00111011011111000010110100010100
10111101110001100101011011101111
10111101010011010100111000101111
10111101100111100111001001001111
00111101011011100010101010001011
00111100011010010101110010100001
10111100000100000100011011000101
00111101000111010011110011111101
10111101010100011010100011101000
10111101100011010101111000010010
10111101000011101101001001111100
00111101101111011110100101101111
00111100000001000010010100111100
10111100100100111100100001011110
00111101100010010110111010111001
10111101100000001110110100101000
10111101100001110010010000100100
00111101101001000000111000000100
00111101101010111010111110011100
10111100101000110100100010001000
10111101100110001101010010111100
00111101010000110101100011111010
00111101001101000011000011010001
10111101100010111001110001001111
10111100110110110010101111110101
00111101111101110100111010110000
10111101100000101010010010101000
10111101001001000001001100011010
00111101111011100001000001100111
00111100111001100001001011001111
00111101110001110001001110111111
00111101010000011000000110001000
10111100100011111101101101101110
10111101001011010100010001110100
10111100001100110110010100111001
00111101101111001000101011110001
00111101001101011100101111000111
00111101101010101101001000111101
10111101000011110010101001100111
00111011101101001000111101011110
00111101010010010111110010000111
00111101010100111110101111001000
10111101000010100010011001110000
10111101001000101000111010101011
00111101001000000000000111001101
10111100001000001110111000101001
10111101100011011101011011011101
10111101100111011111101101101101
10111101110101001111111010000111
10111101111000101111100000110111
10111100101001111100000110110110
00111101100000100011110111000011
10111101111000001101100110010111
00111101011010110111001110001011
10111101101101001001111011111111
10111101111000111100100000110111
10111101011010010100011111110101
10111011100010000011101100000001
10111110001000101110000110010001
10111100111110000011100000101000
00111011110110010001011011110100
10111110010001001010110010010000
10111101000100011101100111101111
10111101100110001111000101011010
10111100111100010110100111111110
00111011101101000010101110000111
00111101000101101110000011101111
10111101001010110010101110101111
10111101101111111101111010000111
00111101111001110111010110110011
00111100001110100100101110011001
00111100111101110000110110000000
10111101101001101100101101111000
10111100111010010111101000100111
10111101101101000001100101101111
00111110001100111001101010010110
00111101011101011110100001101111
00111100011000010001110111011000
10111101101111011001100010100100
10111010101111100111110001101000
10111101111000000011111100001111
00111101011011000101001010001011
00111011101001110000101100111100
00111101010111101010011010000111
10111101110011011011001111101110
00111101101011111011100011011001
10111100011001001001010100000001
00111101001000010111110000100010
00111101100110000001111100001010
10111101101000100010111010000110
00111101011010111110110000110101
00111110000111110010111100100000
10111101111000010111100100100110
00111100100111111000000000001001
00111100111001101100111101001111
00111101101000110101011010001111
00111101100011000100100100101011
00111110010001011001110011001111
10111101101101011001111001010010
00111110000100110101111010010010
00111110001000001011000011010111
00111101101101111011110111101110
00111101001000110010101011001010
00111101100011111101111011010101
00111101110101100110000110101101
00111101111001011000010101111010
00111100010011100101101111100001
00111100110111101001011110110100
10111101010010011011000110101010
00111110000010101000111110000100
10111101001101100101110100010000
00111101110100010110111101001000
00111110001000000000100000001111
00111101000111101001001001111000
00111101111010010011100010011010
00111101110111111101110011011001
00111100101111011010000110101100
10111101000001110000110000001110
00111101111001111110100110100100
00111101101011101100111010010110
00111011101001011001011101100010
00111101111011010100111010111010
00111101100010011001011101000100
10111100111110000111010111000110
00111101111111010010111101001000
10111101100010101000111010010110
10111011011110001000110001111000
00111101101111111010001011101110
00111110000110001001011101000111
00111110000101001100010001101101
00111100111011000010100001010000
10111100110100111100001101101000
10111100011111000111011010100101
00111101001111000010111011001101
10111011101010101111001101010011
00111101001100110011110000100101
00111011111101110100001111011111
00111101111110000011000101000000
10111101101110010000111000110010
10111101100000100011001011011010
00111101010010011101110010110011
10111010111101111001010110100101
10111100100111000010001111100010
00111101110011011100000011010101
00111101011100000001010000000101
10111110000100011011111010000110
00111101010000010101101100100001
10111100110000111100100110101100
10111101011010110111101001011100
00111110000000000100010111001010
00111101100101000011011000100001
10111011101110101101110101010010
00111110000101111110000010100011
00111101100010010011100100001011
10111110000001011111111010100110
00111101011110111110101100011010
10111101001100100111110111001010
10111101110000111101000101110001
00111101101100000100111000110001
10111100110111000111011010011001
10111101110011001000001010110011
10111100100100010101011000100001
10111101101111111010000111101010
10111101101011010110111011011001
10111100010011011101100001101001
10111101111010011011110011001000
10111101001000001001100011110011
10111101010010111000100010111100
00111011110010100000010010100011
10111100101101011011100111011010
10111100110110111011100010011111
10111101101001011100110111001001
10111100101000111011110011010101
10111101100011010001001010000101
10111101110110011010111111101001
10111101111001111100101011111110
10111110000100000001111010100110
10111011111001100010000110110110
10111100111011011100100001101101
00111010011110001100011100101001
10111010111111000101101011101100
00111101100101100101111011111010
00111101001011110111000100001001
10111100110111000110000001001010
00111101101100101111010001100100
10111101010100010011111000110011
00111100100101110011110101101100
00111100001000011000110000110101
10111101100001001010000001010011
00111101001001110010010011011100
00111100011010111100000010100000
10111101110100110001000011001011
10111101101000000111001001100000
10111100101110110000000100001110
00111101011101010111001000010010
10111101111100101110001010110011
10111101101001111010110000100110
10111100101000010111110100000110
00111101010000110010100110000100
00111110000101111110001110100100
00111101011110001110010110000100
10111101000101010000011110110101
00111101111100111011100101100001
00111101101000001011001010110010
10111101010010010011010110110101
00111110001110000101000110000100
10111101000110101101010111001010
00111101111111101011010010011110
00111110000110000000010011011111
10111101110110100001001001100110
10111101011010010010111001000000
00111011111101110011011001010000
00111100011101001110010000001110
00111101100010101100010101101111
00111100110001101100011000110010
00111101001000000111100010110000
00111101100010110100111111001101
00111101101010110110010101110010
00111101000101111101111000111111
00111101110110110101110101010001
00111101011001101010010100010100
00111101000100011100100111110000
00111100101010110001111011110000
10111101001100100011000011001001
00111100111000011110111000110011
00111101100011010101010111101000
00111101011100010010001101110111
10111101001111000100001011111001
10111101011000110110101000010110
00111110000011100110010110001000
00111110000111111010010101111000
10111100001100001110001011000111
00111101110110010010101111101111
00111101010111010001110010010100
10111101101101100001011110011100
00111101111011110101010111100000
00111101101001110010111110011001
00111101100101001001010001000111
00111101110000000101001110000110
00111101000110010100101001000010
10111101101111010000110100110100
10111101001100101000101011110011
00111110001000101010100001100110
00111100100001111110100010100111
10111100101110100010001010111001
00111101011111111100110110110111
00111100000010110110010110101001
10111101100111111011001010110010
00111110000101110010010001111001
10111101011000011001100000101000
10111101010000100010010011110110
00111101111100001101000011010011
00111100000001111010011101011000
10111100011000100001000000111000
10111100011111111100001001000101
10111100100111110000000000001110
00111101110101011101010000111001
10111011000110010100101100011010
00111011111001010001111011010001
10111110000011101001111010010110
00111110000010001100110000001011
10111110001010111000010000111001
00111100101010001001110101000010
00111101100110010000110110010111
00111100101000100101010000000000
00111010111000100101011101100100
00111110000010111101101001111110
10111101100010100000101101010011
10111101111010010110001000110010
00111110000001100110000010000010
10111101011101110010101000000000
10111110001101001110100110111110
00111110000000101101001110001111
10111101111011100110101010110010
10111101111011001011011111100011
00111101100010101110000110111101
10111101011010111100001111111111
00111100010001111110110110100000
00111101100101100010000100010101
10111110000100010001011111011001
10111101100011001110001001000111
00111101111001010110000101010010
00111100011010110000011111001101
10111101110010011111011111100101
10111101101110110111111100101100
00111101010011111111001110110110
10111101110101100001111101110100
00111101111000010111111010000101
10111101100000000010000100100111
10111110000110100011001001001001
10111101100000000110101001010111
10111110001000101011011010101010
00111100101101100110101101011110
10111101011010110110111110100111
10111101100101111101001100101011
10111100101101101100000011000110
00111101000001001000000111100000
10111101100010010110110010011110
00111101101000001010010010000101
10111101101110111000010001100001
00111100110101101010010101110001
00111101010001000110110001110010
00111100110101010101001000000010
10111101110110101001110100110011
00111101100100111101101111111000
10111101011111001101110100101110
00111101001000000101010011011001
10111101010110000000000011010001
10111101100110111010111111010101
10111100111110101000000011001000
10111101100000100010010001110001
00111100111111001101110101101011
10111100011111101010111100000100
10111101110010111011111000011010
10111100001010110011110100011000
00111101100001000100101000101111
10111100000100101110100011010011
10111101100011010001110001000011
00111101010111101001101011101011
00111100100110100100011111011110
10111110000100010000101011000110
10111100110100010001111100000010
00111101110001110101010011100011
10111101110010000010110000010010
00111101010000011101011011111111
00111101110101011101100010010010
10111100101111101101100010001001
10111101010100101000000111100110
00111110000101011100100110100101
10111101101100010000111011011100
00111101111000100110000000011001
00111101100001000111101101100101
10111100010101110110010111001010
00111101111111110101101101100101
10111100110111101001110000000101
00111011101101100100111011000101
00111011011001001000011010001101
00111101111101001000100010101000
00111101100110001110010010000110
00111100110000000011000001101000
00111110001001101000101001110011
10111101100101011011110111101101
10111101100000110100011110100110
10111100111110110111011011111110
10111101110010011001110001000111
00111100011110010010101111010110
00111010000111011111001011101010
00111101011101111101110110011000
00111101001010110000011111100110
00111100100011011001010000101000
10111101111001111100100101101101
10111101101001111000111110000111
00111101001101101111101001100100
10111101001011000111011001101111
00111101000111000011111111001010
10111101100110001100110000100001
00111101010111010001001111011011
00111100111100110010000000110000
10111101000110101100111011000100
00111100011010101100100011100000
10111100101110010101100101011000
10111100000011110010010111001100
00111101110111111010011101100010
10111101101101100100010100111010
00111101100000010001111001101111
00111101001111111010000010001111
10111100101001001011011010000111
00111101101001100001101010110100
00111101010111011111001111100101
10111101101011110100110110010111
00111101010010010010100100001101
10111010100100100011101000111010
10111101001010101111101100001111
10111010110100100010100110011100
00111101100111111010000110111100
10111101101000000001101100110111
00111100101100101110000000111111
10111100010101000110001111110001
10111101101101010110111110001111
00111101000011100101010010011010
00111011111110000010111000001001
10111101011100000001100100010001
10111101011010111111101011011011
10111101110110100111001111010000
10111101011000111111011101001000
10111100111101000001011100011010
10111100101110000011101001010101
10111110010101010011101001011010
10111100101111000011101110001010
10111101100001000010001000100110
10111101100000000100100000000100
10111110000011100011110000101011
00111110000010100000011000000000
10111110011101111011100100010110
10111100101001001001000000101100
10111100000011001111011010010000
00111100111110010110001011011111
10111110001111000110010101111101
10111100000110011011000001110010
10111110001101100001000101010000
10111110000100111110110110011001
10111101101101011100011100010011
10111101110010001000001000111001
10111110010100110011011101010100
00111101111100111010000110001011
10111101011011101011101011110111
10111110000101111101100001000001
10111101100001110101010110101000
10111011101000001111000110010110
00111101011100010110011100000101
00111101110101111000011001100010
00111101110010000001011100010100
10111101100011000101010110010010
00111101100101110000111110110010
10111110000100010101111111001000
10111101101000011000000000011001
10111110000010010000000101101011
10111110000101100001101011110001
00111101011001011011001001101000
10111100100110110101000110101101
10111011111001000000011000000000
10111101011101010010000101101011
10111110000001101011000011010111
10111110000001011011111001000110
00111101010001110101110010010100
00111101101111100111101001010011
10111101010000101111001000011100
00111100011110001110110011000100
10111110010000000011110110100101
00111101101110110100010111011110
10111101000000001011100010111111
00111101001111100101010010101111
00111101100010011011010000011001
00111101100010011101110101001011
10111101111001011101110110101001
00111101010001110111011011100001
00111101100110100010011010001011
00111101001000000001100101011010
00111101011001000001111001011000
00111101100111111111100001101011
00111101111110001000110010110001
00111101101010001111101000001011
00111110010000110000001100001100
10111101101110111001010011011111
10111101000110000100111000110101
00111110100001100111001000110000
00111101000011011011101010111011
00111110000111101111010010110100
00111110001110100001011001000000
10111101011111110100001110101100
10111100011001101100101000001110
00111110010101110110101000001100
10111110000010111110010000101001
00111110001010011100011000110101
00111110100111101001110101100010
10111101111100011001000010001011
10111101010001001000000110111101
00111110010100111101010101011000
10111101011111100000100111101011
00111101111111001000001111000001
00111110100001000100011110011010
10111101011011100100010001011000
00111010011111100101010101000010
00111110010011101010100011110010
00111100011001000100111000111000
00111100110111100100011111011001
00111110000011100010000100100001
10111100001110001011000111111001
10111101010100011110011011011110
00111101011010001111000111100100
00111101100101100010100110011010
00111101101101011010010000100000
00111100101000111101100101011000
00111100101101001100110100111100
10111101000010001101010010100101
00111110000001101111000011111011
00111110000100000100100101010101
00111100100011000100101010001110
00111110000100110000000110010011
00111010101010000111011111001110
10111101100111011100110001100011
00111110000111011100100001111000
00111110011010000001101110101011
00111101000001000101111101111000
00111101101000101101111100010011
00111110000001111000110010101011
10111100110101111001010010010110
00111100011001000011100000101101
00111101101000100110010101111011
10111101101000100100111100001100
00111101101011101110101110001101
10111100110001011010101000101010
00111101100101100000100001101011
00111101011001110111001100101100
00111101000011111011100010000010
10111101111001110101111100101100
10111101001110101101110101001110
00111100101011001110110110001011
10111101101111110011100000001001
10111101110111101001001000110010
00111100011101110100110001001001
10111110010000010001000100100101
00111101001010100111000010011100
10111011110111001101101010110001
00111101110010111011101101010011
10111101100000111110011110110111
10111101110101111001010110110001
10111100010010110110111010111001
00111101101111110100110000000111
10111101100110110110000010101101
00111011100101111000111111110011
10111011111111000011000010111001
00111101100000110001111101011001
00111110011110000000101101100110
00111101111001001111001010000110
10111101110011111000010000110010
00111100011000101100111110111001
00111101110100100100111011010011
10111101110101110110001101111011
00111110000001001111110111100110
00111101000110011000011011001111
00111101101001100100010001101111
10111101101111101000001010101111
10111110000000001101001011010000
10111100001000100110100011111011
10111101111110100111111110000111
00111101011000100111010110011111
10111101101001011100110110110110
10111101100000101001110001110100
10111110010000101110110000001001
10111101000111110010100001000110
10111100011001101110011111011101
10111101000101100111000010111101
00111101100110110100101010101101
00111110000100010101110101110101
00111101010010100101111100011111
10111100111111011000110111101010
00111101100100111111000101110111
00111101111001011001110001001111
10111011101011011111001101100110
00111101110001001000011111111001
00111110010010101110011010111001
00111101100100101000101101001010
00111110001010100011100101111010
00111101100001111011111110100101
00111101101101011010110001001001
00111011011011011010111010011110
10111000110000010001001011110001
00111101110100001110000101111110
10111101101110001001101110011101
10111011110001100100111000000000
00111100010100001101000101110001
00111101101011010111010000001110
10111110010011000001010101100101
10111101110111111110101011001010
10111110010000111011110100110010
10111110001000110101110100011110
10111011010000000111100010001110
10111101001010100011101000000000
00111101011111101111011010110110
10111100100010111000111100101111
00111100001010100001010101101001
00111100000010001101001100010001
00111100000011011110101000101101
00111101110110110001100111000000
00111110000101111110111000011000
00111101001001000100111101111000
00111110100110110110011111101011
00111101110000011110010000110101
10111101010110110001101011000100
00111101001001110111111100110000
00111100111111111011100110100110
00111110000010001000011100101001
00111110001100101011000101111110
00111101101001110011011111001101
00111011111010000111010010111001
10111101111100101010101100111000
10111011010110001001011110011011
00111100111110001110111001110111
10111011100110100001011111010000
10111101010011101000010101110111
00111101111111101110100100111110
10111101111110111011111110011101
10111110001101100110110100111100
00111100101010111100100100011011
00111100011011001110000101000000
10111101110010111100110011000001
10111011100100001111010011100001
00111101110010100100000100011100
00111101111011110011100111000100
10111011000000111001010100101010
00111101110010110111110111011100
00111101011100000100101110101110
10111101000101100000010110011101
10111101011111101000000100010011
00111101000110011001111100111000
00111101110000100111111011110101
00111110000000010010001111111010
00111101100011100100011000011100
00111101100110100100101111111000
00111101010100101001111111011011
00111011001110011010101011001110
00111101001010001001110100010001
10111101100111000110110100110001
10111101110100000000100010111101
10111101101101000001100100011110
10111101110110001101100000101000
00111101100001101000101001100101
10111101100100111101000011011001
10111101111111011001011100011010
10111101001111011101110100101111
10111101111000000111011000101000
10111100011010011010001010100111
00111101000101101011100011010100
10111100111110110111111011110000
10111101010011001111010110111001
00111101011000101101101111011110
10111101100110110111110101111110
00111101111010011100010111000100
00111101100111011010000000011110
00111110000000110100100000111110
00111101110011101101011010000001
10111101110011000001010000011001
10111101100111010011001000010000
00111101001001111010101011100100
00111101011110100101100101111010
00111101111000101000111100001100
10111101010011010100000100000010
00111101000101111010000000010011
00111100110001000100011001100011
00111101010000000110010011011011
00111101101010100011010110001010
00111101100101001111000101010011
10111101101001001110100100111110
10111100101000011111010011000111
00111100100100110000101101011100
00111100100111110001001101001111
00111101001111111010100110111010
00111101100000001111010110000101
10111101111110101100101111101111
10111100011111101111000110101110
00111100110100100100111111011110
10111101101010101101111101010101
00111101010101001001011101001101
10111101010010100101111100010101
10111101010110010010011011101011
10111101011111011100110100110110
00111011101010011001001011111000
10111101100000010010110001101111
10111100111101100100010111000001
10111101001100111111010011001011
10111101011000000101101001111101
00111101100001110100111001110001
00111101101001110111010010100110
00111101110011000001011001011110
00111110001000101101111110100110
00111101101001100000010100011010
00111110001100110110000100001110
00111101011010000110011001110000
10111101110101011010100001000100
10111100100100101101000101000100
00111110001100000011111010001100
00111101110101110000110100000010
00111100011111101100010000001111
00111110000100111011100001110110
10111101011001110101101101100001
10111101011101101101000010001110
00111101101001101110010000001010
10111101100101111101110010010010
10111101100001011110010000000000
00111100100001000000000000000110
00111101000010110110110000010100
10111100101110011000111000000101
10111100101110001010001010010101
10111110000010000100000100010010
10111101111111101001011010101100
00111011001001001001001000000100
00111100001001010100101101001100
00111101101111110010100110000011
00111101001011011010000100000010
00111101110011011101001111100110
00111100010010000001101101011111
00111101000010001100010011100110
00111101101101011100101101011011
10111010100111101010000000010001
00111110001001001111001001010100
00111110000010100001011001001101
00111100110011101100011000010001
00111101010110010000110100001101
10111101101100001100111000010101
10111101100010111100001100110011
00111101100011011001110101100010
00111110001101101111101101000100
00111101011100001110101000011001
10111100010001101010100110111010
10111101001001000100010100011100
10111101000101000010011000101000
00111101101011101001100111011101
00111110000011010111011001100101
00111101100010101100100110011111
00111101110011000101011010111000
00111101001001011011101100010100
00111100110000001010011110111100
00111101000001110010110110100001
00111101000101010111101111001010
00111100011110011100111111000100
00111001110000001110001110011010
00111100111101011010101111001001
10111101101001010110110010000000
10111101101111101100100111010111
00111110000000001011001111100011
10111110001101110100001111000110
10111110000101100101100010101010
00111100100001111101001100010010
00111101001110011110001001110110
10111110010011111100111110011000
10111100111001101111100111101010
10111110010011100011010111011000
10111110000010001010011110100001
10111101000000010011010010110101
00111101100011101000011011011100
10111110000110101000111111010111
00111101101010111101111100010111
10111101100010100011001001010100
00111101010110110000001110110001
00111101100000010000000001100111
10111101010110000001111101010010
00111110000101000000001100011011
00111101001110111110010101110111
00111101111000000010000011011010
10111101001000110111001100001011
10111101101101101110010101101111
10111101010000010001111000111010
00111101100110111011100010011101
10111101011010100001001100101111
10111101001000111110111010110101
10111101000111100010000001010011
00111101111110011111110110100101
10111101000011110100000000010001
10111100100011011110001110011001
10111101111101101000010101011000
10111110001110010001111101000011
10111100111011000100010001101110
00111101100110101101111111111110
10111100101011101111011110001011
00111001011101110001111101100000
10111101010111011111011001010110
10111100111110110001110111111101
00111101100011000001010010011111
10111101010110010110100110001101
10111011001000110110111101110011
00111110000000101111001000111100
10111101100111011000001000100010
00111101010000111001100111100101
00111101100010000001111100000111
10111101100010010000011110000000
10111101001101010011110110001100
00111101100111111101001001010000
00111101100111110110001110011110
00111100110110000100111000010000
00111101101011010110110000001010
10111101100010100010010101000001
10111011101000100001100100100011
10111101000101000000110110101010
00111101001100110011111101111011
00111101101010110110010100001000
10111101110011000111101010110011
00111101001101111000111111000011
10111101100100011011100011001000
00111110000100001001101001111100
10111110000000100110011010001000
00111110001000000100100110010001
10111011111101001000001000010100
10111100100010010011111101011010
00111101100100101001111010001000
00111101111010101011110100111101
10111101100010010110000000001101
00111101110111000010101100000010
00111100100010110011110111010001
00111011101110111111001010000011
10111101101011101010010011110101
00111101001010001110010101000111
00111100110100100100111011011111
10111101100100010100010101111000
00111101110000010011000001000110
10111101001100001100010101010100
00111100001010001100010110010100
10111101011000100110110101000111
00111101000110111101101101000001
10111101100010010110001110100100
00111100010101111111001010100011
00111101101000000001001001111001
00111101100101101110001001010100
10111101111011011001101101010001
10111101101000011110001111110010
00111100000000111001010110101000
10111101100010110001110101101111
00111101001111101011001010100111
00111101110111010001111010111100
00111110000001111000111010111010
00111110000001110110011010000101
00111110000111101111010010111111
10111101001101000011010111101111
10111101101111110100101111100001
00111100000001111001011011100001
10111011111111000000101000110010
10111100101110100101010000110010
00111110001000011100100011100001
00111010000011110010100100001011
10111101110001110111111100011110
10111101110111011010011010100001
10111101100110111101001010011011
10111101010101001001010110001011
10111101011000101101100010101001
10111101001110010100000001111000
10111101100111001010000101111111
00111101100110000111110001010101
10111110001001111010010111000111
00111100110001011110010000000010
00111100001010001110101011101100
10111101110101000011011111000010
10111101100110111111010100110101
10111101011101001000010110011001
10111101001100010111011101111110
10111011011010010010101110111100
10111110000001010011111101100101
10111101101110111100110110001001
00111100111110010011100100001111
00111110000100100100001100111100
10111101010011101001110110011111
00111110000000100010010001110000
00111110000011100001101001101101
00111101011111101011011010110001
10111101101110110100011010000000
00111101100011011101010001010001
00111101110111101011000000110010
00111101011001101101100101010000
00111101010011011010011001110110
00111101111010111100000110101110
00111100010100101011101000100010
10111100100010001011010100010000
00111110011011100111011100111011
10111101010000011100011110001001
00111101011110010010000010100101
00111110010001111110001110000110
10111101100011000110101101101010
10111101001100100111100010100110
00111101111000011011100101010011
00111101010100110100010001000000
00111110000011000110101000110000
00111100110100100001011100001010
00111101100001101010010111111010
00111101101000001010000110111010
00111101101111111001111010000000
00111101000100011000101101100000
00111101010110000001100010100100
00111110001000000011111000000100
10111101100011101010101010011000
10111101100111011010000101000100
00111101010110111011101100010100
00111101100101110111011010110011
00111101100111011110011000000010
10111101110001111110011001100110
10111101000010101111111101111000
10111100101110110000010111110111
00111101000001010000011110110011
00111110001001000111001101010001
00111011111011110100001001000000
00111100000111001011011001010100
00111101001110111010001010100111
10111011011000000000111001001101
00111110010000110101110111100101
00111110010110001100001111010001
00111110000101110001010110010111
00111100110000111010001110100010
10111101101010011011001100001010
00111101110000001001011101001100
00111110000010010100011000100111
00111101010101101110000001101001
10111101100001010100011111111101
00111110000101000100100011011100
00111101110101100000000011101011
00111101100101100111110001100101
10111100011010100100100111001110
00111101101101001001000110000101
00111100100000001001101101010100
00111110000110000000101010110100
10111101011111100011000011101110
00111101010101011111000010110111
10111110010100101011101100101011
00111101101010111001000110111101
10111101111001010101001111000110
10111110001010111110100101001000
00111100100000111100011111100111
00111100000000100011100110110110
10111110010111110000011001001000
00111100110001101111100110101001
10111100101010001010011001000110
10111110011000110101110011111000
00111101010011100111110010001000
10111101011001011000101001100001
10111110011101111010111001111011
00111101011000101110101111011001
10111100010001101110001100101110
10111110011010100011000110101100
00111110000011001110100010011100
10111101101101000010010110011010
00111011000111011011010100001011
00111101100110111110011100000001
10111110000101111111101100110110
10111101110011011101100100000110
00111011001010110111100001111111
10111101011100011001110001111100
00111100100010100000100100111100
00111110000101001110011011110110
00111101011110101110101000010111
10111110001010011100111000111010
10111101101010110000000000010010
10111011111101100100111101101010
00111010010000000001100110111100
00111100100111110111001000110110
10111110000000010101011000001010
10111101110101001111011011110110
10111101100101101001101110101000
10111101000001101010111000100000
10111110000011000010111110001001
10111110000100110000011100101100
10111101000111000001001000000111
10111100110011111000000100001001
00111101011111001000111100101010
10111101110100011000000001111011
10111110000111101000000010100110
10111100101100111010001101010111
10111101000101111100111101111000
00111011011100001000010000100001
00111101100000001111101010010101
10111101011010001110111000011111
10111101100001011110111001000001
10111100110101111101101111001010
10111101110100011000100011100101
00111101101011100001000100001010
10111101101101001001110000000011
10111101101110110101010100010111
10111101100111111011100100011011
10111101100111011110100011110000
10111100111011000101101100010100
10111100010001011100100011010111
00111101101101101101100100110110
10111101110100001011011101100011
10111101111011000000010010001111
10111101101100101011000011101110
10111101110011110011010000111110
10111100110101101101010100100000
10111101101101111010100110011001
10111101110011011001111000000010
10111101011101110000101010110000
00111101001110100101111111111000
10111101010001010001111001111010
00111101101010001011110111001101
00111100011111100100111110110101
00111100101110111000111100111001
10111101011111100011100110110010
10111110000000010101111111111110
00111100000000111111000100010011
00111100110000111000111110101101
00111101100010100110110101011110
10111101101001010111000100011000
10111101011101010101010100010011
10111110000011101001011001100110
10111011011110101001001010011110
10111110000100000110010110100011
10111011001001011001111001001110
00111101011100010010010111100011
10111101100000100011101101011101
10111101001110010010010001100101
10111101101011100001000111001101
10111101001011100100001011110010
00111101010000100011100110010011
10111100001011101010011010100110
10111010101010110110001110000001
10111100011011100011000110010000
00111101001001011110001101000010
00111101100101100101111011100010
00111011101110011010110011001100
00111110000001010011101000101110
00111101100110111011100011000100
10111101111000100111000101100010
00111110000101111110000100100001
00111110000000001010010111011010
10111101010011011010001010100010
10111100010100100110100010100011
00111101111111000110011000010110
10111101101111010001011101110000
00111101110100001110111011010111
00111101101001100100101100110100
00111011001010001001110001011111
00111101000011110010101001010011
10111100100101100011101011000111
10111101110001001111000100110011
00111101000011101110010010000010
10111101001001010101011011101110
10111101100011010001100100110111
10111100000111101011010001010111
10111101100000011010000111001000
10111101001000010110110000110001
10111101010100011011100000011000
10111101000110111100001101000101
10111101011001111000100010100110
00111101101010101110011011111001
00111101011100001110100010000100
00111011000000110011001010001111
00111101010000111111001101100100
00111101101000000011000011010000
00111101101000101101001000000001
00111101110001000001000001110100
00111101100010011011111100011110
00111101111010011100010000110010
00111101110000101001000001110110
00111110010100100000101101101000
00111101010000011011111010001001
00111101111010001011110001101000
00111110010111100010110010100011
10111100100010111011111101101100
00111110000101010100100100001001
00111100100101101110011000010010
10111101100000100001010011111011
00111100111001010111011101000000
00111101000110011101010110001111
10111101010100011110110011011101
00111101011010011011101100111100
00111101110011100100001000100101
00111101100110101110101000111111
10111101000111110100111101101001
10111101010011010001101101101110
10111101001011101110110110110111
00111101000101110011000010110010
00111110000011010111110000100000
10111101101011110101001110100110
10111011110111000001001000110000
00111011001111011101110001110101
00111100000011111011000111111011
10111101110110001011111100111110
10111101100000111110100000110101
00111101101101101110011010101111
10111101010010011001110110111010
10111100000001110111110000011011
00111100101100010100110101101111
10111100111011000000100100010010
00111101101001100101101111111001
00111101000110001100100011011100
10111100110110100110100010100111
00111110000111011111001101001011
00111101010111100011111011001110
00111101100110010001010110100010
10111100110110010110010000010101
10111101011001001000101010111100
10111011110101011000001011100111
00111101111011010101000100000101
00111101011110011110011000101000
00111101010101110110101001000100
00111110000111011110110010000000
10111101001110111111110101000010
00111101110100111011100111101100
10111100010010110001010010100011
00111101101111010011000010110101
00111011001111010000101011000100
00111100110101100010101001111110
00111101110000101010111100001000
10111101100101110111011110011110
10111110000101100110001101011100
10111101111010011101110110001100
10111110001101000010010111100111
10111110000000000001111011001111
10111101100111000100011100001011
00111100110011111010011010000111
10111100100010101000010110010110
00111101101100111010010101011111
10111101001100011000010110101100
10111110001000010011110010001111
00111101000101111100111010010100
10111101101101100001100110011011
10111101111001011000001001100000
00111101110000101111101010011011
10111101101000011100111011100000
10111101100101101001101001111000
00111101110001100010100000110110
00111101000010001001100101000000
10111101000010001000011101101010
00111110000101111101010010110101
00111100110010000100100011101011
10111101100110111000011101001001
00111101101010010111001011000001
00111100101000110000011010100111
10111101001000000111001000000000
00111100101000011011000010011001
10111101101101101010000010101100
10111110000010010110011111001010
10111101100101011111011001101000
00111101011100110011100100000100
10111101101001110110111101101100
00111101010110010001101110010101
00111101101001000100000001010101
00111100010111110101100110100110
00111101110001011001110010011011
00111010101000011100111110110000
10111101101101100000101001000011
10111101000011110001000011100101
00111101011100110001000101010010
10111101000100101011000011001010
00111100110111101010111100011110
00111101100011101001011111010011
10111110000011000111001111011010
10111101110110011011011101010111
00111011111011010000000001111010
00111100011010000010110010110110
00111011101011110100110101111001
10111100110110011000101110100000
10111101000101111111011111100000
10111101000011011000111001001000
00111101001010110000010000110100
10111101011001001110010110100111
00111101110010101001111001000101
00111101010110010111100110101001
10111100100100111100111111111100
10111101101111111101100011001001
10111101000010010010000100000101
10111101100100101011100001110111
10111101001011010000011110001111
00111101011110011010100001010011
10111101111000011101110000001101
10111101000110100011011001111001
10111101101010011001110010000110
10111101100100110110001000011011
10111101101110011110010011011001
10111101001000010101010010110111
00111100111100011010101010000011
10111101111011000000110110111111
00111100111001000010111100110100
00111101101010111101110011110011
00111101101010110101111011101001
10111101010100000101001111111001
00111101001110000010111100100000
10111101101110000010100001001000
10111101000001001110110110010101
10111100000010101100100010000100
10111101110000001110110001100000
00111100010100111101010010111100
10111101110011110000011101111011
10111101001111000110011010110111
00111011100011100101000110011110
10111101011100001111110010011111
00111101010100111110111001010100
00111101110010101010001110000001
10111101101101111101111000110010
00111101101101011111011001110011
10111101011111001110111100000000
10111100010000000000100011001001
10111101010011110101011101100010
00111101100110001110000111010100
00111101011000111000011110110101
10111101110010111101101011000010
10111101000011101101111000000100
10111101000001001011000101110000
10111011101110110101011000111011
10111101101011010010110011111101
00111101100100111101010000010110
10111100101000110100100000101100
10111101101100011011010000101100
00111100001100101011100001110000
10111101100100111011111000001001
10111101000010001101111111010100
00111101100111011001100000110101
10111101010101111011110001111110
00111101101001111100001010101000
00111100110101111111110110000001
10111100100001011110001011011001
10111011110111101111110100000000
10111101111000111011001000010110
10111110000001001111110111101111
10111101111010110100100100100100
00111010001110010010101110101000
10111101001011100100001010101100
00111101101011101010100011110001
00111011111001000010100100100001
10111101101101110111110011001110
10111101110000101011000000000010
10111101010100100111111011100001
10111101101010100010100110110111
10111101010001101011100111010000
10111010010100101011100101001000
10111101100001000110000101010010
00111110000000001000000011111000
00111011011000111101100100101000
10111101110011100000111010001000
10111100010111000111000101001010
10111101001011101000111000110001
10111100010101110001101111001001
00111101000111010101011101100011
00111101010110110010100110111000
00111101101011010001101111010101
00111101000101000101010111010101
10111011111001011111110011000001
00111101100100000110010010010111
10111101000011110110101010100101
10111101101111100001110101101100
00111100000010111110000000111101
00111101001000001101100011110011
10111101001100000100100011110000
10111100110010001101010111010111
00111101011110010110010100010101
00111101100101110011011011000010
10111100000011100000010011101000
10111100100100001000010100000011
00111101101001001100110101001011
10111101100010011110111101111001
00111101110000000011011010010011
00111101011000111000110111101101
10111100110100000100111100010100
00111101101010101111000011010001
10111101000010110110001110000000
00111110000001110101100010101010
00111101010110110000010011111100
00111101110100000111011101000111
10111011000000111010010101011001
10111011110111110000101100001110
10111100101001010000101110110000
10111100100100001000000011101111
10111101110010011001000100001101
00111101000010110011101011000000
00111101110011010011101110101001
00111101100011010010111010110101
00111101001101111110010010111000
00111101000111110001101011001100
10111101110100101010100011111011
00111100101001111010001100111101
10111100110010001000001101001011
10111100000000011000010010010000
10111100001001100001101011010001
00111100100110100000010111101111
00111101000101010001110101001101
00111101111010100000010100001010
00111101000001010110001100011100
00111101101000111110100111101001
00111101110101111000100100001111
00111101111111101100010001111000
00111110000011101001001100100100
00111101000100111100011101011100
00111101100011111000011110110110
10111101010110001100100000100111
10111101010011111111010001010010
00111101100000100111101100111000
10111101110111100100111010100000
00111101011011010000101101011000
00111101100011101011011000101001
10111101101011001101111011100000
10111100001101111111111000001111
00111110000010100110111110000000
00111101011011100001100000000011
00111100000001110010110110010011
00111101010101001110110101111100
00111101011101010000011110101111
10111101101111110100010110011011
00111101101100111101001100001111
00111100001110001100000111110110
00111100110010001000111101010000
10111100100011010001101010000011
00111101111011000100001010011100
00111101100001100110110101010000
00111101001001000111111111111101
10111100100101011101111011001100
00111100011111100001000010100000
10111011100000111100111110100101
00111101101000011011010001111000
10111100010100010100011111101010
10111100001100110001011001111010
10111101001010101001111111110110
00111101100000110010000111001101
00111101001110011011011111101001
00111101010100101010000000100101
00111011111011000001111100111000
00111011001101110110100001111111
10111101111000001101010011001111
10111100010100000000100110001110
10111101010100110101101010000011
10111101100111100111101000100110
10111110000000111001000000010001
10111101001111101111101001010001
10111110001101100011111110001001
10111101101100111110011001000001
00111101100111111100100110110111
10111110000001000001001011000110
10111110000010010000110101110100
00111100001101110111011101111101
10111101110101111010100011010010
10111110001011100100110111001011
00111011100110000001101011100101
10111100001101010110000110001010
10111110000000110010011110100010
00111110000001010111110100101011
10111101110111110110111011100110
10111100101100111101010011111000
00111100011100110000001000001111
10111101000000001011111001101110
10111110000100001011111101011111
00111101100001100001111111111010
10111101100010111100011001110011
00111101010101011001100000101100
00111100110100110101111111000011
00111100000100100001110001100111
00111110001111100100000100111001
00111101001000101010110111000101
00111101110111100001101001100101
00111101100011001011111001001101
10111101001111110111111110010011
10111100010111010100100011110011
00111110010001011000000010101100
10111101100100101001110110101111
00111100100100011101001001000100
00111110010001010000100000001101
10111011100111110100111111001110
10111100001011100101111110101111
00111110000011000000000100101110
10111101001000110101101101111111
00111100111101000011010011110111
00111101001001000101111100110001
10111011111011010010100001100100
10111101010110111001001111110100
00111100111100000001110101001010
10111110000111010110001110110001
00111101100001000011000010010010
00111101111011001010000010001011
10111101011011101011001111010110
10111100000000011011010110100111
10111101101111011100011001001011
10111101100101100011101010010111
10111101100011110110111110001001
00111101001011111000111110000110
00111101100000100100111101111001
10111101011010101101010000000100
10111101011011010010001111110010
00111110000100101110110101100110
00111011001010001011101101111101
10111101011100111010001010001010
10111101101010100100001111000011
10111101000000010110010100011010
00111110000111011100010000101001
00111110010001111011111000111000
00111101000111001110100000010101
00111100111010111101111011110011
10111101101001111011101000110011
00111100111000100010100010000000
00111110000001010010011100101111
00111010111111111111100001001101
10111101011110010000011011000101
10111011110111000011100101111010
10111101101011000011100011001100
10111101011111001000000100000011
10111100101101011101110101000000
10111101011110010011101010110110
00111101001100001001111011101000
00111101001001110001001000001001
10111101011000101111101000110011
10111101101111011001100101001100
10111100111100000100010001111111
10111101111110000101000101011101
00111101010111010010111111001111
10111100101101101011011111101111
10111101000011110010011110001111
00111101000011001101000101111100
10111110000010100110110110001111
10111100100000001010000111101000
10111110000101110110000000101101
10111100101111011101101011011000
00111101110001001101101100100110
10111101110001001011011010011011
00111010011010100110110100010001
00111101100111111100010110001111
00111101100001011111110011001100
10111110000010001101011001111111
00111101100010100001111001010101
00111100110011010001011101001011
10111100111000010110011110100010
00111110000111001101110100011100
00111101110001101000010000000100
10111100110011110111011101110000
10111101101001111000111110100110
00111100010100101101001100101000
00111101001001101011001100100110
00111110000011001000111101010001
00111101000101111100010111010011
00111101101001101100011101111101
10111011100001110010011110110001
00111100011110011100001010110001
10111011101100001001011101001011
10111101101100111001111001010011
10111101010101001010100010011010
00111101110101001110001011100101
00111101101110011001011011111010
10111101001101101101011000110100
10111100100000000111110001011001
10111101011011111110110100110001
10111101100001011100011100000100
10111101000011010111011100010100
00111010111011100110000101001110
10111101010100100000101001111001
10111110000111111111110011111110
00111101100011000111001010110110
10111110000111101100111110100100
10111101100010110111101110011000
10111100111101110010111101110110
00111101110001011101110000001000
10111101011010011100100101100000
10111011010111000101110100101011
10111100100000001010010000110110
10111100101101000110110001111101
00111101100001011110000110001011
00111110000001100101100101001111
10111100111110000000011000101100
00111110000010000000010011000000
00111110100001101010010100101010
00111101011110111001101010100000
10111101101011101001010100000100
10111101110011110100011011010001
00111101111010010001011111110111
00111101101011000001001000011011
00111101101010011001101010101010
10111101010101001010001001011000
00111101100011111011001100001010
00111101001101001010111100001101
10111010101011111011101111111111
00111011011110000101010100001001
10111101111001101001010001010110
10111100001010100101011110101111
00111101011111101000100110011001
10111101101100011011111000101001
10111110010101101110100110110100
10111011010110101111101011000111
10111101110110000101010000011101
10111100010000000000100011100101
00111010001001110011001010011111
00111101001101111101010001000011
00111011111000011100000100101000
00111101000001001010011000011001
00111101011101010100000110010100
00111101100110100111001000110001
10111101011100010111110110111010
00111011010110001100110010101010
00111101101100110000100001010001
10111101011011100101000001100110
00111110100100101011111101010100
00111101000100010011101000000000
00111011011100010111011001101110
00111101001110101111110101011010
00111101110000110010111110000001
00111101001011101010110000100000
10111101101001010001111001000110
00111101010110100111100110110000
00111101101111101100011001101101
10111101010000001010010111110001
10111110000101101101001110000000
10111110000110000011111001100110
10111110000100100101010011101110
10111100111001010110100011010100
00111101100001110111111000100011
00111011100000011100001111111011
10111101100001110111100000010101
10111110001010100010100100110010
10111101011110010001111110001101
10111101000011011000010111110000
00111101001101011100101100101111
00111101011110111100101100011111
00111110000010010111100111010110
00111100100001001101011101110110
00111110100010100111000100100111
00111101011001001011111111001110
10111100111010011001110001000010
00111100011100010001010111110100
00111101101110110001000011101000
00111101000100010011010111100010
00111110001011011100010000001000
00111100100100100100110000100000
00111011100111111001001100111000
00111100010101011100001111001001
00111011010110010101010111100001
00111101110001001101100101010100
10111110000101101101000100011000
10111101100001011000011100000100
10111101000101110011100101010011
00111100100101101101110000011011
10111101110011010000100100010000
10111110000000010110100111010100
10111101001010101000010101011011
10111101111101100111100100110110
00111101101010101110001010001111
00111101101100111100111110001011
10111100111001000010111010101101
00111100111101011011101001010011
00111110000110100101100110010011
00111101100110000110110110101100
10111101010010100110100011001101
00111101110011111100100011001001
00111101100110100011110010011110
10111100101100110110100111011010
00111110011100111100010111000110
00111101001010011110110110110110
10111101100100100100111001000110
00111101100110101101000010001110
00111100110001001111001000100001
10111100101110010111101001100011
00111101011010110100000101101011
10111100101111111011011111100000
10111101101011010001101100011100
10111101010011000001101110011000
10111101101110000110010100010111
00111101100001010110011000011100
10111101010101011011111101001010
10111101111000111011100011011111
00111100001000011011110001001011
00111101110010011010010100010100
10111101100001110101100010000100
10111101011000100011000010100010
10111101001000000010001111101111
00111101101010000110110110111001
10111101101101101101110110100000
00111101010111111011001000001000
10111100000111111001111010101011
10111101001100000001101011100111
00111101101111100011011111011100
10111011011101110101110011001011
10111100101110011010011010001010
00111101000010000101111110011011
00111101001111101100100111011111
00111101110000011101000100010101
00111101111110111010110010111011
10111101101001011001110101001100
10111101000110101010100101000111
10111101000110101111001011110110
10111011011001110000000101110111
00111100000000001111010001010011
00111101011011001101001000100010
00111101000001011000011110100010
10111101010011001101111001010110
10111100111101100010010110010101
00111101000100001001000110100101
00111010101110111010111010110101
00111101000000011001111001100111
10111101101011111100110000101111
00111101110001010111100110111111
10111101110101110001110011110111
10111100101011010011101100111010
10111101110001110000111010001110
10111101100010010101011111010001
10111101010000111011111100110101
10111101000101000101100010010011
00111101010010011101011001001100
10111101101111010011110000011110
10111101100101011110100000001001
00111101000110101011100110010110
00111101100011001000101110010110
10111101101101010000011000100001
10111101110001010110101101000101
00111100011000001100101111111001
10111100110010000000000000010111
10111101001111111111110000001000
00111100100000101011101001001001
10111101100001000001000001011001
10111100100000111001001001000011
10111101001010001111100100011010
00111011000011001101110100101100
10111101100111101000010111000011
10111101000011010100100000010010
10111101110000011111110011100010
10111100000110011111010001111011
00111101011010000001101111110110
00111101100010000000100000010111
10111101100111000100111110101010
00111101101001101101010011101011
10111101001100110010001111010101
00111101100101001111001100011100
10111011100011111111100110001010
10111100001011000001010101011110
10111101101111011010000111011000
10111101011010000101100001011110
10111100101110001101101001111110
10111100100011011011000010001000
10111100000000110010111010101011
10111101001001110110110000001110
10111101100000110000010001100000
00111100110100000000000110010111
00111101011001111010000011101000
10111101100000001010010010111001
10111101110101101110100001010101
10111101101010110110111111000000
10111100111010101111101101011100
10111101110011100110001011000000
10111101001011001010000100101001
10111101010001011000111000001000
10111101110111011000011100101110
00111101010001001110100000100110
10111100111000001000100000111000
10111101001010000111101011011101
00111100111000110110000010111011
10111101100110111011000011110111
10111101101110010100110000110010
10111101011001100100001001111100
10111101011100000001001011110110
10111101101101011111100001101001
00111101000001001101111000111011
00111101101110110000110101101111
10111101000100100011100111111101
10111101100101101000011010000111
10111100100101010000011010111000
00111101010110000101110101110011
10111101100101111110001100011000
00111100101110110011100001010101
00111100001010111101011010110110
00111100110111010100011110111100
10111101100110001010101001110101
10111101100011110101110100010100
00111101010000110110111010010110
00111101110000001000010001000001
00111101100000111110110000110000
00111011100010100010101010100011
10111101001111000111110001110010
10111101000011001111001001001110
10111101010000100100111101011100
10111101101111110110101100111000
00111100011101110011101111110011
10111101110101000110101000000111
00111100100000101010011110000011
10111101110001000101110111100000
10111101101110011111101100110001
10111101100001000010000001010100
10111101000000010110000111110100
10111100101000111100011001111110
10111101110011110001011000011110
00111011101100101110100110010010
10111011111111111010110011111001
00111101001101111010000100001100
00111110000011011000010000110110
10111101100000100111110101001010
00111100100010010011100000011011
10111100110101011000001101101111
00111100110010010010111001110101
00111011110000111100001100101101
00111101111011011000010000101010
10111101101101010001100000011010
10111101100000101100100010001000
00111101101100101100001000111001
00111100100110110100110010010110
10111101011000100001010000010111
00111101100000001110111000011010
10111101111001000000101110100101
10111100000011011000001100100011
00111101100111001001000001110000
00111101100000000100110000100001
10111101110101100011001111101110
10111101100010011011110111001000
10111101101111101010101101101101
00111101011000001100110101001011
10111101110100111110001011001110
00111101101010001010000110111110
00111100100000101110010101001001
00111101011000110110001111100000
10111100111000110001101001001110
10111011000000000110101010010110
10111101111101100100101010100100
10111011100111010101000000011000
00111101110010110010010011000000
00111101100011111010000111001100
00111101100111011111111001010010
10111101010110000101010111000000
00111101110101011101111011010001
10111101100011110110101001101000
00111101000001000110010011001001
00111101101011011010001101110010
00111110000000011100100110000010
00111101101110010100001001010010
00111101101011010101001001101110
00111101000111111100101000100100
00111101100101010110111100111110
10111011100000110000111111000001
00111100100100111111000010001011
10111100000001010001101111010101
10111101011100001100101111011000
10111101001001100011011010101001
00111011010111101101110101000011
00111101100011011101100110001110
10111101101001001000000011010111
10111101100001100100100001111010
00111101110101101010000110101000
10111101001101011011000101111111
10111101100000011101111011000010
10111100011110010010110101101101
00111101101000000001111010111000
00111100100001101001101101101100
00111101100000011101101110110110
