10111101011101101111010111000100
10111101011010011001110101100111
10111101110111100111111100010100
00111110010110001101110010110000
00111101010011001111001000101001
10111101110101010111010010101100
10111011001100010100001000011100
10111110000001011111101100111010
00111110001001000100010100001011
00111101111011000100000100010100
10111101111111000100100000110110
00111101100100111110001011001100
10111101111000011001100101000001
00111100101111000001110101110000
10111010110110101010101101000000
10111101000011010011011001000000
10111101010111010111000110001110
10111110001011101000110100011001
00111110000000001101101000100100
10111100100100100100010110100010
10111011101100100101111011100100
00111101010010110110000110110110
10111110000100011111000010000000
10111110000010111100111110011101
00111101010100000101101001001100
00111101110010011001001101010011
00111110001000111111111101010110
10111101101100000010000001110101
00111101101001010101100001011010
10111110001010100110000011101100
00111011101100011010110111100000
10111101111011100100000001001100
00111101101111110110011000111010
00111110001001011011010001100101
10111100111011110111110011001001
00111101101001010001011000110010
10111101000100110101110101000001
10111100111100100100101100111100
10111101100111010001111001100001
00111110010101100001110000101101
10111101101001110010010111100010
00111100111110110010100000001000
00111100101011100100100100000101
10111101101111111101001111100001
00111101001100001111011011100100
10111110001011110011110100110101
10111110001001000100010110110110
00111100001010111111110011101101
00111110000110101000100001001111
00111100100000011010111000101000
00111101111001111110110100111001
00111100101011010011110000000111
00111101110110110000010110011001
10111100100110100100000001001001
10111101000101000010001110111111
00111101110101001001100011110111
10111110001110101000111111000101
10111100110111100101111010111110
00111101100111101101111110100101
00111110000010111001001010010101
00111101100001111001111011000100
10111011000101010011000110010000
10111101001011001000111001001001
10111110000001001000100100101001
10111100101110101110111001000011
00111101111100000100001011111000
00111110000010011100111111011011
00111101101101010011110111010000
00111110001010110001000001111001
00111101100110000000101001011101
00111110001100000110001101011111
00111110001110011000111101001010
00111110000000110010100100110001
00111100011011110110100111000010
00111101101100011001010010010110
10111101011000011000001110101100
10111101010010011000000110100111
10111101101010110111010110111100
10111101111110011000101110110010
10111110001100101001100111011000
10111101101001101100011000000110
00111110010000100000001101110101
00111100010100001101010111110011
10111101100010100010101000101001
10111101010101010000010001000010
10111110001001011101111100100111
10111101010101001100001100101101
10111101101110010111011110101010
00111110010000111011000101111101
10111100101110100001000110000110
00111101111010100010001110101100
10111101111110101000100010001100
10111101101010101011101100101100
10111110001011100001110110011111
10111101100010001011111111111000
10111101100101001001001101001100
00111101111110001000111111100010
00111110000011101001010100110111
10111110000111001011000011111000
00111110011100011110100111111010
00111101111001100110000110001110
10111101000011111010110000001101
00111101110100100111110110011001
00111110000100011000010110011110
00111101110111001000011011110001
10111110000001010111010110101111
00111110001110000111101010011001
00111011010010110001101010011110
00111100100100011111101110110001
10111110001001100011001011111101
00111110000010000100001100011010
00111110000000101001010001010100
10111101111101000100010011011110
10111110000111110110100010101010
00111110010001111010010000110100
10111110000011111101111010011010
10111100110110011110100101011011
00111101100111110001000110111100
10111101100011101100111111110010
00111110000000010101111010100110
