10111101110001111001001010100000
00111101101010111111000111010111
00111110000011001001010001011001
00111110001000110111111110000111
10111110001001110011110000100100
10111101110101111001111110011000
00111110001001000001111100010111
10111110001110001000010100101011
00111101001100011001010111111100
00111101001110000110010110001010
10111101111001001011110011010010
00111101100100111000100001010001
10111100000110010010111111011111
10111101111011010101010010100000
00111101100100000111011100011110
10111110001011000100100011111011
00111101110100100110111111101011
00111101011000100101101110110001
10111100000000101000010100011010
10111101011100110010111100011110
10111110001010011011010111111101
00111101100111101101110111010000
10111101100111001001110011011001
00111100110110001101011111101101
00111101000100111011001001101010
00111110001000010011110111110111
10111101101110011000000101010010
10111110000111011000111010100010
10111101100001101110100011010111
00111010011000011100010101101110
00111100110110011101100110100000
10111101100011011010110011010001
00111101100001111010110000001110
00111001001011001101100011110010
10111101001001100000110100110110
10111110001001000110010101111111
10111110000100010110011011001110
10111110010010010101001111111011
10111101110110011100111111000011
10111101100000101100110110111010
00111110001000001100100011100000
00111101010000101100111101101011
10111110000101001101101010011101
10111100111101100010000101111111
00111110001011110111011100010001
10111101000100000101011010011011
10111110001100000110101010101011
10111101000110111111010010011010
10111101001010010001011011001110
10111100010010111110000110111110
00111101111010010111000000111101
10111101110111010111111010101010
10111110000100011011001010010011
10111110000010100101100000101011
10111101110011010100010001100000
00111110010111001110111111111110
10111110001110101011101100110000
10111110001000010010001110011001
10111100010010111110110010011010
00111100111001000111000000001101
10111110000101010000000110001111
10111110000010100110011101001100
00111110000101101001000110111110
10111101000100100110111000001001
00111110000100011111001101011110
10111110000001101100111101100010
00111110000111001111010100111010
00111101101111010101100011000010
10111101000111000000000101111111
00111101100110001100111011011011
00111100111010001001111001100110
10111100111000101010010111111011
10111101111100000001001110100000
00111100010001010110010100101001
10111110010000101111110011010010
10111101101111110110010110010100
00111101110011101010110110110101
10111101101101010110001101001000
10111110001011101011110010000010
10111101000001000100000100010111
00111100110011001001111010111100
00111110000010010000011111001010
10111101001010010001100111010000
10111100110001111001011010110001
10111101101010000110110000011100
00111110001010010100001000000011
10111011111101001011001100111101
00111101000010100110011011101100
10111101110001010010111101000101
00111101100000101001000000110111
10111101100101000001101110110110
10111101101101000110111010100011
10111101101110111000101101110000
10111101000011101010011000101010
10111101111101110100000010010001
00111101100010001110010100001110
10111101010101000001000001101000
10111100111111111000111000011000
00111101000000111011100111101001
10111101100101101001100111100001
10111011010011010010111001000111
10111110010011111001010010011100
00111110001001011110010101010111
00111101011111010101100101010111
00111101010100100001010010010110
10111100100000111010000100000100
10111110001101000101010001001100
10111101011111100100101110101010
00111110010000101001100010001100
00111110010001111000100101100110
00111110000000001100111001100010
10111101000001100100100111111100
00111101111101000001010110000001
10111110001000110010000000001100
00111110001011110100010100110100
00111101101011101110011001010011
10111100101000111100010110110011
10111011011111101010000100111000
10111101111011010011011001110000
00111110000110100001110100011000
