10111101001111101001110110111011
10111110001000101110101110100110
10111101111011011010100011101110
00111100000010001111110110001011
00111101100010001000100111101111
00111101100100101001001010000101
10111011101010101100001001110011
00111100101001011000000101110011
10111110000000101101000101011111
10111001000100000011010010001101
00111101110111110101001001010100
10111100000101001011111111010001
10111101100011010000101010100101
10111110001010011111111100000011
10111101100010111101110100010010
10111110000101011100011010111010
10111110000010011111110001110000
10111101101101100110111111100111
00111110000010110001111001010011
10111100110110010101000011001001
00111101000111010110110111011001
00111101111101100111011101001011
10111101100111100011100011001100
00111101100101110011100000110101
10111101110100100101100001011110
10111101110101000100001111000101
00111110000100001001100000010111
10111110000011111000100101000101
00111101010110000011010011110010
00111101100011100110000100010101
10111101010110001000010010010100
10111101000001001110100100011000
10111011101110000001110001110001
00111100000111010011100001010000
10111110000100101001001001101001
00111101110101111000110111101010
10111110000001001110011010010011
00111110000100011111000010110001
10111101110110101101010011010111
00111110001110100010011001111011
00111101100001011011101000000001
00111101001011110110111001100101
00111101111011111111000011101100
00111101110101101000111101110101
10111110000000110010101010110000
00111100010010100101000101100011
00111101110110110000001100011011
10111101001011111011101110110101
00111100100110000010101111111010
00111110010000100111110010011000
00111011111010011001110101110110
10111101100010110011011000010010
10111100000110010101010000100000
10111110000010011100111100010100
10111101011100001101001011111110
00111101100100111100000000111100
00111110001000011110110000011100
00111110001011001101110111010001
00111110000001101100000110000101
00111001011100001111010101010010
00111101010111101100000011010010
10111110000000101100101001001010
00111110001000100111110110011001
00111110001010101101100100110011
10111100100110000011001111110111
10111101101010011011100111110101
00111101100100111001110101111110
10111101100100111010101111011000
00111110001100100110001111001011
10111101111110000101001110011101
00111101101011000101001001110011
00111100111010001000100010011001
10111110000101000100000110101100
10111101010010000101110110110110
10111110001011010010111000110000
10111110000111100101111111011011
10111100110100011001111010011110
00111110001110101100000110100110
00111110000100000100110000011111
00111101011100101111101110000000
00111101010100011100100000001000
00111101101011101111001010010101
10111101110010101011010100111001
10111110001000100000011000101110
10111110000101101110101111001001
10111101111011010100100110010101
10111110000101001101111100101101
10111100100011101110010111001101
00111110010011011101011001011011
00111101100100110110000111111101
00111110000100010101010111101011
10111101111111100011111101111001
10111101010110000101000010010010
00111101101110111000001011110110
10111101000011000100110101111100
10111101101101011101010110111001
10111110000101000000110010110110
10111101110001000010101110011100
00111101001001100111011000111010
00111010100111100100111110010100
00111110010001100011100010010111
10111100101000101110100100110001
00111101110111011011001000001100
00111100100000110101111000001100
00111100101010010011010010000001
00111110000100000101000111101011
00111010001000011101101101000011
10111101110010000010100010110010
10111110001001000001011010110010
10111101001110110011001011011010
10111100000101101101111010100101
10111110001011011011000100111100
00111101111100101101100110110010
10111101110011101100001001000011
10111100010111111000010100011010
10111101110101001111000100000011
10111101010100011000101001000110
00111101111110100111001101011101
00111101010000001010110010001011
10111101010001001000101101010010
