10111101101100100000000101111010
00111110010011000011100110010000
10111110000001000100000111100110
00111101011011010101011010101100
00111101001010010000110000010101
10111101100111011000111100011101
00111110001001111110101000100111
10111101110000010010011001010101
00111110000100110011011011010101
00111110001010011110010001001011
10111110000110100111000100101001
10111101000101011010010100001011
00111101101111111001101100000111
00111110010011010010101010100111
00111101110110111000101110010110
10111101101000110101111101111010
00111110010010110111101101101100
00111101001011111010110100010100
10111101001100000111011100110101
00111110000000010110011100110110
10111101101111111100011001000101
00111101001000100000001101110000
00111101101110101001100110011111
10111100100001001000000101010101
10111101100111001001110100110110
10111110000110110101000000110011
10111101101111111110000001101010
00111100011111100010101110100110
10111101100000010010010000000100
10111110000000101010010010100111
00111101100101101100001100111100
10111101111011001011111110101101
10111110001000101011110110001111
10111110001010101000111000110010
10111101111010010011011100001100
10111101110011000011111101001111
10111110000010101010010110010101
00111110001101110110100101000111
00111101011001011001001101001011
00111110000110111110110010001010
10111100111110000101010001000101
10111110001101101011010100101001
10111101000011110111110010111100
00111101101111101100011011010101
10111101111011110100011111001010
00111101110000111110000011000101
00111110001111100111011100110001
10111110000100000010010011011010
10111101010101001011010110111001
10111101100111101110000000011010
00111110000000001010010101010110
10111101111001000001010100011001
00111110000100010000111010110110
10111101001100100010101101010010
00111110000010011000010010000011
00111110000110001001000010010101
10111011101000011101100000001101
00111101011000110101011000001010
00111100101100000010011100111000
00111110000001111000010111111101
00111100111001001001110001011000
10111101111010111010001010011111
00111101101110011000010001111001
00111101010100100101011101000101
00111101110001001111000111110101
10111101110011011000010110010100
10111101110101100100100011011001
10111010010001011101000010110100
10111101101111100101101010001000
00111101101011111011001001000111
10111101100001001001111010000001
10111110001111100100111110100100
00111110001010110100001110010010
10111101100110111101011000011101
00111101100011011111110111101011
00111101111101000001111011000110
10111101111000110100101100100011
00111101111101110000001110100010
00111100010100101000000110110011
00111110001001100101110111101110
10111101110110000001101101011001
00111101100010010001111110100110
10111101011001001110101100001010
00111110000000110100100110101101
00111101101000101011000101100100
00111110000111100111010100110010
10111101110101010011000011110000
00111101111111100011011001000101
00111110010011111110001000000100
10111101110011010110110011011101
00111101011100011100101001010110
10111101011011100101101110110101
00111101111010011011101011111100
00111110000111001100000101000001
00111110000011000011110010011111
00111101100011100100111000100010
10111110000110101110000011010000
10111101100000110111111110101001
10111110000101101000001000000100
10111101000001101110011011100101
00111101101011100000101111010011
10111010100110110001010100001010
00111101111101101000011110101000
10111110001110110011101110111110
00111101000110000000010011101011
00111101000100011011010100100000
00111101101000110100100000101001
10111101000011110000000101000000
00111101111011011101100010110010
10111110000101011001011000011010
00111101100000110101110101000111
00111101011000010011011000101110
10111101011100100111110110101000
10111011111001111001000000100110
10111101110100001111010001101000
10111110000011010111010011111010
10111101001010111100000000111100
10111100110010010000000111101111
10111100000011110011110000101011
10111101010000001010101000000011
