00111101110001010101110111011000
10111101110101000100010100101000
10111100110011010100110100100010
10111110001001011000011011000111
00111110001001101000001111111101
10111110010010101010000010011010
10111110001001110010011010010010
00111101010100000011111111010011
10111110001101000011000100001011
10111101100111010100110110101010
00111100011101011100101101100010
00111100100010010000011001011100
00111110000101000110100000100101
10111110010011110010100010100100
00111110010101110001001101101100
10111110000110001101101011001101
10111100100010011001000101000111
00111100111111101100000110101000
10111100011000100011000001111000
10111110000001111101000101010110
10111101011000000101111000011011
00111110000101100101011000000010
00111110001001111100010010100001
00111101110001101110101101000110
00111101101000011001101101111100
10111010110001001111100011010110
10111101111110001101001010111111
10111101100011111010011011001010
00111101110110100111000000011100
10111101101111101001011000011110
10111110000100101111100011101101
00111101101000000010101000001011
00111100000010001000011110010010
10111110000010110100000001011111
10111110000000010110101010111010
10111101101100101111000000011000
00111110001001011000100101001110
10111110001100111000111000111111
10111110001000010101101110100001
00111101100001101010101000101110
10111101101111001011000001011010
00111101011100010110101110001111
00111101110100010111010110011100
10111101110100010110001001100110
10111100000111111100010000010101
10111100001100110011000101011010
10111101100101101101111111001001
00111101001010011101110100111011
00111101111001100100110011000110
00111110010111110100101001000000
00111110000000001101010111100101
00111101110111111100101101001000
00111110001000110101001010100011
10111110000111011001011111011010
00111101001011001101000000100100
10111101101100010001110101000100
00111101000101111100111010111101
00111100011101111101011101110000
00111101101001001100111111110010
10111101000111000111100100010101
00111101111010000100100100011110
00111110010010001100011110000000
10111101100100000111100111101001
10111110001001010100110101000100
10111100000010100010100110101011
10111101000101001000101000010111
00111101001010101010010100101100
00111101111110000110100001011101
00111110001100010100100101110010
00111110001011100111110101000010
10111100110010011100100110111111
10111101110100001111101111111001
10111101101110111011011100000000
00111101011101000110010001000011
00111110000000000011100110011000
00111101101010010010101000001011
10111110000111011110100111101011
00111101111010001100111011100011
00111110000111001101000010001100
10111110001001111011110000100110
10111110001101110011111000000111
00111110000010100100001001111011
00111110001100000110101001111010
10111101011010000111101010100110
00111101111101010000111011110110
10111101100001101000000111101011
00111101101110010101001100001011
10111101011101100010010010100001
00111101001000011110011101000101
10111110000000001101110110011001
00111110000000101011100011010111
10111110000000100001000100110101
10111101110110110111000011001001
10111101100001001101010111101001
00111100001010101001001111011110
10111101111100010101111111010001
10111101101000101010100100001011
00111101010110100000100010111110
10111101010101100010010000100000
00111101101010111010100010100001
10111110000000001101001011001111
00111101110001001010001100101110
00111101101100000001010010111100
10111101100011000101000101011000
00111101110100000101110100000110
10111101100010010110100100001110
00111101111111100100100111100010
00111110000110100000001101100011
10111110000010000010111101101110
00111101101011011101001100001010
10111101101001100110000111110011
00111110001010110101111111101000
00111101110001010000011001110111
00111101111010100111111111000111
10111101101111110100010101011101
10111110001000100001111110001101
10111101111011110100101111011011
10111100101011100111111101000011
10111101111010100011111101001001
00111110000101101011001100010111
