10111101111010000010001111011010
00111110001111000001011010001010
10111110000011110111111100011010
10111100100001100011111010000011
00111100111010101101011101011001
10111101101001111001110101011011
00111110000000111110011000100011
10111110000101010011110110000011
10111100010001010111111000011000
10111110000011100011101110011010
10111101111011111100100001101100
10111101111100100100111111010010
10111110000001111001010000001011
10111110000001101100000110001101
10111100010011011000111010100110
00111100110111001111010100111011
00111101111110101001111110110100
00111110001000000101010011100001
00111001001111010111000101110011
00111101011111110010010111111110
10111101110101111110111010111100
10111101010110001001100111000100
10111101011011000100101000001111
10111110000100000110110111111110
10111101001011111010111000010101
00111110001110010110001000001111
00111101110010101001001110000110
00111110001010010100110101010001
00111101101101110011000101000101
10111101011101101100100011100111
00111110000011001011011101011111
00111101100111000110101001011000
00111100101110000111111101011010
10111100111011011011111000100000
10111101010001111110101101111110
10111101110111001010010011111010
10111101011011101001011000010001
00111101011010111111110100011001
00111101111010001001110101001111
10111101111100101000101110100101
10111101111000100100100100000000
00111101100001000000011001100001
10111101000101010100011101111100
00111101101100110100000000000100
10111110001010001011100101110011
10111110001001100110001111111101
10111101110010110111111010110110
00111110000111001111010011100001
00111110010000001111101011000100
00111100100110010010101000100111
10111101111001011111100010101001
00111110010100010011000001000010
00111010101100110101001101001100
00111101000111001100110100010100
10111101001100101101110101111110
00111100011011111110000110111111
00111110001000001110011010111001
00111101010000110010111010010010
10111101111111010001011110101010
00111110000111001101101010000000
10111101110001110010100101111100
00111110010100100111010000110100
10111101101101110101110000110100
00111101011001010001001001100001
10111101111010010001001000101110
10111110000010111010101100101000
10111100001110111000100110100101
10111100111011011011010100011110
00111101100010101011111001111111
00111101101001010111000001001010
00111110000110000111001001010001
00111110000000100011010011100110
10111101100110001000100000110110
10111101011000000111111111000001
10111101100101111101100101001111
00111100100000000101101000010000
10111101100001100000111001100100
10111101001111001010101001001110
10111101111101111000101101010110
10111101100011000010010100010100
10111100100110100101100000101100
10111101011110001100110000000110
10111110000001110011010110111100
00111100111111000100101100101010
10111010001111001111111101000100
10111101011001010111101010110001
00111101000010111001101100011110
00111101100100101101001001110000
00111101110010001110011001110001
00111011010000111011010111001111
10111110000110111110101000111000
10111110010100100101001101110100
00111101110001010011110010011000
00111100011100110111101011011001
00111110000011010001110100101100
00111110000000111000000000110100
00111101110111111101111010001001
00111110000001010010011111100100
00111101101100110111010101011000
10111011001011010110110100001011
10111101110101011110001010110001
00111110000101101010011110011110
10111110000001010001100001010111
10111101011001000100000110000001
00111110001001110001001001011010
00111101100001100011100001111010
10111110000010110010111000101001
10111100100110010111101001010111
10111101111000000101110011010011
00111100111010000010011001101010
00111110010001010110001011111101
00111110010010001101110110010000
00111101110011011111110111110011
00111100010100111000001100111100
10111110000011100110101110101100
10111110000100000000111010110010
10111100100101010100101111010010
00111100110010110111110110100100
00111110001110101000111110111010
10111101100000111101010111110001
