00111101000010011000001000111000
10111101011001001010001000001000
00111101011011110101010111000110
10111101101111011010110111010011
00111101100100011010010101001111
10111101101000110101101011000001
00111100010101100001100101010001
00111011001110000101110010111010
00111100101000101000011011010010
10111110001010111000110110011010
10111101100001111101010111010011
10111101011000100000101011011000
00111101111101000101101011110010
00111110001010111001110011101001
10111101110010110001001011100101
10111101100000011100001000011001
00111101111110001111111111100100
10111101110110101101111110101111
10111100111001011001110001010011
10111101111010010100010001011110
10111101110001001101101110100000
00111101001001101101011001111111
00111101110111011111010111001001
10111100101001011110001010101111
10111101000101111111100011110001
00111101111111010011100000001111
10111100110001110100101000010010
10111101110110010110111110101010
00111101111011100001011001010110
10111110000110001010110000011010
10111101111010110100100100010010
10111101110011111101111000001111
00111101100011010110101000000000
00111101110010100110111001111111
00111101101101111000101001001101
00111101011001100101111001010100
10111101111111111010001011010000
00111110001000110100001111101110
10111101000111010010111011000001
00111101110111110000101001010110
00111101001111011011101011000000
00111100000001100110000110110000
00111110000001011011010011101000
10111101110010000100111101101001
00111101010001011110101100000001
00111101010111010100111000011011
00111100101011011110001110111100
10111110001010011101000010011011
10111110001011000011100011000110
00111101111011001010110100111110
10111100010011100111111100010001
10111100001110011010000010011100
10111110000010010100010111000011
00111110000100000110011011010001
10111101000100010001011100111110
00111101101101000101110110000000
10111100001001111010010100111001
10111101011111101101101111000001
00111110001001000000110100010010
00111101010000101001101001111110
10111101100011011100100001011001
10111101110000000011110100000011
00111110000000011011100101110010
10111110000001011000101110101000
10111100011110001001000001011111
10111110000110001010011100111001
10111100000111000110100000101111
10111101000110101100100110001110
10111110001110000101110110110110
10111101111100110111100111001100
00111110000111100001101001000000
10111101110101101111000010000000
00111110000101110110111111001101
00111101010010001100001100000001
00111101111100010110000101101010
00111101101011010010010110011100
10111110000101010110111000100000
10111011000001101010100101010001
10111101000110110111000000100100
00111110001000000101111011111010
10111101011010001000011100000110
00111101100110110111010011011101
10111101110011110111100111000011
00111101110010011010010101101100
00111101010000010011000101101110
10111110000110010001010111101100
10111100100001001100100111000100
00111101110010101001111010100000
00111101001001011000110101100001
00111101100010110111011000011100
10111101000110111000111100111011
00111011101111010101110010001111
10111101000000111001101001011101
10111010101000110011101111011000
00111101111110101000111001101000
10111011111010011101101000100100
00111110000101000000000110010000
00111101011111111000000111101101
00111010110110100100100010001010
10111110000001100111101000111111
00111110000100000001100011011000
10111110000010001001010110111010
10111100011101000010111101111110
10111110000110101000001011110001
00111110000010111011101010011001
10111100110110111100011111011010
00111110001111110101011101000100
10111101010101110010101111110110
10111011111111000110001100110000
00111101010011000011101001110100
10111101100110111010001101110001
10111101110101100110010110100011
10111110001000000000101011110000
00111110000000111100011000010101
00111101001101111100011110111111
10111101001101111111110100000110
00111101110110001111101100011010
00111100011000111101011110110001
10111101100001011110111101111100
00111101000100110111010010111001
