00111101111100011110011000100100
00111110000100001000110011001101
10111101001011101010110100010111
10111101101010111110110000000001
00111110000010000011001101011110
10111100011111000010101000111010
00111101000101101100100001000101
10111101110010011111110111100001
10111100100010010001111011001000
10111101111000001110111101111010
00111110001010000111011000011010
10111110000111010010101011010010
10111110000001001111111001011011
00111110000100001110100100000001
10111010101011100111100000101100
10111011001101001111011010001010
10111101111111001111011010010011
10111110000011101011101111100111
10111101111000010000011011100011
10111101111000010010110001000110
00111101010001101000010101001100
00111101101101010101101011110011
10111110000110110101111011111010
10111110000110011110111100010001
10111101110001001110101011100011
10111101011100110010010011110010
10111101010000101010100100011101
10111101110111101001111111001101
00111101100110010111110001111110
00111101111011000110001000111000
10111101110110111111010001110100
00111110001010001000000101000111
10111110000000110110000011010011
00111101101011111010110110111011
10111101011010100001110011010110
00111101111101011011100011110101
00111101111011110111111100011010
00111110000000111101110000101110
00111110000011011111010100111000
10111101100110101001000110001100
00111011101111101100100011101111
00111100100010011100100000000110
10111101011001100011101000011000
00111101101010011101111101010010
00111101111101100011010010001110
10111101001101101010001101110001
00111101111000001001101010011101
10111101110110100010101010001100
10111101110001111110000111111100
10111101010011111010000011010011
10111101111001100100001101101101
10111110001000011000000100100011
10111101110001000001110000101101
10111101001101010110010000001001
10111101110100001011101001100000
10111101010100100100001001100111
10111110001000111010111100010011
10111110001010101111010110010100
00111110001011100100101110110101
00111110001001111011000010110101
10111101010010110110111101000000
10111101001111010101111111001101
10111101000001011001111000001111
10111100101010010110101100111110
00111101101110100000101100100000
10111101101101101011100100010011
00111110001001011010001111111010
10111100001100010011001100010000
10111100111110000011111011011100
10111101101110011101000111001110
00111101110101001010010101001111
10111101100101011101010111011100
10111101110101010101000010100101
10111110000011111110110111011001
10111101100001111000101010101000
10111101100110011111000000001110
10111101100000100000011110101001
10111101000011000101111011010010
10111101000101010111001110100001
10111101111001000010111111001000
10111110001001110000011111011110
00111101011111000101100101100001
00111011111000010010011011010001
00111101010010000100101101100110
10111101110001001001011111011000
00111101111011101111000000110000
00111110000011010111111011010110
10111110001010111101001011110101
10111101101110110000001110100110
00111101000011011001000101100010
10111101111011000000000000011010
10111100100100100100000010011001
00111110000011010001001101101010
00111101111101111011111111001101
10111110000100101001100000101101
00111101100001111000110110000011
10111110001001111110111101101010
00111101101011001100110001001110
10111100100001100000000000010010
10111101111010100100010101001000
10111110001010001000100011000000
00111101101000000100100111100011
10111101011010001101001101111011
10111101111111010101001101110111
00111100001011000010011101111001
00111101100101011100010010010001
00111110000110110010011011101011
10111110001010111001110111011110
10111110000010110110111000000001
00111101111001111010100101010010
10111110000001010010100010011110
10111100101001011110111101101001
00111101101101000011000000010111
00111101101111001101110110010100
10111101101011000111011011001001
10111101101001101000010000101101
00111101010010010010000001011000
00111101000000111010110110110011
10111101101101000000100010010110
10111110000001110011011001110111
