10111101101111110001101010000110
10111101101011010110111000100011
00111110100010101011110001100111
10111101001111001000001011010110
00111101101010111100011110111111
00111110010011011011110010011000
10111110000101111000011010010100
00111101100100000110011011110011
10111110000010101100101001011011
00111101111110110001010101000011
10111100000100101011011100001110
00111101101111100111111000100110
00111100111001101000010100001010
00111101110101100000110100001101
10111101111010101000101101101110
00111110100001001010011010111110
00111101100010110110000011000001
10111110101010110010010010100101
10111100110100011111110101110111
10111110010111100011001010111101
00111101111001000011010100011000
00111110010100000010111110111011
00111110100000100110101100000111
10111110011010111101100000111011
10111011101110010110000101001101
00111101011100010000010000011110
00111110000111000010000000011001
10111110101100001011100110000100
00111110001010100111000101110000
00111101100011110001011010001101
00111110000100010101100111011000
10111101011100101000001111111011
10111110100111011100100110111000
00111101110001101000100101100110
00111110001010100010010110010001
00111101010000001000101101011010
10111110000000101101011010100100
10111110001000011001111111110101
00111110000010010010110101111000
00111110011011010111010010101110
00111110100100001111111011101110
00111101110001110100011110101111
10111101111110110110010011101100
00111110100010101010111111011100
00111110100010001111100101011111
00111110010100100110001101011101
00111110100010100110010010010100
00111110011000100000011100001010
10111101110001100100001000110100
00111110011001110100000101001010
10111110011110110010100101111110
00111110000101000101101010000001
00111110000001111011100110111011
10111110001101110001110110110100
10111110011010010000101100001000
10111100011111010111010101110011
10111110011101111001110001110000
10111110110111011000111110100100
00111101001010111000101111100000
00111110010111100110011111011111
10111110110000001001000011110010
00111110001010001010010110101110
10111110010010111111010000100001
00111110000110000000011000001011
00111110100100001001010010010101
00111110001110101111011101010001
00111110101001010110100001010110
10111101101101100110011111101011
10111110010110011101010001101101
10111110001111011100011101001111
10111101110000101101100101011111
10111110000100101101100100001000
10111101100100111100001110000100
00111010101011011100101000111111
00111110000001011011110010100001
10111110010111001111011001101100
00111110000101101100011100011010
00111110010001000000000100001101
00111100111100100110101110001010
00111010010101000001010111000110
00111110000001010010011110101011
00111110000010101110100010111101
10111110011011011110100010111001
00111101110010000011011101000001
