00111100001101100111001100101111
00111101111000101110011010100001
10111101001011100000101001011100
00111110001000110011100110111111
00111101110001110001111100010000
10111101100000110000000001101001
00111110000010000111111100100110
10111011111111110101011111001001
00111110000100010000011011010010
10111101111011101101110010001000
00111110000110111100000111011010
00111110001011000010010110011110
00111110010001101100010001101110
10111101010000011000100111110000
10111110000101100101010011111011
10111110000101001111111100101000
10111110001110001001010100000100
10111110000000111101001011100111
10111110000010100000100010011111
10111100100010110010100010100111
00111101110111001010000001111100
10111101011010000010110001110111
10111101000111101010100000110100
10111100101010011110100001010101
10111101110000100110010001011110
10111010101010010110111001011001
00111101101110000000100011111011
00111110000101011110001011101011
00111110001010010110100101001010
00111110001100001000110011011001
10111101100001000011101110110011
00111101101111010101111111010001
10111101111101110011101000001100
10111110010001110110001110100100
00111101110010010111101001110010
10111101111001000110111111100001
00111110000001111001001001001101
10111100011100001001001011010110
10111101111000101001110110001100
00111101110111001001110111111000
10111110001001101010100011100000
10111110000101111000000000110001
00111110001000010011000000010110
10111101110000111110110110111101
10111110000010011001101100100011
10111101111011000110011000100010
10111101111010010111010000111011
10111101010101101010100111100010
00111100100100010001001011110001
00111110001011111101101001111001
00111101000010111111001110000100
00111101001110101011010001111110
10111110011000001000111001101100
00111101010100111011100111111001
10111101110110101011101101001111
10111101101101100111010001111010
00111101100001110100010111111110
10111101111100110001100100110101
10111101010000111100011010111000
00111101010010100000011111101101
10111110001001100001001010001011
10111101001001101011111111111111
00111101110010010000100000000101
10111110000011100111001001000010
10111101101111101101111010110100
00111101100110100101111101110101
00111101111010101000011101001100
10111101011100011010001110010000
00111100101110001110001001111001
10111101011001011100111000000100
10111101101101001011001010100110
10111110000010100110110110101001
00111110000100100011101000001111
10111101100110101101000111110111
00111101111010001001101101001110
10111110000001111010011011001100
10111101100101100011011011111010
10111101111001000110111001000010
10111011010001000011001100010000
10111101110000011111111010001111
00111100111001111001010100000001
00111110000100001101110110111110
10111101110011111011110001110100
00111101100111111101010011000111
00111101111001000110110001110001
00111110000111100010101110110011
00111110000000010100111001001001
00111101010011010011101001111110
10111101100000001100100110010001
00111101111001010101111001010100
10111101100101001001010100011011
00111110000100110010111010000010
10111101100000111100110011001011
00111110010010000101000010111000
10111110000010000100010111111110
10111100101011001000000001001011
00111101101010001110101001111110
00111110000000111001111000100010
00111110010001101100010100100100
00111110000001011110101010111001
00111101101010101111011000001101
10111110000001000001101001101101
00111110000000100111101101100101
00111101101010001010101100011011
00111110000000111100100101000011
10111101111110000110110110110000
00111101111000101010001101100001
00111101100010111011111010101100
10111100111000110110110000101111
00111110000001010110110110000000
00111110000101110001101011100001
10111011110000011100000000001011
10111110001000000110101100100011
10111101101001000000010101101101
10111101110110101001010100011100
10111101000010101001101000001100
10111011110100011101001110101000
10111101111110111011011110000101
00111110001110101010011111010101
10111110001110110101010101010101
