00111101101101010011100010101001
10111101100000001010011101001100
00111101010101010010010110100011
00111101111100011110000110101100
10111101100110010010011100101101
10111110001110000000010111010011
00111110000011001001111101100110
00111100101011110100111100101001
00111101110011101010001111000101
00111110000001011001110100111110
10111110000110100010001100100111
00111101010101000000000011111101
10111011101010110111101011001100
10111101011101000000011110101000
00111101101101111110010010110000
10111101010110111111001000011110
00111101110001000100011000011010
00111101111010001100000111110110
00111100101111010001011010001001
10111110000100100010011101111111
00111100111111111010111110111001
10111101010101101000111100110000
10111101010011010100010000010100
10111101110110001011000001001110
00111110001110101011111011010111
10111101111011100000111000100010
00111101011100010000010100110100
10111100001001010100010000111101
10111101000001111001110110010111
00111100000111111111111110111101
00111110000111110010111110011001
10111101010110111110111101000010
00111101110001001111000000000000
10111100011001010011111100011001
00111110000011010001010001100110
00111101011101100011101100000111
10111101101101110001000101110101
00111101110000100110011111111110
00111101101011101110100000000011
00111110001010110001110101001001
00111110001011100111011111101010
10111101101110000101011011111001
00111100011100101000011011000010
10111110001011101111001000000001
10111101111000100001000110010111
10111110000011001001100101100110
10111110000101001111100011101100
00111101100001110101100111000010
00111101010101011011011011100111
10111110000101110111011111001100
00111101101011010101101011011100
00111110000110110010000011111011
00111101100111000110101000100001
10111101100000111010001011101111
00111010110000010011100111001010
10111100010010001111110010010000
00111100110001010101111000101000
10111011110111100011101010001100
10111110000110110110011011100101
00111101100110100010000000100000
00111101100111011110010010000111
10111101110111001010010110101101
00111101100010001101010011101101
10111101101110101000001000100100
00111101000010110010000001000001
00111101000110110010100011101110
10111110001011001110000101000100
00111110001001101101011101101101
00111110000111100111100010110100
10111110001000000001101100110001
10111101100100001010010110011111
10111100111110111101000010001111
00111101101101011000000111011110
00111101011110110101010101001000
00111101110011001000011011101110
00111110000111011010110011101000
10111110000001010001100100000110
10111100110110011101001011101100
00111101011100000111011000101001
00111110000110000101101010001100
00111110001010111000010000101011
00111110000100101001000110100111
10111101110000101110001011101110
10111011101011111010011010111111
00111101001111110011101111001001
00111101111011110111110111010010
10111110000001101101110101000011
00111110000000101101101011010001
10111101110011000100101011100101
00111101110001111111001100110110
10111101111001011010011001111110
00111101011110101010101001001111
00111101110010100010011101101100
10111110001010100110101110101010
10111101101110011100000101111100
10111101110010000000010100101010
00111100001111100011111101100110
10111110000000100011111100000110
00111110001010010000011000110000
10111110001100001010011100110110
10111110001001000011011000011010
00111110000110110111101011011100
10111011000001111100110001001101
00111101101000110001111011101010
10111101110110011110000101001100
10111110000010010100101111000100
00111101111110101000101100101101
10111110000101001001111101001011
10111110000011000011111111110010
00111100101010110100101000010110
10111110001111011110010111010100
00111101110101001111110110011001
10111110000000010011101100101001
10111110001010111010010011110111
00111100100010110011010111000111
10111101111011001010001000010001
00111110001000000111000000010100
00111110001001010000101111101101
00111011110011000011001100110111
10111101100000010010000001100100
