00111101111000011110100011001101
00111101101110000111011001000100
10111010011110011110100111101110
10111110000111011011011110110101
00111100110111101011110011010110
10111101111001111000110011010000
10111110000000100111011011111000
00111110000101111011110100101000
00111110001101111001010010010000
10111110000111010011011111001011
10111101101101001111100110011011
00111110000011000111101010010001
10111110001100111000100011100110
10111101000000001110100011011111
10111100010000110110000001001001
00111100111010010001011111011100
10111101000111101000110111000011
00111101000011111011110100010001
10111010100100000111011011100001
00111110000001010001110010100001
10111110000110011000001000000110
10111110000100001101001001010000
00111101011000111110001110101011
00111110000101010011101100010101
10111101001101111000100011011110
00111101100111011100111100101011
00111101111001010000010000110001
10111110000110101110111101101000
10111110001011111100010011011110
00111101111010011011011001100000
10111100011100101100010101100000
00111011011011100010000110100101
00111110011000000100010001001110
10111101000000101101011111111100
00111101101111001001101011101111
10111110000001100111111000100010
10111101110001011101111011110111
10111110001011011000011101101011
00111101100011100110001010111010
10111100111111001001011010011010
10111110001001100000011100100100
10111110000000100000010000011011
10111110000000111100000111111000
10111100100100110001010000001010
10111101100100101000111111010001
00111110010100110001001111100000
10111110010000101111110001111000
00111110001011001010100110110001
00111101000000101001010011110010
10111101100001100100001101000000
00111101101110000101001011001110
10111110001101101000111101011101
00111110001001110101010100101010
10111101000010011111000100111111
00111110000011111001001011000110
00111101000010101000001011010101
10111101011111001000011100111011
10111101110011001110010100110011
10111110000011011100010011101001
10111011100011101010010011010100
00111110001101111000011001001111
10111100000001001000010011101000
10111101100110100110011110101000
10111101110001111000000111101010
00111100001010010010100111111111
00111110000000101111011011011100
10111101111101101100001100000000
00111110000011010100110010111101
10111101111100011011001010010110
00111101101011001110011100010100
00111110000101100000100110111000
00111110010000111011101111111010
10111110000101100100010011101100
00111110000011110001011101011001
00111101001001010011110110111111
00111110000101010000100100001001
00111110000010101101001101100000
10111101011001101000101011000011
00111100100010100011111010000011
10111100000010110011111011111111
00111110000011010010010011001110
10111110001010101001011101010100
10111110001010011001100111000001
10111100010100010101001100100101
10111101100000011010001110000000
10111101101010111011100001100010
10111110001010100010111000110000
00111101011101100101111000111011
10111101000010000000000110111101
00111101111100111000000001011100
10111101011001001000010101011110
00111101010101100011100000100010
10111110010101001111000111110101
10111101111011100001010011111101
00111110001011011100010111110001
00111110001010110000011010001000
00111110000100000100010110100110
00111101111101001100010001011001
00111110001010001001000101110110
10111010100011101111001001110100
10111101111101110101011010110010
10111100111110100001001100001001
00111110010001100110100110000011
00111100101111010001001110111110
10111110000100000011111110000010
00111101100011001010000100101110
10111100110110110000111100001101
10111101000001101101110010001100
10111101110111111101111111110111
10111100011110010100101011010101
00111101010101001110100011100111
00111110000111100111001001111001
00111110001001100001101100011100
00111101111101000111111101101100
00111110001000000110011111000010
00111101000010000100111110110100
10111110000000111100101111100101
00111110001100101001011101001101
00111101101001111000110111100000
00111100110110001100111101001000
