00111110001001110000111011111000
00111110011100100011100010010011
10111110101000111110010011100001
10111110001100000101000011000110
00111110011010011111000111010011
10111101110101001101111000110111
10111110011111100100111111111010
10111110100011000011010111011001
10111100101011101010111010001010
10111100110110001111111001000010
10111101000001000011111011000011
00111100100100001110011101000000
00111101111100000111010110100010
10111110010100101001101111001001
10111101100101111011010110111101
10111101110101001101000000010011
00111101110001101011100001010001
10111100110000011100011111100111
10111110001001100111011010101101
00111101001101110000010100001100
00111101101111110011101000100010
10111110011101001000011000000101
10111101111111000010101011000100
10111110001100111000011000110110
10111110010000000100101100100000
10111101001000110110101000111001
10111110100100100011101011110001
10111110101101000000010111110101
10111101110100000101001111101001
10111110000000111111001100010010
10111110000111100001101001101011
00111110100000111010110011110111
10111101101111111110110111000111
00111100111101101110001000010001
00111101100111101011000010100011
00111101100111111011010111111010
00111110100100010011110110101111
00111110000101001101000001001000
10111100101000010000111001000001
10111110010010100001011110011100
00111110000101000000101000000010
00111101011111000100110111111111
00111110011111011111100000110100
10111110011101010010100010110111
10111110011111100101010100100011
10111110010100000110110000011001
00111101010101111000100010111111
00111110010011100111010101010011
00111110100011110000100111110111
10111011011110011001100011011001
00111110100111111010010000100011
00111110001111011100110111111101
00111110010110001000011010111101
00111110011100111000101111110001
00111110100110100000110101111001
10111110010010010111111111000100
00111110000100101111100111010111
00111110011010000000001010101101
10111110001101110101110100000010
10111110101010001111111100110100
10111110011000101111001001001001
00111101110111111100110000101111
10111110011001011011010000101011
00111100100010110001000010100011
00111101100000101000001111110001
10111110010101010011001011011000
00111110100100110010100000000011
00111101101001000010000000010111
00111110010100111110101011110100
00111101011010100011010010001011
10111110011011010101110001000001
10111110001110000111110010101111
00111110001001101010010111011000
00111101101010110011101010010101
00111110011001010010111010101011
10111110100111011101000001001000
10111101101001110010001111100101
10111110011111001111001011000001
00111110001111111101110100001010
00111110010001001100010011110110
10111101101101001001011010100010
10111101011110010001101101001101
10111101111110101001100011100111
10111110010001101010111001000101
00111101010000001011010011001000
00111110001011011101011110011000
10111101110011011001001110010110
10111100001000110111111000010010
00111110011001110011101001100011
00111110001010100110000010100110
00111110011001001100001011000010
00111110011111000101101100011010
10111101001001011100101000111011
10111110100011101110010110000001
00111110000110100111000011000101
00111101110110011010100010110100
00111101101110000101001001010001
00111101111110100100111110010011
10111110001001011010011010001001
00111110000010110010011111010110
00111110100100111100110110110111
10111110101000010001111000100000
10111101110001111100101011110101
10111101011011101100011001101110
10111101011111100001101110100111
00111101011100011110100010100111
00111110001010000111001011001011
10111110101010011101010100010000
00111110000011000100111010001100
10111110101101111001011110011101
10111110011000000111011111000111
00111101011110111011111101011101
00111110000000100000011001111101
00111110100001001101101000000111
00111110011101100000000110011000
00111110100100011001000001100100
00111110001011101010100011111010
10111101100010000110111101011100
00111101101111100111000001000100
10111010110101101011100101100011
10111110001010011111010010010001
10111110101001101101111000111100
00111110010100110111010101100100
00111110011101011100101011110001
00111101011010000100111100110111
00111110010001010001100000100101
10111110100011111101100110001000
10111101101000011000101101000001
10111110011001010010100011111011
10111110000000011001100001111100
00111110010111110011000010100001
00111110100000101001101011101001
10111110011010101111110000100010
00111101011000101001001010011011
00111110000101110111010001110100
10111110000001011110111001000001
00111110100000111001111101000000
00111110010100001111101001001111
10111101111100101011101110010111
10111110000111101100011110011101
10111101001111001000011100011100
10111110100110011010111011011110
10111110001111010100101010001010
10111101101100111101010101101110
10111110001100001101110011101110
00111101011101011110100001110011
10111101100011111000011101001111
10111110100001111010100001000101
10111110000010010100110000100101
00111110011101001101000110001000
10111110001010101110011011100101
00111110000000111001001101111000
00111101111100000001011110100000
00111101110000010100110100110101
00111110100001101010011101110011
00111110001000001011111001010000
00111101101100100111100010100000
00111101111100111000111101111011
10111101111001110011011001110000
00111101110101100000001101010000
00111110000110010011000000110000
00111110011110110001111000101110
00111110011011011111101110100100
10111110100001001110010110000010
10111101000101001111011110110001
00111110000011001001011111001000
00111101011100111011001010000111
10111110011001100000000110110101
10111101111000000100100110010011
10111110001101010011011011011000
10111110011110111011100000001001
00111110000001010100111010011001
00111101010101010010011001010011
00111110011011110011010111010011
00111110100110011010000011000000
10111101001011111000101101111011
10111110010100001110100101111010
10111110100101010011000011001101
10111110011001111100001000000000
10111110010000101100110001110011
00111101110010001001001100000001
00111101110111000000000011001010
00111110011110100111101111010001
10111110100011101100110010101101
00111110100010101101001000001111
00111110001000010000001001110000
10111110100000110011100000011011
10111110100100001111000000111101
10111101010101011011111111010100
10111110100011101001010011111000
00111001001110111111100000110010
10111011101100010010111011111110
10111101101010000111011100100101
10111110010111001110100101110010
10111110100101001101111011001011
10111110000100001111110100101101
10111110100101100110011110000000
10111110010100011111101001000001
10111100000010010001110011111001
00111110100000100101011011110100
10111100110100010101101010101001
00111110000110011100011111111111
00111110100001100100110000101110
00111101111001101010100011001101
00111110010111010000100101100101
10111101110111111110110111110000
00111110001101110111101101000101
10111101101001111110100100010111
00111101101100101111001001110110
10111110100001110101011001011000
00111110000001001011001111011001
00111110010011101001111011100110
00111101000010101011101010001011
00111100110101100101110001000011
00111101110010100001110100100001
00111110001101011100111111001101
00111110100011101101111101000010
10111110000101011101100010100101
10111110011000010011111110000111
10111101010101110101001010001111
00111101111011101001000001100010
00111110001100001110010000111001
10111100000011010010000111010011
00111101011110111110110100001101
10111110101001010001010001111100
10111110001011001110111101011100
00111110001110101100101000011011
00111101111100001010110010100011
00111101000111010011000101111100
10111101010011010000010100110000
00111101100110011011000011000110
10111110000001011010010101101100
10111110011000110110110111111010
00111101111000111101010011110000
10111100011100100101100100001010
00111101100111011110010011001011
00111101001110010011100000100111
10111110001101110101000111011001
10111101010011111101001100101100
00111110001111001101001000111000
10111110100100001110110111100010
00111110100110100101010101110010
10111110010001110001101101000000
10111110010000000011000010001001
00111110100110011101111111010010
00111101101001000011111111101010
00111101100101100111011100100001
00111110010000010110000111100111
10111101110000100001001110010101
00111110011000010111011001000110
00111110100100100101111011000111
00111110001000010010111111101110
10111110001001111100100011100101
10111110100011100011100011110100
00111110100110110001111110110111
10111110010100011001111101011110
10111110001100101011111101001110
00111100101011111001110010100101
00111110100001000000101111111101
00111110010110111101010011110010
00111101101011110111000001000111
10111101110001001001101011000001
00111110101010001111100111010110
00111110010010001011011010010011
10111101000001001001111100101111
00111110100000001011010010110000
00111110010010010010101100100110
10111110011110101100110011010001
10111110010010011101000000011110
10111101100111010010011010001111
10111101111111111011100000101110
10111110100001101010100111100100
00111110001101110000011110111111
00111101111111011100101011110010
10111110011000001101010110100011
10111110101010001001001101110111
10111101110111001100100000011101
00111110010101011101011101110011
10111110101110010011011111010111
00111101110111001010101001111000
00111101001101100101011101011010
00111101000001001111101100001011
10111110001100010011110011111110
10111110100100001000000011000010
00111110001000001111100101001000
10111110100110101110111011010101
00111110010000011111010111100001
00111110000101101000111000100100
10111110100001000000100000100011
10111000001001010010010111110010
00111110010110110100011110010110
10111100100011110101001010110111
00111101101011110100111010001000
10111101101010000011111010011110
10111101010000101101101110000101
10111101010000110101010101010101
10111110100101011001111011100010
10111101111001010111110000101010
00111100100100010111101010011010
00111110011001000111100100100011
00111110011010011010110100100110
00111101000111111101111001101101
10111110100101110010100000100111
00111110101010011010000000001000
10111110001100011011110110010010
10111110011101010000111101000000
00111101111110110101010001111011
10111101101100110000001001001110
00111011010000100010100100011100
00111101101101100101110001110100
00111101100010011001001011111100
10111101000101101001101110100101
00111110011101011010010101101001
00111100010001101101101001001100
10111110011111111010110111111100
10111110001011111100101000001000
00111110001100011100011001011101
10111101101000000101100001001110
10111110000011100100010100110010
10111110010110011111000111010000
10111101001000111010000010010111
00111110000000001000101001001010
10111110100000010110011110001100
10111101011010110100101100111000
00111110001001100111101110000010
00111101001001000010111111000100
00111110010110011001001111001001
10111110100100101110111001111100
10111110011100001110011111001010
10111110001001101010001100000001
00111110010001110010001101101111
00111011100001000001010001010011
00111100101011110011000000001111
10111110010001111011000011000000
00111110010100111101110110000001
00111100100101010001011001010011
00111101101111011110000111001111
10111101000001011001000101100011
10111110100010110100111001000010
00111101111001010010100011011001
00111110010011111111100110100111
10111110101000000001011001010110
10111110010010100100010110110100
00111110010101011111111110000111
10111101011011100010101111001010
00111110011001011000011010100001
10111110010000000110110001010000
00111101011001111110011010110111
10111110010001101010100010100011
10111101110101011001011101001111
10111101101011100110100010010001
00111110100101101101100111101101
00111100000011110111101100010100
00111100100100100000110010100000
00111110000111111011001110011011
10111110000011011011010111011101
10111110100000000110111001001010
00111110000011001010010011111100
10111110100101111110000001111110
00111110011110110000111011011110
10111110011001111110010101101101
00111110000110010110001001101101
00111101001100000000111100110001
10111110011110001001001110100011
00111110000110010100001010010010
00111110010110110100101001010110
00111110100111100011000010101000
00111110101010011110010111110010
00111101101001100001011001000110
10111110011111111110000011100110
10111101100111110110011000001101
00111101100101111110101101111001
10111101000011001001010001010010
00111110000100101101101111001101
10111110010110011111000000011000
00111101000000101110100000111000
10111101101100101111011011111100
10111110101001010111100101100001
00111110000000010001010010010010
10111110010110111100110001100100
00111110100010100000000110100110
10111110011010000111010000001100
10111101110110001000010100001001
00111110001111010010100011011000
10111101110001111001111100000101
10111101011000110101110101100101
10111101011110001110011010010110
10111110000011111111011011001010
10111110000010101010100010011001
00111110001011000100001101001110
10111110101011001010000101100101
10111110010001010101110010010110
10111101100100001010101000010000
00111110010110010111010101001110
00111101100100010100001101111110
00111110010011011111001111000010
00111101000111010001111000000010
10111110000000010001111011001011
10111100110100010001010100100010
10111110101000100101000110111101
00111101101001000011110111101000
10111100110001111000110001000100
10111110100010110111010110001011
00111110011011000000110111011101
10111101101001111001010111011101
00111101000101011011111111110110
10111110011111010101010101001100
00111110000001111001101001110010
00111100010011101011010100011000
10111101010000011000110000000010
10111110011100111100110000000110
10111110001011100010111110000100
00111101001010011101101011000010
10111101110010001111100000111110
10111101000100101010111101111110
10111110010101100010110000111001
10111101100011001010110101001101
00111101110110101011001110101110
10111110000111001010101001000111
10111110100110110100110001100001
10111101101111001011000010100111
10111100110100011100100001010010
00111101111101100000011100001111
10111110100010101100011110001000
10111101011111000111101111000111
10111100101111001101111111001100
10111101110000011001111101010000
10111110000011100011111000010001
00111110011111100110111100110111
10111110100000000111000111100111
00111110001100000010000110011010
00111100100011011001110100111000
00111110100110110101111111110010
10111101011111101100100111101000
10111110010010000001100001001100
10111100100001101100000101010001
00111101111111101011010100000100
10111110011110010100101100011101
10111101100111001101111010000111
00111101110010001110010111101101
10111011101100000001000110101111
00111110010111100001101110111110
00111101110001111000110101101000
10111101010110110110011010111011
00111110001110000000110011000001
10111110011010001101001011000110
00111110100010100000110100000101
10111110001110110011111101010010
10111101110111011100110111111001
10111110011011101001110011011000
10111110100110010100100101010011
10111110000111111100011010000011
10111101110000101101000100111110
10111100001101011010011000110001
00111101111100101110011101100011
10111101110011011000110000000011
10111110100111101101100001111101
00111110001011001100100001100001
00111101010110011100100101111101
00111110000011001100010010110100
00111101001101000000011100011111
10111110001011000101011101101010
10111110010010111101101011101010
10111110010111000110111011110111
00111101101001000011101001001100
00111110011101110000010001111111
00111101111000110000111101100001
00111100111110011110000000011011
10111101111000011101111010001000
00111110000101011001101101001110
10111110110010110110110100110000
00111110001110111001001111000110
00111110001011010011000101101100
10111110000110100001000001000110
10111100101111011111110100000111
00111110000101011000110000111100
00111110001110001011100010101100
00111110010011101111000111111001
10111110011110011000111110000000
00111101100010011111001011010010
00111110000101100000000011110101
00111110000010100101000001011000
10111110010000111001000010001011
00111100100100101001110101000011
00111110010110011000000100101100
10111110000101000100100100010000
00111101111100001011110010110001
10111110000101001011000001000001
00111110000101001000111111101000
00111101101100111011111101111110
00111110001011001000101100101000
10111110100111101010100000100000
00111110001011011000001100110010
10111110100101000000000001100110
00111011101101011100011010001111
00111110110010001100100101110110
10111110000010100000101011100101
10111110011000100000111001011001
10111101101110011000000010001111
00111011011010100110000111000101
10111110000001101111010100010101
10111110000110101000101101100101
00111101011100001011111110011000
10111100111011101110101001101111
00111110100011111010110001000111
00111101001101101010011110110111
10111110101000010001010101010010
10111110100100011000001101010101
00111101001100001010100011010011
10111110000111000111010100010110
00111101011110011000111011111101
10111110100000001001100011100100
10111110011001001101001110111110
10111110100000110101000111110000
00111110011110100011101011010001
10111110100111101110011100100010
00111110100101010000010101001010
00111101011101001111101010010111
00111110000000000111101000101010
10111110000000101011110100111001
10111101110011000000001100000011
00111110100110001000101000000000
10111110101001101011000000011101
00111101101011000011001000011111
10111100101011010110001011110010
10111110100111010101000010100110
10111110010010001000111000010001
10111100110101100010111111101010
10111101110011111001000010101110
10111110011101011011110011111011
00111110011000101010011000000000
00111101110011101100111001111100
00111110100101001110000001100111
10111110011100111010000011001100
10111110001101001000010001101101
00111110100100011010100101101000
10111101100101100101100010011111
10111110000100110100011001000111
10111101101001111001010111101011
00111101110101101011001100001010
00111110001011111011011101001101
10111100100101000010001010101111
10111101100011000100001000101011
00111101001111000010010110011000
00111110011100001000110100010011
10111101100111000011000110000110
10111101111100111100001101111011
10111110101011111101001000010000
00111110010101111010001000000010
00111110001010001100000100110000
10111110011100110010001000011101
10111110010110110011011010110000
10111110001010001100001011110111
00111100001011010000011101110010
00111110000001000000010101101010
10111100111101110000111111011001
00111101110101010110111011100101
00111110010010000101011011001000
10111110000010011111100001011001
10111011100010010110100100101100
10111101111110000110000101100011
10111110000110100110001101011110
10111110000000001101001011111001
10111100011001100110001100011010
10111110000111001110010111111111
00111101010010001000000011100100
10111110100011101011111010110101
00111110001110101111001100000110
10111100000001110111001100010110
00111110000101010001011001101100
00111110001011110011101011100011
10111101000010110010110001100000
00111110001001100101110010011100
10111110010110000111011000011101
00111010110000000000000110010000
10111101100100101111101001001111
00111100110011101001110000100000
00111101010100011011000001000110
10111100100101101011001100001000
00111110011111101011101111111000
00111110010110111011110101101010
00111101111011110101111000001001
10111101000101101101110111000110
10111110001100101101110101100111
10111101011101001110100001111001
00111101100101001001011000111111
00111101100011100110100100011011
00111110000100110011010110001100
10111101101111110001101010000110
10111101101011010110111000100011
00111110100010101011110001100111
10111101001111001000001011010110
00111101101010111100011110111111
00111110010011011011110010011000
10111110000101111000011010010100
00111101100100000110011011110011
10111110000010101100101001011011
00111101111110110001010101000011
10111100000100101011011100001110
00111101101111100111111000100110
00111100111001101000010100001010
00111101110101100000110100001101
10111101111010101000101101101110
00111110100001001010011010111110
00111101100010110110000011000001
10111110101010110010010010100101
10111100110100011111110101110111
10111110010111100011001010111101
00111101111001000011010100011000
00111110010100000010111110111011
00111110100000100110101100000111
10111110011010111101100000111011
10111011101110010110000101001101
00111101011100010000010000011110
00111110000111000010000000011001
10111110101100001011100110000100
00111110001010100111000101110000
00111101100011110001011010001101
00111110000100010101100111011000
10111101011100101000001111111011
10111110100111011100100110111000
00111101110001101000100101100110
00111110001010100010010110010001
00111101010000001000101101011010
10111110000000101101011010100100
10111110001000011001111111110101
00111110000010010010110101111000
00111110011011010111010010101110
00111110100100001111111011101110
00111101110001110100011110101111
10111101111110110110010011101100
00111110100010101010111111011100
00111110100010001111100101011111
00111110010100100110001101011101
00111110100010100110010010010100
00111110011000100000011100001010
10111101110001100100001000110100
00111110011001110100000101001010
10111110011110110010100101111110
00111110000101000101101010000001
00111110000001111011100110111011
10111110001101110001110110110100
10111110011010010000101100001000
10111100011111010111010101110011
10111110011101111001110001110000
10111110110111011000111110100100
00111101001010111000101111100000
00111110010111100110011111011111
10111110110000001001000011110010
00111110001010001010010110101110
10111110010010111111010000100001
00111110000110000000011000001011
00111110100100001001010010010101
00111110001110101111011101010001
00111110101001010110100001010110
10111101101101100110011111101011
10111110010110011101010001101101
10111110001111011100011101001111
10111101110000101101100101011111
10111110000100101101100100001000
10111101100100111100001110000100
00111010101011011100101000111111
00111110000001011011110010100001
10111110010111001111011001101100
00111110000101101100011100011010
00111110010001000000000100001101
00111100111100100110101110001010
00111010010101000001010111000110
00111110000001010010011110101011
00111110000010101110100010111101
10111110011011011110100010111001
00111101110010000011011101000001
00111110000110101111100101010011
10111110101001011000101101011111
10111101111110000100100001001100
10111101010110101100100000111101
00111110011001001101110001010000
00111101000000001101011011000011
10111101011110111111001010001110
10111110110000101001011111000001
10111101001000100000000111001110
10111110000100011010000011110100
10111110101001000100001100100110
00111110000111110011010001111010
00111101010100111101000001001001
10111101011101001111011011100000
00111110000110111110101010100110
10111110000101111010110011010011
00111110011110010000111010101111
00111110100101111110111101000111
00111101001011000011100010110010
10111110101100010001010011001011
10111100100000101011101100000011
10111110010101000100000011110110
00111110010110101111111111100111
10111110001100100011000110001100
00111100101000010000011110011000
00111110011101000110000011010101
00111110001011001101010101001001
00111101011111011100111101001101
00111101101101010001100010100100
00111110010100110000110111001111
10111110100100000011001011000011
00111010111000001110011100000010
10111101110011001001111111011110
10111110100010000101101011000111
00111110001100100010000001011000
00111101000101010000010000110001
10111101100000110001101011010011
00111101111100111000100101111011
10111110010100100100110100100000
00111101110101111001111001000111
10111110000110110001110001000001
00111110101000001111100110100010
00111101111010111100111000110000
10111011100101111100011101111100
00111110010100101101100111100100
10111110000010101100100101011001
00111101000101111011011011000010
10111110000011110010011000110001
10111110011001000111001111100110
10111101100101010011101110101011
10111110100100010010111101000000
00111101100010111110101000011011
00111110011010110111100110001011
00111110000110011010111000111000
10111101000111111101101111010111
10111110011010101101100101001101
10111110011111100011011000011111
10111110010100110101011110111101
10111101110000000100011111011110
00111101100101000101001110101100
10111101110110111100011100101110
00111100001110111101110110111110
00111110001000101001001000010000
00111110010110110100000110011011
10111110000110001000101100011101
10111101000100100001011110100000
10111110011110110000000000011000
00111110010100110101110100101100
00111110000110000110100000000111
00111110000011011011100000100100
00111011100001111101010001110001
00111110001100100000100000010100
00111110100010111101010001001000
00111101010010000011111000010010
00111110011001101100000110001011
10111110001011001101101010101111
00111101101100001001011100011101
10111110110000000011110110111000
00111110001010011010011111010010
00111101111011100010111000111111
00111101000010101111000110011100
00111110100100011011110101111001
10111100000100100100001011100111
00111110001000000111011101001011
00111101100011101001000101000011
00111110100010101111011011001011
00111110001011111001110001000011
00111101010001101100001001001100
10111101000111111111100000000001
00111101110100011110001101011101
10111101001101101001101100000100
00111110001010100010110010000000
00111110000000101111010010010011
00111110001000000100000110001010
10111101101000010010100110100010
10111110010100001111110010001111
00111110000000110010111111111100
00111101101000101011100100111001
00111110011101010111111111010100
00111110100001000001000110011000
10111110101100110001101010110011
00111101110010100111000000111000
00111110100100000010110110000000
10111101101011111101000100110011
10111110101000100011110011101100
10111101110001000011000110101111
00111110010001000000011110010111
10111101011101001000110100101000
00111110000100001011010001101000
00111110100011011100111001101111
00111110010101000010010101111101
00111101111111001000111011011011
10111110100001000100100100011111
00111110010011000111011001111001
10111100100111010000001001001010
10111110010111111100101001111011
10111110011101111001001011001110
10111101010010001001001000010000
10111110100110001111011011011010
10111101100110001101110001011111
00111101101011011101001010001010
10111110011101000000100001101011
10111101101101000001100011000010
00111101110111010111111010100011
00111101110111100011110100100011
00111110100100010100000001010010
00111110010010101100011000100010
10111110000000100011001111011011
10111110010110110000101100010111
00111101101101100101110001011000
10111011110110001001110011111011
00111101110101011000110000001001
00111101101010110011011100101000
10111110100000110011101010100101
00111101110100101000100100111101
10111110001100110010111000000110
10111110000011000011100111101011
00111110011101001001010110011100
00111110001001010001101000111000
10111101101001001001110111000110
10111101101111001100000110110100
00111101000100101110000010101011
10111110101001001011101100011011
10111110011000001111000100111100
00111110010111110101101110001101
00111110011000101011110000111100
00111110000110011010001110011001
10111110011010000011000111000100
10111101110101100011101110110000
10111110010010111110111010111101
10111101101001111001101001001100
10111101000111001100010110001011
00111110011110011111100011011110
10111110011110111000110110101001
10111110010110011100110111010110
00111101111100010101010101000110
10111110100001011001111110000001
10111101011001010110010010010100
00111101111000000001100101111011
10111101100100101001101000111100
00111100100010111000110101110010
00111110000011100110001101101011
00111011100100101001010110000110
10111101111011101001100100001111
00111110000110011001110011000111
10111101110111100110110111011010
00111110001110110110011000001001
10111110101110110010101001110100
