10111110000111100100011111110001
10111101011000010010011111101011
10111101111110001111011000001011
10111110000001010110101011100000
00111101111101011110100011001000
00111101010000110111101011111100
10111101100111000010011111111110
10111000101011010110101101110010
00111110000101010101100010110111
10111101001100010100101001101101
00111101001011101101111110100110
10111101001110110011101000100100
10111110000001010011111101000100
00111101111100011100010101100111
10111101110110011101101000011010
10111101110010010100101001000001
10111100100010011100101110000000
10111101010011010001110101000111
10111101011111111001110100010100
00111110000111110101110010001111
10111101110010101110001011110111
00111101100110101001010000010001
10111100110111101011000000011011
10111101110101000101001110011001
00111101110101111011110101001000
10111101001010010000111001010011
00111100001110001011000101000110
10111101010111001010101000101000
10111110000011000001000101010001
00111101000011111101001101111011
00111100000110110101000100010000
00111101110111100100101111011110
10111101100010110111011111100011
10111011100010101100101000011010
00111101101010111011110110000101
10111110000000010011100001100111
00111101011110110011100010111001
00111011100000001000110001011100
00111101000011100010110000000110
10111100010100111101100100001111
10111110000100011111100111110010
00111101110000110110100110101101
10111100110101010101110010010101
10111110000000100001111011011010
10111101101000011011111111000110
10111100001101001001101000010101
10111101101000101011001000000110
00111110000100001100101100100110
00111101101011010000110111011101
00111110000110011011100001101000
10111110001101101111001011000101
10111101110110001010000000100001
00111101011000011000001010110000
10111011111111001011100011011010
00111101101111100011000000111111
10111101011101110011101010111110
00111110000011111110000110111001
10111101011111001100000101111100
10111101110110111110110011110100
00111100011111000100110110111000
10111101101101101100101011100001
10111101100001000111101111100111
00111110000100100011011000101001
00111101110000010100011011101001
00111110000010101010010110010101
10111101011010011010111100001110
10111101110011100100001000010001
10111110000000000101010011010110
10111110000101101000111010001001
00111110000000110010000111001100
00111101011011110100111111001101
10111101100000011110110010000111
10111110001010111001001000100110
00111100111100011110101001010111
10111110001001101111100001010011
00111110000100011100011000100001
10111100110000010011011000001100
00111100001101011011111000001110
00111001011001000100010100010110
10111110000010010010010010000101
10111110000000110110000110101010
00111110000000100110011110110011
10111101100010000110100101010100
10111110001100000110110011001111
10111100110001101010111001110010
00111100011001100000000101000010
00111101000001101011111100100101
00111101001010100010010101110110
00111110000100010100010001000101
10111101010011000110010000111110
10111110000110100000001001111010
00111110010010010000100010011000
10111101101001000101010010011011
10111101001111111111000011110001
10111100111110001100011111101100
00111101001111000000011110111111
10111101100110001111110110010100
00111101001110001111001100000111
10111100001010010000011101110010
00111011111010110111011010110111
10111011110001110011101001100010
10111100110011011010100101100011
10111100001100110011000100111110
00111101111111001011011111110111
00111101110100110011110111010100
10111100001011101110111011011010
00111100100110110001011010101110
00111110000000011010001111100110
10111110001001000001011111011111
00111110010001101011110010110101
00111110000110010100111110100010
10111101111100010100001110110001
00111101000000110100001111101000
10111101110010111000001010101011
10111101000001001100000111000000
00111110000110011110111101011001
10111110000001001001100010011100
00111101100100000111000100100110
10111100100001100111111011100000
10111101110110010000111101010010
