00111100110111111001011001101101
10111110010011011100101111111100
00111101100111000111001110100111
10111100101111100001101111000101
10111101101001101101001001101111
10111101101010000101111111101110
00111101101010001111001111001111
10111110001011001100100000010101
00111101011111011101100010110100
00111101001100110011111000111101
10111101000000011101000110101011
00111101111100100111011000111001
10111101111110101111010000000101
10111101110110011110010010101011
10111101100101011111111100100110
10111101011011110000111110001001
00111101010111110111011111011100
10111101110011111001001011101011
00111101101011000110011011101110
00111101100010010001101000000100
00111101000100010100110100100011
10111011001111101001101000000001
10111110000100000111101100011010
10111100100110100101000101011011
00111101101101010000000100010011
00111110000110101010101011100011
00111101011011010101110110011101
10111101011111000100110110000011
00111110000011111110111010100110
00111101110011010111011011111101
10111101100111110101111110101000
10111101111110010110010001011001
10111101110110100111111101100101
10111110000010011100100011111110
10111110000001000101101110000010
00111101111001010001000101100110
00111101111111100111110101101111
00111101110101110000000000010101
00111110000100100110100011100010
10111101101001100101001011101010
00111110000100001010011010111100
00111101101000110111000001101010
00111100010001011111001001111000
00111101001011010000101101010100
00111110010001110110001000111011
10111110010100111100001011010011
10111101111000110101110001000010
10111101000011110000100110110010
00111101001110011111100001010100
00111101010110011000100111011100
00111110001100011111000010111110
10111101000000101100110111100000
10111101100000101001010001010111
00111100100100000001000010111001
00111101101000011101111111011111
00111110000001100010000110001110
10111100110001101001101001001110
00111011000111100111000000001001
10111100111011101101000101111011
10111101101001010100000011100101
10111101110010100110111110011010
10111100100010101000010011101011
10111110001001110101000000011100
10111101111001100010111110011001
00111110001000110100110101110011
00111110000100000111001000100010
10111101111101100110001001001011
10111100010111001100110011101101
00111110001111001001000011001100
10111101111001000010010110111111
00111110001011010100101011100100
10111101101111111111000110001001
00111101110011001111111000010110
10111101111101100111011111001110
10111101111000001101110100100011
00111101001110011101110000000000
10111110000011001100111111100001
00111110001001000001010101110100
00111101001001001100111100101100
00111101101100101111011001111010
00111101001101001001111110110000
10111101101000000000011101010101
10111101110011000001100001111101
10111101110001111100010110110101
10111110000001010000001101110001
00111101100000011110001001010111
00111100011101010110011010100110
00111101111111010010111111011001
00111101111000100011100000110000
00111110000101101000101010001111
00111101011110110011101101111001
00111101110111100010011011111100
00111101110111000110000010000110
10111101110001000101000110011000
10111100110011101001111111000110
00111101010111000111110101110000
00111110001011110011110001001001
00111100111110000101011011110000
00111101111010010011110010000011
00111110001001100011100000001010
00111100111100011111000101111000
00111110001000101110111100001101
10111100000000101111010000110110
00111100110011100010100101001000
10111101101000111000000011101011
00111100100111010011110001100000
10111101000001011011100111010001
10111101001001110111111101111000
00111101010110101101101110110011
10111110001010110111110100011011
00111101000111000100011100110000
10111110000001001100001011011001
00111110001100100001110111110110
10111101110101011100101110011100
10111100111110101010010100100000
10111100001000110000001111010110
00111101110000111101001101001010
10111100100001001000000111010110
10111101110101100011001011101001
00111110001101000111111000110110
