00111101110001011011100100000001
00111101001000001000101011101100
00111101100110001000101110010011
10111100100011110011011101100110
10111101000001010010100111111001
00111101111011101000001110000010
10111110001011011111000000110110
10111101100001101110101110101100
10111101110001001011111000000101
10111110000011101011101111110001
10111101111011101101101100011000
10111100100111111001101001011001
10111110001001000100110101100110
00111101010111001001001011011010
10111101010010110011101001001101
00111101010100111000101111110111
00111101010011110111101010101011
00111101110010001100111110001000
10111110001100010011001111110101
00111101110010001111000001101011
00111101110101011000011110110110
10111101101010011110000111001001
10111101100010010100011111011111
00111100100100110011001000111001
10111101101110100100101011101010
10111101001100010111101101111000
00111110001000001101010110111010
10111110000100000000111101101100
10111101001110101111101101110111
00111101011001111001011110110100
10111101011000111001001111001000
00111100110110011101001001100100
10111101110111111001010110100000
10111101000110011111111001111100
00111110000011001110100100000010
10111101101110000000110011100011
10111101011110111011101111101001
00111101000100010011010100011001
00111101000000110001111001000010
00111101101100000100000001001100
10111101101100100101001000110100
10111101100110010111011100111110
10111110000110100101111010001011
00111101000001011001000101011110
10111110000000100011110010101010
00111110010001101000101100011101
10111101111101110000010001110101
10111101011011101000101101010110
00111110001110111000011011110001
00111011011010100100101011001010
10111100010011010111011000010001
10111101000111001100111011010101
00111100001100010100111111111011
10111101011110011000110100111100
00111101010011110001001000101000
00111110000111100001000001111101
00111110001101100100111100111010
00111101111011000010101101010000
00111101110001010110100000011100
00111101000010011100101111100011
00111100100100010011001111000101
00111101101111100100010111100111
00111110000001001001000000111001
10111101100101001011011111011101
10111101011001011010010000100100
00111101011001010100000110110101
10111101100000110100100011100110
10111110000110001001001000001000
00111101000011110010001001000010
10111101100001001111010110110111
00111110000110110011010000110111
10111101101001100111100000111010
00111101011101100111111110100000
10111011111000000000100011110110
10111101101000011010011000000011
00111110000100110110101010110010
10111101101000000101010101010101
10111101110001111111001010000110
10111101011011011100001111001100
00111101011101001001011110011011
10111110000011110111001111010100
00111101011000000111101011100000
10111100111110100011001101011001
00111101100001100100101001011101
10111101010011111101101010100010
00111110000011011000010001100010
00111100011101011101001100110100
10111110001100000101110110111010
10111100111010111111000011111111
00111100101100110001101010101000
00111101011111100000001101110111
10111110001000110000110100000000
00111101101010110100101111100011
00111101101011101101111001100000
00111101111100110000011100110010
00111110001010101011110000101001
00111110000110001000100000101111
10111011110011110000100010110010
10111110000100110111100110001010
10111110000100101111110001100110
00111110001001100000010001011011
10111101110100101110000111010001
10111100001111010001100000011010
00111101100100011010001011011100
00111101110100111111100000000010
10111101101001010000001000101000
10111110000001111100110111111011
10111101011010110101000001011011
00111110000010100000000101001000
00111101100110011011100000100011
00111110010110000111100001010111
00111101011100100001110110111000
00111110000110000010111000101101
00111100000010101010110011111001
10111101111010010010011111011101
10111101111100100111111111101100
00111101111000011010110000101010
00111110000110101110001100010011
10111101100111111111111010000100
10111101110101011101011100100011
