00111110000101100011111011101001
00111100001100111110001110001001
00111100101011100010001111110111
10111101101000011101100110110111
00111101110000000100001111011000
00111101101101111110110101110001
10111101110110111101110111100000
10111100011101000010110110011000
00111110000110011110011101011100
10111110000111111010000010010010
00111101011110011101111000110011
00111110001110011101010101101101
10111110000001001001101001001110
00111101111011010001110000110000
00111110000010101110111000111011
10111110000101011010010110011010
10111101100111111111100101101100
00111101010100001101110101101101
00111101000101011001010001101100
10111110001101011010011000101011
10111101111000101011000110101010
00111101111101101000100100011110
00111101001101011101000110110101
10111101100100111111100100101100
10111110000011001111011010010100
00111100111011001100010100111110
10111100101011100110011001110101
00111110000111010100000111000011
10111100101010111111001110010101
00111101101001111110100100101000
10111101111100010010001100110010
00111110000101011111010010101001
10111110001000011101100111011011
10111110000101100111111100111101
10111100101111000100000001011101
10111101111111101100000101110001
00111110001010111110010110011101
10111110001110000010010100101010
00111110000111010000011110110011
10111110001100011000101111100010
00111110000101110010100001100101
10111110000000001111000101001110
10111101000101100101110111010010
10111110000000111001010011010000
00111100000001101110111101000000
10111101110001101011010010101001
10111101001010101110111111010101
10111101100010011010101101111111
10111100011011111100100111000001
10111101000101010010101101110001
00111100111000101011001101110101
10111100110000001001111110100110
00111100111110011101010000011001
10111110000111011010000001000100
00111101111110010111100111011100
00111110000010110101010001100010
00111110001111010000000010011011
00111110001100010010111011101100
10111011110011011000100010110001
00111110000001100110000100100110
10111110000111000110000101110000
00111101100111111100111010110101
10111101111111001010101100111010
00111101101010001000110010100111
00111101111000010101011110000110
00111101100011000101001100110001
10111110000000101010111001010110
10111110000111000001100111000001
00111011110100101011110011011110
00111110000101101000111100011001
00111101110011000010000111100000
10111010101110011101011101100101
10111101111000100000101101111011
00111100001001110011100110110111
10111101001100001001101000011110
10111011101000111010001011101111
00111100001000111001101010111011
00111110000110100001011111011000
00111110000010111111010000101011
00111101100111100111001111010110
00111110000110010111110110011110
10111100000110100011010011011000
00111101100110011000110001011001
00111101000111010011110000111010
10111101010111000011100011100001
00111100100100001101110111001101
10111101110111011111101010000001
10111100101100111111001101000010
00111110000100010010000010001101
00111101101101000110110101000001
10111110000100111100000101101000
10111100110010111010111001010001
00111101111110011011001110100111
10111101100101010101100111000111
10111110000011101011010011001111
00111101111010011010100000011001
10111101001000010001100000111000
00111101101111111000110010101010
10111101100100111100000010111001
10111110000010110001000110010101
10111110000001001111011110011000
00111101110000111110111000101000
10111110000101100110111010100001
10111100100110101011010001111001
00111101011001110010101110011110
00111101101001110010001001010010
00111101010101001110000111010101
00111101010101100011101110100011
00111110010100011110010011101011
00111110001100101110100010100101
00111101010111110000110110001000
00111011100001000010010000100101
10111100101110000010001100101011
00111101100100111100101111000000
10111101111001000001000100100000
10111101110000000100010000101100
10111101110111001111001000010110
10111100110000000111001011100100
00111101100010101011101110111100
10111101100010101000101111011101
