10111101110010111010000111110011
00111101000010001010010001001000
00111101011111101001111010011010
10111101000100011011010100111111
10111101111101101100000111000011
10111101100100100111001101010000
10111101111101011000111001110000
00111101010011000001111010010101
10111101111101100011110001101101
00111110000111110011101001011000
00111101010011101010100010000001
00111011011111100011001101010101
10111100110111110010100000001011
10111100101010001001011000100010
00111101000011000100000111010001
00111110000011110110111111011010
10111110000101100011101011110110
00111101110001011000010000100001
00111100100101011010011000101111
10111101000001011111110101100011
00111100101001001111011110010000
00111100101110110111011110100010
00111101110011010001101010101000
00111100100100010011111111011011
10111101001100011110111101111010
00111110001010110010111111000111
10111110000000010101100111100111
00111101101101000101000000110110
10111101110010011101101100110011
00111101100001101110110011001001
00111101111001101111111110001110
10111101011000011011110001100011
10111101101100110010011101100011
10111110001010000011110010001111
10111101101101111110101111100100
10111110001010100010001011010111
10111101000100001111001000101100
00111110001001100011000001010011
00111110000101001000011010011100
00111101100010010010100110111001
00111110001011111010110100010101
10111101001000011000110011111000
00111101100110110011110001000000
10111101100110000101100010111110
00111011010010100001000000000000
10111101010011010111101110100010
10111101010110000101011101110100
00111101100011100000000001010001
10111100101000001100110011001000
00111110001100111101111001000000
10111101100110001011001011000100
10111110001001001011001000101101
00111101110111000010000000111110
10111101110011100000001010011000
10111110000101110111011001011000
00111110000001010111111111001110
10111101111011101010010110110011
00111101111100101101110110101100
00111110000100100101110011100101
00111101010010010111010011110000
00111101111111001010101000011101
00111110000100010000011111111000
10111110000100001001111111100101
00111110000110101010000100010100
00111110001001110101001001000010
00111101111101100111011001010000
00111110001100011111110110011111
00111101101011001111101101111100
00111101010001000100001001000001
00111101000000000001111010100000
00111101111110100101000111000011
00111100100101000111100001011001
00111101110011111101101101110110
00111101110001000001111101000110
00111110000010000000010100110000
00111110001110011110100111000110
00111110001001100100111011000100
10111101000011110101111110101101
00111101100111111001111111100101
10111110000101010101001111110000
10111110001100011100101111101111
10111101101110011100011100100010
00111101110000000111111010111010
00111101010101111111100001000101
00111101101011001100101001110110
10111101111110000000110101100101
10111101100101001011111010111001
10111101100000000101101011001110
00111101100101111111011001011011
00111101110101110000101100101010
00111110000101011001001110001111
00111101011100110100010101010110
00111110001111010100110101001011
00111110010001011101111110011101
00111101001001010011011110000100
10111101011001000101010110111111
10111101010010111001000010011010
00111100101010100000001110101011
00111110001011110000110111010001
10111100110101001100000110100111
00111011101011000111011110110001
00111101111010101111100000010001
10111101111010110101111011010100
10111101110111100010101001000000
10111100111111110001111100111111
10111100000011001000101101011110
10111101001111011011000111000111
00111100100000100001000101011111
00111101001000110111100111111110
10111101011100110000101101100101
10111101111010111010000100100101
00111101110000001010101000100111
10111101110000010100111010110100
00111100000000101111011000000001
00111101110010111110100001000111
00111100111100100100010110001010
10111010101111100100000011011100
10111110000101010111011110001110
10111101111101101010011110001011
00111101001010101101000100010010
