10111101101010001000000111110000
00111101100000001110011000111010
10111110001001010101101000100101
00111101110111101100011111110101
00111101111110001010111111011100
10111110000001001010111110111100
10111101110001100000000110011000
10111100101000110110100100010101
10111110010010000100000100101111
00111011000100000100101000011100
00111110001001100110000011111000
10111101101100110110101101010010
10111110000100100000110010010111
00111011100101000010010001000110
10111110000001001011010001110001
00111101101100001000111011010101
00111110000100011010010100011111
10111110000000001010100001011000
00111101111000111000011101100101
10111101110011111110100111100111
10111100011001001010000101000010
10111100111101001100001010011001
00111101111100011111001100110100
00111101110001111101110011001101
00111101101000010111000011111101
10111101001000000011101011100000
10111110000100101111010000110011
00111110000101000101000010000100
10111101101100100110110110001111
10111101010110111011010010110110
00111110001001011111111100010001
10111101101101100001100001001101
10111110010010011100011001011110
00111101010010011100101111101101
10111101101111010110111101000101
00111110001001000100110101100111
10111100100000001101000001101000
00111110000100100011001111111110
00111101010111010100110110110011
00111100000001000011000011110000
10111110000011100111000000010111
00111110000111011101000011110101
00111101001101011010011111001000
00111101111011100010001111001000
10111110000001000000111010011000
00111101101100000010000111100000
00111101111100110100110100101011
00111100010111101100110111001101
00111110000001010001011000011011
00111110000001101011111000000011
10111110000000001010111100000111
10111100000110111001101010000101
00111110000011010111000000000101
00111110001000010101010010011011
00111010101010111000110100111010
10111101111000111110011000101010
10111101101100010111011101100010
00111100111010010011010111101011
10111101100011101000100110011000
10111101100100000101111111010110
00111101111100011111110001011100
10111110001011110011010001111011
10111110000000101010011100100110
00111101101001110110001101000001
00111101100110111100011010001001
00111100010000000000000000010010
10111110000111101100110101011111
10111101111101100100011111011000
00111101010101011000110000000011
00111110001011100110001101100101
10111101101000010101000011111101
10111101001001101110101011000100
00111100011101101100001101010000
10111101100110101010010010001000
10111101011101011110100110111111
00111110001100010100110001101000
00111101111001101110000100000001
00111101101110110111011011110000
10111100000101001000000010110100
00111101010010010101001110101010
00111101110110000000010010011111
00111110000001111010110110101111
00111011111101011100000111000111
00111101100100100111100110010010
00111100110000011011000011100000
00111101001000011101010111001101
10111101100001010011000000000000
10111100011000010101000100001000
00111110001001111011111101110111
10111101100100011010100101100001
10111011100100101100010110011101
10111101000111110101101000101001
10111101111010000111000010111101
10111110000011100000111100000111
00111101111100100011111011000111
00111110001011111000010111100100
00111101110100001011001111111111
00111101110111011110000001101011
00111101100010110101111111110111
10111101110111110010100011101011
00111101011011011001001001100111
10111101111101111111101111111110
00111110000011111001011111011101
00111101111001011101111000111110
00111110000011011111110101010010
00111011100111110000111010010111
10111101101101010111101110001110
10111101101011110010101010111001
00111101110111101010000110100100
10111110000111001001110111100011
00111101001000010011101100000011
10111101011000011001011001110001
10111100110111011011001111111100
10111101011100010000001111110111
10111100110000000010111001010110
10111110001011011100111101111011
00111110001010101101111001010110
00111101101000011011110100001011
10111101000001011100101011100000
10111101111011101011110111010011
