00111101110111100001011111000101
00111100101001010010000000011110
00111100110110100100100001111011
00111101011101010101110001110101
00111101101011010101010000001001
10111101111001110111010000011000
10111101011001100010001101111100
00111110000111110010100101010010
00111101111111110101010010001100
10111110000000000000011100100100
00111101101101001001011001011100
10111100010111011011011111011000
00111101111010101011001100001001
10111101111011000100001000011111
00111110010010010011011001010000
10111110000111001010100111010100
10111101000011110011001100010000
00111101110100111101100001010010
10111101010001001111000110100101
10111101100000000111010011001011
00111101110111011111110011001100
00111100100110010001010111111010
10111101100011000100111011001010
00111110000110010101011101010000
10111100100110001011110111001100
00111101110011110000011010110100
10111101110100011001001101000100
10111110001000010011011010100111
00111101010011100011111001100101
10111101101011000000110111101010
10111101111101001111111101001000
00111110000101010101000100010001
10111110010110110011101011010100
00111110001110000011010101110101
00111100110000010000100000001101
00111101110011001011001001011001
10111110000100001010101010110001
00111101100111001000001010100111
10111101101011100010001110011001
10111110001101110011111101110011
00111101100111001100110010000111
00111101110111001011111000110111
00111011111101011110100111101011
10111101101010110011111111011110
10111101100001001110110010011111
10111100010000000001000101010110
10111110000001001011100001110001
00111101110000010000011100100011
00111101010011111100110011001011
00111110000010010000010010101111
00111110000000101110100110000010
00111110001000000100110010011100
00111101111100000000000000011000
00111100100100100110101111000111
00111110000011111111100000011010
10111100011110110000101100001001
00111101110101010001001111001000
00111110010001111110010111011100
00111110010101111111011001000000
00111100101101010011111010011101
00111101110110011110111001000011
00111110001000101110010000011100
00111101101000000110011011110110
10111101111010111011000000000111
00111101101111110000011111110111
00111101111111010001110100010111
10111101111011011100010011000101
00111110000100000010100101001111
10111110001010111000010100100100
00111101000100001000101010011110
00111011101000011100001000110110
10111100110100110100101111111001
10111101000100000101011010010000
00111110001000100011111100111100
00111011110001101100000011001100
10111100111010000111010110000000
00111100101111100001111100010110
00111100100101000010001101000111
10111101000101111001111000000011
00111110001101100101100101101110
10111101010011101101000000110011
00111100101011010110110110010011
00111101101000001101110001111000
00111101111111101100100111111100
00111101000111010000100111100111
00111100100111000010100101011111
10111101111011101101100000000110
10111101100100011010000010010001
00111110000110111101100001010100
00111110001000111011110110000011
00111101100101110100111001101001
10111101111011001111100001100010
00111110010101011110101110000011
10111101101001100011001011010001
10111110000010110111100001001010
10111101101111111100100101111100
10111101010000011111010110010001
00111110001000110101011100101110
00111101101110101010111101101001
00111100110101111111111000011011
10111101100110101010001110110000
00111101010011001100110010111101
00111101011100001011111001011101
10111100110000110000011000101010
00111101100111001101101110101110
00111100101001111001001111000111
10111101100001100011001010000110
10111110000011101101101010010011
10111101110010010011011010001110
00111101110110111111100100100011
00111110000100010100110110010101
10111011110111100101100001100011
00111101000101100000000111111010
10111100000011001010111100010001
10111101010000000110100001011100
10111100010000100100100011001011
10111110010110000110001001100111
10111110000110001111110101011111
10111101010011110110010111001000
00111101100011001100011101101000
