10111101101111001011000010100111
10111100110100011100100001010010
00111101111101100000011100001111
10111110100010101100011110001000
10111101011111000111101111000111
10111100101111001101111111001100
10111101110000011001111101010000
10111110000011100011111000010001
00111110011111100110111100110111
10111110100000000111000111100111
00111110001100000010000110011010
00111100100011011001110100111000
00111110100110110101111111110010
10111101011111101100100111101000
10111110010010000001100001001100
10111100100001101100000101010001
00111101111111101011010100000100
10111110011110010100101100011101
10111101100111001101111010000111
00111101110010001110010111101101
10111011101100000001000110101111
00111110010111100001101110111110
00111101110001111000110101101000
10111101010110110110011010111011
00111110001110000000110011000001
10111110011010001101001011000110
00111110100010100000110100000101
10111110001110110011111101010010
10111101110111011100110111111001
10111110011011101001110011011000
10111110100110010100100101010011
10111110000111111100011010000011
10111101110000101101000100111110
10111100001101011010011000110001
00111101111100101110011101100011
10111101110011011000110000000011
10111110100111101101100001111101
00111110001011001100100001100001
00111101010110011100100101111101
00111110000011001100010010110100
00111101001101000000011100011111
10111110001011000101011101101010
10111110010010111101101011101010
10111110010111000110111011110111
00111101101001000011101001001100
00111110011101110000010001111111
00111101111000110000111101100001
00111100111110011110000000011011
10111101111000011101111010001000
00111110000101011001101101001110
10111110110010110110110100110000
00111110001110111001001111000110
00111110001011010011000101101100
10111110000110100001000001000110
10111100101111011111110100000111
00111110000101011000110000111100
00111110001110001011100010101100
00111110010011101111000111111001
10111110011110011000111110000000
00111101100010011111001011010010
00111110000101100000000011110101
00111110000010100101000001011000
10111110010000111001000010001011
00111100100100101001110101000011
00111110010110011000000100101100
10111110000101000100100100010000
00111101111100001011110010110001
10111110000101001011000001000001
00111110000101001000111111101000
00111101101100111011111101111110
00111110001011001000101100101000
10111110100111101010100000100000
00111110001011011000001100110010
10111110100101000000000001100110
00111011101101011100011010001111
00111110110010001100100101110110
10111110000010100000101011100101
10111110011000100000111001011001
10111101101110011000000010001111
00111011011010100110000111000101
10111110000001101111010100010101
10111110000110101000101101100101
00111101011100001011111110011000
10111100111011101110101001101111
