00111110001100001111111101000010
10111101010000001100011110001000
00111110001110111001010000111000
00111101010111111010010011110000
00111101010010011011001110101001
10111101111000110011011000010101
10111101010011100000110000110110
00111101000100101110010000100010
00111101001010100101100010011100
10111110000110111010100010110000
10111100010100101010101001001001
00111101010101010000000011110000
00111101111011011110110011110001
00111110000111111111000010001111
00111110000101000111101110000011
10111101110001110110011101111111
00111101100100110110000101001011
10111101010110000010010111110111
10111110000111100100111011011111
00111101011101101011111110100000
00111011110110000000000110001111
00111101101010111101001010010010
00111101111111101001010100011111
10111101110010101111010101111111
00111101101001001101001011011110
10111101000011000011110101110011
00111101000101100010001010110110
10111101100010111000011000000000
00111101110011001000000001010111
10111110000101000011010010110001
10111011100000001110000110100000
10111110001011011010100111010100
10111110010001110111010110010001
00111110000011110100011111110010
10111100100000111011010111010100
10111100011111010111101001010101
10111101100100110110100111110010
10111110000011110111001011101011
00111101100111100001000010010111
00111101001100000001011111001111
10111101110101010010100111010110
00111110001001000110100001111000
10111100100100000011101110010001
10111100011101111111101111101110
10111110000000100010110100101101
00111101110101001100111000011101
10111101110101111010001001111100
10111110000010011110011001110000
00111010111001001001011101100010
10111101100101011011011000000011
10111101110101001010010111110101
10111101101010111100110101010000
10111101110110000110010111001110
00111011010010010110111100111001
00111101110110100000011001001011
10111101101000001101000111110010
00111101011100101100100100001100
00111101001111011001110100110111
10111101000100010010000101011100
10111110000110111101110100100111
10111101111011111111110000111100
10111110000000010111000001011000
10111110001000100100011010011111
00111110000010000101011111110011
00111110000010011000110111110100
10111100101100100011100100100011
00111100111001101000000101110011
00111011100011110011100010011001
00111110000111000001000101111000
00111101011001101011000101111100
10111100101010111101111010001111
00111100111100111111111101010011
00111101100000001011000010011010
10111110001011110010110001001010
00111101100111010100100010101001
10111110000101001111000011100101
00111101011010010001100110111000
00111100110010111010011000111000
10111100011010100010111000111100
00111110001010111001110000011011
00111110000000000100001101000101
10111101100001000001111000010011
10111110000101011110001010000110
00111100100001011100010001110111
00111101010000100100100010011100
00111101100110000000101010000101
00111110000111111001011110001110
00111101100110000111111100110111
10111110000101000010100010010111
00111100011011011011110111010100
00111101101001101110001111011001
00111100010000000011111010101111
00111110000011101110001110010011
10111101000101010010001000110010
10111101010001010100111110010011
00111101100110101010110011111110
00111101111100100110110101001110
10111101100111010001000110101001
00111110000000110001010010010001
10111110000111010111100001000000
10111101100101011101111010111111
10111101100101101011111001010001
10111101110110111001011010100010
10111101110010000111011011000111
10111101001111000011100011001010
00111101000000001100001111011100
10111110010011001111100101111110
00111110000010010011010010000001
00111101011011101110010101000110
00111110001011100010001100111011
00111110000000111001000001011000
00111101111010101001111101010001
10111110001010001001111101011001
00111100001101001110000111000110
10111100000111010000000011011011
00111101010000110010111101100100
00111110000001011000111110011110
00111100110010001100001011001011
00111101011101100011011000101110
00111101101010110000100011011101
