10111110000111101001111010011100
00111101011111111001111101000111
10111101101110000100111110111010
00111100011110100101110011110110
10111110000110001110100011101010
00111100101100110001101001000010
00111101101001110100100010001101
00111100000000001011000101000001
10111101110111100110001110100101
10111101010111010101001000011100
00111101100100100110110011001111
00111101100001000001110111011100
00111101110111101111010000100000
00111110000100110000010110001001
00111101010011110101100000101110
10111110001111000001101110111010
00111101100001010010101011110010
10111101010111110001101011111101
10111101001110010001010111111010
00111110000110000000101010000100
00111110000000011001100011101010
10111101000110011100101011101100
10111100111001011101000101110000
10111010010000000110100011001011
10111101011110011100110111100101
00111100000010110101101110101010
00111101110100010000010111101101
10111101110000111100111111111011
10111101010100001110110010100100
10111101100111001111011011111111
00111101111010010110101110110010
10111101110011101100100110101111
10111110000001000001100100011000
10111110001101011110110001011111
00111101111000111110101101010010
00111101111101000101110000000101
00111101100000000011111101111001
00111100111010010010101100010011
00111100111101000111011101010010
10111100101110000110100001001100
00111101101100100101110010011100
00111110000101000110110001011111
10111110000111111110011011001011
10111110000100001111011001111011
10111101101110000111101000110101
10111101111010010011011101000110
00111101001111011110101110110010
00111101010000011010010100110110
10111101110100011110111011101010
00111101101010010110101001101100
00111110001111111001100111010100
10111101100011011110111001100000
10111101100010001010100101110110
00111101111110101101100000001101
00111101111001110001001100000001
10111100110001001011111100100100
00111100111100011000101100101000
10111110000100100100011010111111
10111110000111000010010011000000
00111110010000111111110100010111
00111100100010001000100110100001
00111100111100010011100100001100
10111101100011001010011000110010
10111101011001001110001011110000
00111110000110111010111001011011
10111100011100001000011010101111
00111101010100101100111011110011
10111101001100000101100101001001
00111101011110111111011111011011
00111101111101001100101111100011
00111110000000110011100111011110
00111100111010011100100000100110
00111101100010011101000111110100
10111101111010100100111001101010
10111110000011000101000110011100
00111101101001111100001010001000
10111100100000110111001101001011
10111101111110000011000011010000
10111101111110001101010100001010
10111110010011101110110111111000
00111101010100100010010001101010
00111110000100010010010101100110
10111100100001110110011011111001
00111101111100100111101000111101
10111101001010101101011101100101
10111101111001101001101011001010
10111101101100001000101011001010
00111110000010000000000100000100
00111110000100101010111110001110
10111101110110011101000111100110
00111101011101100100011100100001
10111101111011100111101101110000
00111101100111000101100111101111
00111110001111111101011011001011
10111110001101000100101111010011
10111101001100111000010101001010
00111101101011011111000000000000
00111101001101010001000111000011
10111110001000101011100110111001
10111110000100001000111111000011
00111101101110100011110110001101
00111110001000111010111001101101
00111101110110110100001011110101
00111101100111011100001111011100
10111101110010100100011100101001
10111110000001111101110100101101
10111101000101100001110111100111
00111110001010001001111000001011
00111101010100100101100011011000
00111101111101010010000111010010
00111101110000100110011001111111
00111110000011011000110110100110
10111110000100100011110001000000
00111101001011000110001111101010
00111110000100101010011001101011
00111101100100011011101000010001
10111110000101100101100101010000
00111101011001110010101100101001
00111110010010111110110000000000
10111100111001010000111011010001
