00111101010000001011010011001000
00111110001011011101011110011000
10111101110011011001001110010110
10111100001000110111111000010010
00111110011001110011101001100011
00111110001010100110000010100110
00111110011001001100001011000010
00111110011111000101101100011010
10111101001001011100101000111011
10111110100011101110010110000001
00111110000110100111000011000101
00111101110110011010100010110100
00111101101110000101001001010001
00111101111110100100111110010011
10111110001001011010011010001001
00111110000010110010011111010110
00111110100100111100110110110111
10111110101000010001111000100000
10111101110001111100101011110101
10111101011011101100011001101110
10111101011111100001101110100111
00111101011100011110100010100111
00111110001010000111001011001011
10111110101010011101010100010000
00111110000011000100111010001100
10111110101101111001011110011101
10111110011000000111011111000111
00111101011110111011111101011101
00111110000000100000011001111101
00111110100001001101101000000111
00111110011101100000000110011000
00111110100100011001000001100100
00111110001011101010100011111010
10111101100010000110111101011100
00111101101111100111000001000100
10111010110101101011100101100011
10111110001010011111010010010001
10111110101001101101111000111100
00111110010100110111010101100100
00111110011101011100101011110001
00111101011010000100111100110111
00111110010001010001100000100101
10111110100011111101100110001000
10111101101000011000101101000001
10111110011001010010100011111011
10111110000000011001100001111100
00111110010111110011000010100001
00111110100000101001101011101001
10111110011010101111110000100010
00111101011000101001001010011011
00111110000101110111010001110100
10111110000001011110111001000001
00111110100000111001111101000000
00111110010100001111101001001111
10111101111100101011101110010111
10111110000111101100011110011101
10111101001111001000011100011100
10111110100110011010111011011110
10111110001111010100101010001010
10111101101100111101010101101110
10111110001100001101110011101110
00111101011101011110100001110011
10111101100011111000011101001111
10111110100001111010100001000101
10111110000010010100110000100101
00111110011101001101000110001000
10111110001010101110011011100101
00111110000000111001001101111000
00111101111100000001011110100000
00111101110000010100110100110101
00111110100001101010011101110011
00111110001000001011111001010000
00111101101100100111100010100000
00111101111100111000111101111011
10111101111001110011011001110000
00111101110101100000001101010000
00111110000110010011000000110000
00111110011110110001111000101110
00111110011011011111101110100100
10111110100001001110010110000010
10111101000101001111011110110001
00111110000011001001011111001000
00111101011100111011001010000111
10111110011001100000000110110101
