00111100110000100110010011001100
10111110000100110001010011111001
00111101000011001011100111011100
00111101011001101101110111110100
00111101100001100100100000000100
00111101111111000011000001100010
00111101111101110011000011110111
10111011110110010100001110111101
10111101001111100110001001111101
00111110000000111000000001010101
00111101101100001010001100110110
00111110000000001111110001100011
00111100111001011001001111110000
10111101111101011110010100101100
10111110001110101001000101000011
00111101011010111111011101100111
00111110000011111101101111001001
00111110001000110110001010110000
00111110010001101010011110011101
10111101101101100011100100000001
00111101101110011100110101010010
10111101101100101110100101110010
10111101101101001100100010001010
10111101011000010101011101001011
00111110000110011101010110110111
00111101111101001010010101001001
10111100110111110001111101010011
00111101101001101100001100000011
00111100101111100110101000111110
10111101100001100011100001011111
10111101111101010001111010101011
10111110000001000010010111011000
10111110001000011011000000011011
00111110001001110110001000111010
00111100100011001100111011111110
00111100011000101111001111110111
10111110000111010010010010010111
10111110000111100010101110111110
00111101101011011100000100000001
00111101010111011111111110000000
00111110000001011000110111101100
00111100100111101110011110101001
10111100110101011001001111100001
00111101100000100111101011101000
00111110000110101011011011101111
10111010101001101001010101000101
00111101110110011000000011100101
10111110001000110000101101100110
10111101101000001000001000101101
00111101100111110010011011110101
10110111111010011110000111101100
10111101111111010010011100000011
10111101001101101111011000111111
00111101101111110110111110001111
10111110000101100000011101001011
10111101000001001110101110011111
00111110001110000000010110010010
10111110000001110001011111111000
10111010100010000100111101000010
10111101000101101110111000010010
10111110000100101010110000101111
00111101101100100011000010010010
10111101001111110010111111111010
10111110000010010100010011000110
10111101100100111100101001101001
00111110001011100100000100100110
00111101001110110000100100101101
10111101111000111110101001001001
10111101001000100010110101101111
10111101111100010111111101101011
10111100100001101101110110000101
10111101010010101010110100101001
10111100011100101100101101001111
10111101110111011001111111111011
10111101011111111000100100000011
10111101000101010111001100111101
00111101010011000001101111110001
00111100101000001000000100000110
10111010010110011001111110011110
00111110000101100110010100100110
00111101000000000010101000100100
00111110010000011011101000001000
00111101010001010011001001001011
00111110000010010111010111100100
10111101111000110011011011110001
00111101111001100110111001101100
00111110000011101000010000001011
00111110000001011011101001000011
10111100110110111100101010001010
00111101110101100100100000111010
00111101101011011001111100100110
10111010011100001101111101011110
00111100101000110101100010011011
10111101001101110110010010110001
00111101111101110010101001001000
10111110000010011101001011100111
00111101100010000101111010100101
10111101100011100010100000101011
10111101000110001000111011100100
00111101100000100100100000100011
00111110000100010001101101001001
00111101111011100100111110010000
00111101100001100010100001110001
00111101000100100110000001111111
00111101110000001110110111011110
00111101100001000110011110101011
10111110010000001011100110101001
00111110000011011000111001010010
00111101111110010011011011100010
00111110000110111101111101111001
10111101100001000010110100100111
10111101101101000011100111001010
10111101111010001111010000001000
10111101000100100101110111001111
00111110000000111100111000001101
00111101101111001000101010010010
00111101110001110010100100011001
10111101110110011100111010110101
10111101100000010000011111001101
10111101100110101111011110010010
