10111100111011000010111110011111
00111101110111010011111000011011
00111100110011101000111110100010
10111110000111110010110011010111
00111110000010100010111010111011
10111101000010101001010011101010
10111110001000011010100000111010
00111101101001001001000010100000
00111101010000110110000100010000
00111101000000101111000010000010
00111101101010001010010110000000
00111101110010110000101010111001
10111101111010011010011000011100
10111101110011001110110000100111
10111100100100110110110011000111
00111110000010100001010110000110
00111101000101010111101111000001
10111101100100011111011101001101
10111101101100110111011000101001
00111110001001011100110100111111
10111100111010101101111100000011
00111110000010111100001000010001
00111101100100001010101101010010
10111101111110111100011111010110
10111101111111110101100110111001
00111101101000011010110110011010
00111110001011100111001110101000
00111110000110000001010011011011
10111101100110000101101011101111
10111101110011101110000101111001
10111110000011101001111111100011
00111110001001111001100011100100
10111101110100111001000000010101
10111101100011100011100101000001
10111101111000111001010101001010
10111110000111010001110100110011
10111011101101000000111001110111
00111110000000100011011000010101
00111101110100000010111010001111
10111101100101000011001110000011
00111101101110010110101110001111
10111100100011001110000111010010
10111101000011110111011000101011
00111110000110111010011000010111
10111101100010001000110100011101
00111101010100011001110011110001
00111101101010000011010110001001
00111110000100011010001111000010
00111101001101001000001110110101
00111011111100001110100010001000
10111101100101101010000000101101
10111110001000010100111011111110
10111110000101001011100010011000
10111101100100110110010001101110
10111110000000111100011100110101
00111101110011111000101011100100
00111100000111001000011111101010
00111110001011001100010010010000
00111100000111000110011000001100
10111110001000111101000100101000
00111101100101101011010011011001
00111101100001110111010000001110
10111110000011010011011011111010
10111101111101100101000011000101
00111101100100101011101100100100
10111110000011010111111111010011
00111101100110000110100101010111
10111101110001010001011000011101
00111101111001110010001001001110
00111100111100100111101100100001
10111110001100111100110100001010
10111101000010110100100010111001
10111110001011011010110110001110
00111110000101101010011111010010
10111101100101100011010110001101
10111110000110010110011100001000
00111100110001011101001010011000
10111101010101100011011101010010
00111100001111101100000011000111
10111100001100010010011000001110
10111110000011111100011011011001
00111110000010010000111101100110
00111110000111001110001001101110
10111101101011001101111111111111
00111100110010001111000111001110
00111100011101011111101010110111
10111101101001100100011111011000
10111100111111000110001110100001
10111110000110111110101010001101
00111101101100110010010000000110
00111101010110110101111111100010
10111110001101110111100010110111
10111101100011010111010100111110
10111100100011110101101011000010
10111101101101011010011010011110
10111101111011110011001001001000
00111100111000011101111000001111
10111011000110001011101101011101
00111100111110000110001011100011
10111101111001011010110111001010
00111101100111011101101010001011
10111101000010110010010000101100
00111101101011100100011111000110
00111101100101001110110111011101
00111110000010010101011011110001
10111110000001111010101100000100
00111110010101110100110000110101
00111101101001010001001111001100
10111101100000011111100001011001
10111101111001111000100100010110
00111101100001100010001011111010
00111101110111100111110010001010
00111101000001101100000100011100
00111101111000001101111101101100
00111110000000110100001110111001
10111010001110000010001111010000
10111110000111101010100000101110
10111100111011110110101100110000
10111110000000100000110110000110
00111101001010011000000011011100
