10111110000110011010001101000011
10111110000000010010010101011010
00111110001011110110100111010011
00111101001011001111010000000110
00111101111001100101101100011110
00111110001101001110111011010101
00111100101001101010101110011010
10111101110101110001010111101110
00111100110101110000101001001000
10111101110101011110100101111001
10111110000101100010000100010110
10111101111111101111001000001000
00111110000101010100000000111101
00111110000110101101111011101110
00111101111111100010100100001001
10111101010110111000010010111100
00111100110001000010101111111111
10111100110100101010010111001100
10111101010010100000001010011000
10111110001011101101111001011111
00111101001010110100001101101111
10111101001010100111001100011000
10111110000011101110000000010111
10111101011110000101000100001110
10111101110011101001100111010001
10111101001010101100100111101011
00111101110010000100001010100000
00111101110101100111000111110001
00111110001011011111110000001110
10111101001010110010100111000110
10111101010100110011010010010010
00111101000001100011110101001000
10111110001010101111100100101110
00111100000111111011101011100011
00111110001010101101001000110111
00111110001000101011100000100101
00111110001011010111100101100010
10111101110000100110000011101111
10111101101010111110111010101001
00111110001100000010101100101100
00111110001001010000111111100001
00111101101010001011111000110010
10111101001011001001111110100111
00111110000101001111101110100111
00111101010111110000101001011100
10111100001100101111111001011111
00111101000001101110110001101011
10111101100111110111010010100001
10111101100000101010101100000111
00111110000101011010100101000110
10111101110110010101000110100101
10111101101001010110011111110111
10111101111110111010100010101010
00111010110110111001101100000111
10111101001011101010111001000001
00111101100001001011110100101110
10111101100010011000110111011110
00111101111011111101100011001111
10111101101101011000100100000000
10111101100000010010000111010101
10111101100100111010110110010001
10111110000100110100110011110110
10111011010010011100001010001101
00111101100100000001111010000010
00111110001000101101100100010110
10111011100010011001110101110100
00111110000010011010101011100010
00111110001001001011010110001110
10111101100010011000101011100111
10111110000111110001111110111100
10111101100101101011011100101101
00111100110111110011010111111000
00111101111110101111101010010010
00111101111001011101101000100111
00111110001001101011100101110110
10111101011101100100001000011100
00111101000011000111110101011011
10111101000100111010000101011111
00111110001001110011010010000110
00111110010011000001110010000111
00111001111010001110011110101000
00111110000000011000001010010100
10111110000110011110101011001000
10111110000010110110011000000000
10111101111110110011101000011101
10111011101011001110011011000110
00111101010100111110100111111111
10111100110100101000111111011000
00111110000101001101011010110111
10111110001100000011110000101001
00111101111110101110000100000100
00111101011001011000011000101010
10111101010000101101001101100000
10111110001110101100010110010000
10111101000001001011001010110001
00111110000011101110111111000100
10111101000010000100001101011100
10111101000111101101001110011100
00111110000011000101101011001000
00111101100000001010001110101101
00111010010001111011011111000010
00111101110001111110111110000000
00111110001010001000011010011111
10111101110001010001111110000000
00111110001010111110101010110100
10111100101101100000000101011000
00111100100000010010100110011101
10111101100101000010100010010000
10111101000101101101010110110110
00111110000001100010010000001100
00111101100100111000000000000011
00111101010011011101111110000100
00111110000010101111110111100000
00111110000100100101011010001101
00111101110101100100010010010010
00111100111000010111100100111101
00111101111011111000011010001111
00111101000001111010000000011001
00111110000111001001110110101111
10111101100100001000011011001110
