10111101000100100010010111000001
10111101111101110000100111011110
00111101100000001111110100111110
00111101101001001010001011001001
10111101111001001001001111111111
00111101101110111000110100101001
10111101111000000100100111000010
00111101010101111100100000111011
10111101110010110000101101101111
00111101011101010110011011000100
00111110001010101110010001010111
00111101110010000010000001001110
10111101101111001010101011011000
00111101111011001101011100001110
00111101100110001001101110010000
00111110000001000011001101001100
10111101011110010000010111100100
00111011111100110011100000001101
10111101101101100101001100111100
00111101100011100110011011000100
00111100011011100001000001110000
00111110001011010001100011101011
00111101111101011110010111100000
10111110000000001010101011010001
00111101011010100011010000101011
10111101010010101110011001101111
00111101100000100000101110011001
00111110001000110111000111100010
10111101111001011010110011001100
00111101101110001010000011001010
10111100010100111101100110110000
10111101110111111001011000110101
10111110001110000011000011001111
00111101011011000111111011111000
00111101101010110101010001111111
00111101110100000111111000110010
10111101110000000001000101111110
10111101110111100111110111000000
00111101100100010011011010010001
00111110001001100100010011110100
00111011101001000110000011010101
00111101111111111111110000101001
00111101001111001011110110110010
00111101010011001110011001100001
10111100100011000011011011000000
00111101101111010110011100001110
00111110000111001010011001110110
00111101101110000001011100110100
10111101011011011010011110010111
00111101000000100000001000111001
00111100110011110001110011101100
10111101001111110001011111101101
00111100111100010110010110111111
10111101101101010010011110101101
10111110000100101101101000110101
10111110000001110010100100101100
10111101011101100010001100001100
10111101110111000001010000011000
00111110001110110010111010000110
00111110000101010111111110011011
10111100101001001001001101111010
00111100111010110011010100011000
10111001101000001000001011100101
00111011101000010000110011010011
00111110001101010001010100010111
00111100010111100010011101101010
00111100100101110101011111101101
10111011100011111110001001111010
00111110001010100111110101111110
00111100001100001000100101100010
10111101110100001110110001100000
10111100011001110000100110100111
00111100100001010101001010111000
00111101001000000111000111001111
10111100110100000110111000101000
00111110000000111000101100111000
10111101000110001100011100011011
00111101110001101101110000010010
00111100011110000010000010001011
00111101101000010111101011101011
00111100010101110000100010001110
00111101100101000101000001111010
00111101010111011010110010001011
00111100101101101000110111011011
10111100010010011001110011111000
10111101010010000111000111110111
00111110001000001000111000100001
00111101000011110000101111011100
10111101100100001001001111111110
00111110001110001000101001111000
00111110001000011010111000000101
00111101100001010111000110010010
10111101100010110100101101011010
00111010100100110010011101011111
00111101101110101010001001000011
10111110000010101100000001111101
10111110000000001010100011110001
10111101001111001111011001101000
00111110010001011110111001010010
00111110001110001000010110110110
00111101001111101011111000100100
10111110000011001001110101010010
10111101111101000111110011111001
10111100111001111010011011001000
00111101111011011101001101100000
10111100001110111011110001111110
10111011001100100011110101010010
00111101111011111001101110010111
00111101010000111011000111011111
10111101110110101010010010000000
00111101101100110001101000111101
00111110010010001111110110100110
00111110001110001000110101011000
10111101101110110011000111011111
10111101110101100000000100110010
10111110000111110000010110100001
10111110001111011010001010000111
10111101100010010111000100001011
10111110000011011111101110000100
10111101100011010101111000111110
