10111110000010010100101000100110
00111110001111111001001100001001
00111011111101001011110001101011
10111110000111110010011101010011
10111110001110000101000100000101
00111100000111110001010010111110
10111110000010111101011101011101
10111110000011100100111101100110
10111101100000111100110111001011
00111101110010110101010110010010
10111101000010011010001010101111
00111110000111011101101111001101
10111101110110101011111000011011
10111101100010110100100001110011
00111011110000000101000001001100
10111110001001001111001010100000
10111010111011000010101100010101
00111110000101110001111101111011
10111110001000001010100110010101
00111110001010010101101110101010
00111011101010011100010000100101
10111101110010001000011101100110
10111101011000010101000101101001
00111101000100000010000111010111
00111101111011110110110100000001
00111110001001001101011111101111
10111101101110000000111011000001
00111101111010000101100100010011
10111101100101111011111001101110
10111110001000011111100100100110
00111110000011011111010111010101
00111110000101010101101100111001
00111110000101001010010011001110
10111100100110101010110101101101
10111101101001010000100101010110
10111101111110011110110010001010
00111011101010100110001011100001
10111110001010111000011101111111
00111001001111001011000010110110
10111011010001100000111011111010
00111101110010011101010011001100
10111101000101000001110100000110
00111110001100100000100010110011
10111110001000010111100100011001
10111110000001000011001000000101
10111110000110101100010000001001
10111110000110100001110111011000
10111101010000000010111011001001
00111101001011101100100010110110
00111110001010000001101000001011
00111110010001100110110001001011
10111101111010000000110010010101
10111100000110110101001011101011
00111101101101101111110111001000
00111101011001001101111011111011
10111101100011101111111011101111
10111101000100101010101110111101
10111100111000010000000000001011
10111110001000001111010111011011
10111100100011110010111011000010
10111100101000000011101000111100
10111110000000010000001111100011
10111101100110010001010111011100
00111101101001010110101010000001
10111100001000000011000100000110
10111110001001001000011101000111
10111101011001010111010000111010
00111101110010101100100001101011
10111101111010000100100000010001
10111101101100101011100001011001
10111110000010101001100011010111
00111101100110000010111000000001
00111110001001001111100011110011
10111011101100001110011000011110
00111110011000000001000101100100
00111101010111100111001101101001
00111101110010110110000110010111
00111101100111101111000110010111
00111110000111100101111101100001
10111110000001011111111011010101
10111110010001011100000010110101
00111101001001101101100101111010
10111100111101010101011011010011
00111110000010001010000110100011
00111110001001000010101000010110
10111110001011100110001110010001
00111110001001001000010000011010
00111011110011101101111000000000
00111110001010110101001101011111
00111110000010101010111001001010
10111101011000001000100010010101
10111101001001101100100100010111
10111101100111010110110100010111
00111100101100101101101001100001
00111101100101101001101000001010
00111101010000000111101011101101
00111101000010100101110100111100
00111011011010110101000110011111
00111101111101000110110100010010
10111100110101001000001001010010
10111101111111110101110101101011
00111101111100001100010110110011
00111110000000111011101000010111
10111101100001100010100111101111
00111100100110110111001001010111
00111101010010101111100011100110
00111100001110111100011011000110
10111110000101100011001011001100
10111101101000011110111110100001
10111110000011110011000100110101
00111110001110110001011001100001
10111110000101100001100001010010
10111100010100101100001001101101
10111101100001011010011101101000
00111101011011011010000000111000
10111101101111100100001001000110
00111101011100010101010111110011
00111101101111110111100101110011
00111101111010111101000111000100
10111110000000000110111010001101
