00111101000101010001011101000011
00111101111011111111001101000010
10111101110001010100011100011011
00111101110011010010011101110010
10111110000000011000000110101001
00111101101000011010110001101111
00111101101101011100110000001100
10111100101001101010001011110010
10111110000101110100010011110011
00111101100000100010110011011100
10111101100110010001011000111101
10111110001111101111000101110111
00111110001000101110100011000011
10111101101000110110110001110000
10111110000111100101101100101010
00111110001000110101011010100010
00111101001010111011100000111010
00111101000000001001111101001001
10111101111101010111110011011111
10111101110110001000111010110000
00111110001010111100001000010110
00111100111101000010000110111111
00111110000011111111010110000011
00111011001101000011010010001001
00111101111010111100111000110001
10111100111010011100010010100010
00111110000101010110010100101111
00111101110010111011111111111111
10111110000011010011111110111100
00111101111001110000000000011101
00111110000111100011111010101011
10111101011111100000010111100111
10111110001011001111001111000100
00111110000001101001110111001001
00111101011111000001000001100110
10111011111111011111100011011000
10111110001010011010101011010100
00111011110111101111110110101001
00111101010001010110101010100000
00111101111001000111000100111000
00111101001011100100110101010001
10111100101110111100001101011001
10111110000010001100101010011010
10111110000111110010100100011101
10111100100001000010010100111000
00111101110110000101110011011100
00111101101010101000001011010001
10111100100010110001111101001100
10111101011111111111110010100010
10111101101000010101110001010100
00111110000110100110101110000110
00111110000010000011111011100100
00111110001101110011111000110110
10111101110110110011111001000000
10111101011111000000000101010001
00111100101100110110100101111011
10111010001111101101110111000010
10111110000100011000100101110110
00111101101011111110010010000001
00111101100101101001010010011110
10111101010111110000011000100111
10111101101101101101100101000100
00111101000000001010001100011010
10111101110101010110000010100100
10111011000001011000100011010000
10111110000110101010000001100011
00111101100001111000110011011111
10111110001011101101000001011011
10111101100001011110011001110111
00111101110111011011111000001110
00111101010100000100010101110010
10111101100001101110010101101010
10111101100000001011011000100001
10111110010000110101000110110111
00111101100010100100100001111111
00111011101101101001101010010001
10111100010001000000110011010110
00111011000101001001100111110011
00111101010110100100010111010001
00111101100101010000000110101100
00111110000000000010100111111101
10111101001001101000111000100101
00111101111010010111101110111101
00111101111010010001111010011000
10111100110011110110111111010011
10111101011111110111101111000100
00111110000111000001010010111010
00111101001100000110101111100010
00111101101100100111001011011011
10111101111011001011000110000100
10111101110000001011111001010111
00111101000100111101000110000101
00111110001000111101001011011111
00111100100101010001110010011010
10111101010101000001101110001101
00111110000010001011110000101100
00111101001010100100011100111000
00111110000010011100011011001011
00111100101000111101111001100010
10111101100100010111100000110100
10111110000101111111111100100000
00111101100001100100100001011010
10111101101000110000001111010010
00111101111111000111110101011110
10111100110010101101000000001011
10111101101110001010110101001101
10111110000011100001110000111110
10111110000100111110010101101110
00111101100001010101011010111110
00111110001000000011111011110100
00111010000111100010001110100000
10111101100110110001011100000111
00111110000111010000100010111011
10111110001000101010100100000101
10111101100011101101011100101110
00111100111011000000111110001000
00111110001011110001011001010100
00111100011101101101100000000111
00111110000101011100110110111101
10111100011100101001100101010110
