10111110000101101111111101101111
00111100010010101000001011011111
00111110001110010001110011001110
00111110010001010001010000011001
10111101110011100010111100000100
00111110000011010100001011010100
00111010101001011111011010011100
00111110000111001001101000111111
10111110010001111011101010000101
00111110000101110010100101110000
10111110000011000000011110110000
00111100001010110011101110011001
00111101111001111011111101101011
10111101000001010111001110010101
00111101010000011011011000010010
00111101111000100110010110001000
00111100101100111100011001010011
10111101110011011111000001110001
10111101111010110011011101010110
10111101111011110110101111111000
10111101010111100011000100101011
00111110000100000101110001010001
00111101101000111110100010001110
10111101001001100011101111110100
10111101111111110111000111110111
00111110000111010110001110110111
00111110001000001011010010101011
10111100100110010111010110010000
10111101111101111010011101000000
10111110000010101010001100100111
10111101110000011010111111000111
00111100101001010001001011101011
00111100111101110001001010010000
00111110000110110001111100011110
00111110010001101011110010001000
10111101000101111001110011110010
10111101001101000100011010101001
00111101100000100100010001010011
10111110001001100000110000011000
00111011101100111100101000010011
00111101000100010101111000101011
10111110000010011001010100011001
10111100101010001100110010011000
10111100010110110101101111110101
00111101110100011100111101000010
00111101010111000000011000000101
10111110000011101101010001101111
00111101111010100101011011110110
00111001101111010001001100000010
10111110000000000000011110101001
00111101100010001001110010101111
00111110001000110100011011100100
00111100110001000110011110101101
00111110000010000000010111011100
00111100001010001100010011100001
10111110010000010011000000110011
10111001100001110000100010001001
10111101110111000001111010111010
10111110000011101001011001000000
10111100100011010001100010101110
00111101000100001011110011010110
00111101100110110011100101111100
00111101100101100111101101000110
10111101110000100100010011001011
00111110001001101001101011100101
00111110000110000101000011010000
10111101011111010111001111001100
10111110001000101100100110000100
10111110000110010101101011010011
10111110001000010001000100001101
10111101100011110110010001010101
00111101111100111110100010000001
00111100001110100100010010110000
00111101011011000101000011000110
10111100100110000001001010100000
00111101010111001000100101000100
00111010010010110010000001011000
10111101110111100011010110100110
10111101100011100101001011011100
10111101000101010110100111000110
00111101110110111010000110110110
00111100101101011110001000011001
10111100111000011000110110000110
10111101111100101000100001111110
00111101110110101011011011101111
00111011110100010101111000100111
00111101001000110111110100110000
10111110000101010011110000111010
00111101010000010100011110110110
00111101101100110000101100110101
00111110000100000000101010100101
10111101101101100010101001100011
00111101111001111100001111101000
10111101011001101011010011111101
00111010111110001011111011000111
10111100001111110011011110100110
10111110000111000101011010000101
00111110010000001010011000010110
00111101101101001010100100011000
10111101011110001000010001101100
10111110001011001011111101110001
00111100010111010000101110001100
10111100101010101000110001101100
00111100001111111011010000110010
10111101101010111101101000011010
10111110001011111101111010010010
00111110000001001111001111101101
10111101000010110011101101100011
10111101100110110001100100101000
10111101011011001111000010111111
10111101111011110110000111110000
00111100101001100000011101010110
10111101101111111001010110100111
00111101110101000110111101011100
00111110001100100011101011001011
00111100010011111011011001111110
00111110000011011111111010010010
10111110000011111001001101000010
10111100011110110110011100111100
00111110000001001101000111101110
