00111101100011101111000011100000
10111101101100111110111100111010
10111101101011000000100011010000
00111101111110110001000000010101
00111101111010111101111110011010
10111101000110111000101100011011
00111101111000110110101001010110
10111110000010101001011100001111
10111110010000001100001001110110
00111101111101101110001100110100
10111101001010100110001001101010
10111100111110010010010101011010
10111101000111100101111100000011
00111101010111010000111100011001
10111110000000000011100100110001
00111101000011101011110100001001
00111100100101111110101110011000
10111101100011011110110000101001
00111101100111011101110011000111
00111101100011101000101101011001
00111101110111001111100100011000
10111110001001100010000100010100
10111110000100011000111011011010
10111101110100001000100011001011
00111101111100001101100100100110
10111100011110100010100011010010
10111110000111001110110101000000
10111100010100100101011101110101
00111101100011010001100100011011
10111101010010101100011000100000
00111101110011101111010100111010
00111101000101010000011001110100
10111110000011010010010011011001
00111110001101111101101011010000
00111110001000111000011101100101
00111101110100000101010000000110
10111101110000111010010001111110
00111100010011110010001010111100
10111110001001000111100010000100
00111101000101111010100011011011
10111110000101101011110101111110
10111110001001100101000100011111
10111110000110101111111101111000
00111101001111001000001100111110
00111110000111101001010101011011
00111101110011010000101101110101
10111110000011110010011010000001
10111101101101101101101101111111
10111101110011101100000110111010
00111110000011010000001111000100
00111110000010000100011100010111
00111110011010011101000011000001
00111101100110101010001101110001
00111110000011100000100001011100
00111101111011101110111000110101
00111101000010010110110011001001
10111110000100101001101001001111
00111110001010011101000000000010
00111100010110010011010110101111
10111101001110101111101100011010
10111101111001000011001101001100
00111100101000110110101001100111
10111110000111111111000111010100
10111101101010101110000010011100
00111101101101101011000001000001
00111100101011101101100001001110
00111101110001010000001000100110
00111101011010010111101101101000
00111101010101110111101101011100
10111101000100001111011010111010
10111101100100010100011010010011
00111101110001110001110000010001
10111101111010000001011100000000
00111101010111110001101001101011
00111110001000111100000000011000
00111101110110110111000000111010
00111110000011111100100100100000
10111110000011010101111101010110
10111101110110010111000011011011
00111101001000111110000011111011
10111100111100001111101000011010
10111110000110001001110011110111
10111101011101000110111000110010
00111100000101100001011000000001
10111101110101001111010001001000
10111110001010110101001001101110
00111100001000110010010011100111
00111110001001100010010011100100
00111100101101100100010000001110
10111101001101000000001101010101
10111101110010010001101100011011
10111101000101010000001101101110
00111101111001000010100110101001
10111101001100001101110100111100
00111100101101010011110110010100
00111101110001011111011100010101
00111110000110010101100010011000
00111101101101011110110011110001
10111101000000100000111110000001
00111100011111110010000100000100
10111101111100000110100100101100
00111110000001010000000001011010
00111110010010000000111101011001
10111101100101101100110011101110
00111101001010111000110011001001
10111101100100001001001100000110
10111101110110011110100010000101
00111110010100100100101011010101
10111101111100001001101101001011
00111100100111100001010100010011
00111110000111010010110111011101
00111101111000100101111001101001
10111101000011010110011110100001
00111101110001100100010110011000
00111110000111001101101010100011
10111101100011011100000111001010
10111011110011100000011000011011
00111110000000001001100100100101
10111110000001010101111010110110
10111100100111111101101110100000
