00111100110010001100010001100110
10111101110110001100100011010000
00111100110101111101110010100101
00111110000000101010101001001011
00111101100110100000110011000100
10111101011101001100101110010010
10111110000000101100001001010010
10111101000011000011010111000101
00111101110110111011101110001011
10111101010000010101000101100111
10111110000000100111110011010110
00111101111011101010101111101100
00111101110001100000101100110010
10111110000100000100101110000010
00111101101111111001111000000001
00111011000000011111111000110000
00111110000010000101001000111110
00111101110000100101011110101100
10111101101011111111001000110011
10111110000101101011010101010000
00111110000011010011011010001010
10111101000001011001111000111001
00111101001101000110100011100001
00111101111101111011001101001100
00111100010011101010100100010001
10111101101101111110000011110101
10111101111001001111010010010000
10111101100011000010100101110110
10111101001100101010111010001111
00111101101011001110101001010101
00111110000011000000010111101011
10111100101011110111101111111011
10111100100111010011100010000010
10111101000111110111011000010011
00111101101001001000001100111010
00111011100000011101011101010001
10111101100011100001111101110011
00111101111000010010100001111110
10111110001101110010100111111101
10111101010011001011010101011100
00111100101000010000010111111011
10111101011111100000101100111010
00111101100100101101011111010110
10111100111001101101101000000100
00111101110010101000001100101010
00111110010011000010001000011110
10111101100111000100111000101001
10111101100101101111110000011011
00111110001100101000011110011100
10111100001011010101011101000110
00111101100110101100011011111100
10111101110011010111111101011010
00111110001110000100101001111000
10111110000010101110011001111110
00111110001001001111110000010011
10111110001100100111101000000010
00111110000101011000100001110001
00111101111010110101101111010110
00111110000101010100110111110110
00111101110001110101000010010000
00111110000011011011011110101101
00111100110101111110011000011110
10111110000101100100001000111100
10111100000100010001110110001010
10111101100111100110010010110110
10111110001001000001110110001000
00111110010001111110101011010101
10111101111110101111110101111101
10111101101010100000111100100110
00111100100010111110011110110001
00111110000000110010000010111110
10111100000011010110001110010101
10111101010001010100100100000000
00111110000010000010000000001000
10111101111010100001111001101101
00111101010010010111001000110000
10111010001111010011111100110001
10111101101000100100101011010100
00111101000110100100011101011111
00111101000101111000100010011001
00111110001110010001011010011111
00111101110001000011110011100001
00111101100001010111010000100100
00111101111110010011010010001001
00111100101100011011011111000100
00111100100110011101000101100011
10111101110011110010100110110111
00111110000001111011110001010101
10111101010110010010100000100011
00111110011000001010011010101010
10111101011001100101101010011010
10111101100001100001010011001101
10111101010010010101111001011111
10111100101000111011000011101100
10111101111110100010101100111101
00111100001000000001011010010111
10111100101010101111011110101110
00111101001001100001000010001000
10111101111101001010110010100111
10111110000000011100010011111110
00111100110000110000000010010100
00111110000001010001011101110011
00111101100100110101100111010000
00111101111110001000010100011001
10111101010000000011001001001100
10111101101010111111000111001000
00111101100000010111010011110100
10111101001111110111001110001000
00111101000000111100101011100001
00111110000010010011001110011010
00111101011110010111001011000001
10111110000000000011101111000101
10111101000011011000111110101110
00111101111011010010101111001010
00111100111000111001001010110010
10111011010111001010111010100010
10111110001010101011101001101000
00111101000100101000010100010010
00111101010110010111011111101111
10111101100000111001011100110111
