10111101110000000001010000110010
00111101010001101110010000000110
10111101000000100000100101011100
00111110000111100001111101010111
00111101111010101111100110000001
00111011001110101110111100111011
00111110001011100001100001100111
00111110000001110110011001101011
00111110000101111111100000010111
10111101100011011000011000110111
10111101001010011001110111101101
10111101001010110111010111011000
10111100000010001000111001000000
00111110001010001111010111011000
00111101000011100111110111011001
00111101101011110010011111010011
00111100101010111110000010001000
00111101010111000100110111110000
10111100011100110111011110011000
10111110000101011011001101000110
00111101101011110011001111100110
10111100100010111010000001100000
10111110001011001111001101101000
10111101110001011011011011011001
00111110000011000011001110000001
00111110001000011001001111110100
00111110000100001101010111100001
00111110001010100101000100101010
00111101110100010111100001111010
00111101101100101111101110001010
00111101110111101111100101000110
10111101100011001000111011010100
10111101001111001000101010101001
00111110000010011110111001110000
00111101100010100111010110010111
00111101001001001011000010000011
10111110000000000000110111111000
00111100110001001101011011111111
10111101100001001111010010101000
00111101111101000101001111001000
10111101111000011101110101111011
00111101111011011100001000101001
00111101110111110101101010111111
10111101011101101011101101010001
10111101001110100001010000101100
10111101101101010001000110110011
10111010101100001111001011000000
10111101000111111000011011101100
10111101110010101011010011110110
10111110001011001101100011010000
00111011100111110011001101011001
10111101111000111001001001000110
00111110000101100100101101100100
00111100001100100101100001100110
00111101011001011001011011111111
00111101010101000001000011111001
00111101111100001111001111101100
10111101110100101001000010101000
10111101100100100000100001011111
10111101101011010110011011111111
10111011101111010011000001011001
10111101101010000001101101001010
00111110001001000100100110010011
00111101111100000001010101101110
00111110001010000000100000010111
10111110000011000010110010000010
00111110000011110001100010111111
10111101001010110110101011110001
00111101101000011001100110101001
00111101011011100001001110110000
00111100111000010100000110111010
10111110000101101100101010010111
10111101111111111011100010100111
10111101010100100001101001011011
10111110001000101110100110101011
10111101000001110001101100000001
00111101111011111000000110111000
10111101111000000100010101110100
00111110001001000000100000110100
00111100100010110000001011010101
10111101110100111101101011011011
00111101100101110010101011100100
10111100011000001100110101110010
10111101100110000001010000100000
10111101101011110101100100000110
00111101110001010000110111011111
00111110000000001011111110011111
00111101110111000101000111100001
00111110001000100001001010011101
10111110001001001010101001011100
10111101011100000101101011011001
10111101010000100101110110011111
10111110000010000101110111000101
00111101101000001111010011010101
10111110000110111000111011001101
10111101101100100000101011111110
10111101111110101001100111100101
10111101111001010011010101110111
10111110001001001000000101010001
00111110001010101010000100111100
00111101101111000101001110101011
10111110000010010100010100100010
10111110001100101001100100000010
10111101000110110010111110001001
00111101100000101000011101011100
10111110000011101010101101100101
00111101011111010101011000101101
00111101111111010001110110000110
00111101111010111100111001001010
00111011101000000111000100111001
10111101100011001011111011111001
10111110000000101010000100111111
00111110000100000111101000100011
00111101101100110100001010110111
00111011111000001010001111101010
10111110000100101100001011110001
10111101000100000001000101011010
00111101111101001101101100101000
00111101110101000101111110000010
10111101111001001100011111111100
