00111101101000010111101001011000
10111100010110010111111100100000
00111101001111010111100100100001
10111101111000011100000010010111
00111101101100001101110110001010
00111110000111101010110010010101
00111110010100100111110000010000
00111110001001011001001100100001
00111101001100111111100000110100
00111110001110101101111101001011
00111110000010000101110001010010
00111101111010011110101000000010
10111101111001001111111100111101
10111101100111001000101000001111
00111101000111010110101110111110
10111101000111100111010110010010
10111110001010100010001110111001
10111110001110001111101110110100
10111110100101000111000100011010
10111110100010000001001101110101
10111101101011111100010011111000
00111101000101011100111011011100
10111101100111000110010011101011
10111101100010101010111001111110
00111101110000001100110101111101
10111100011011001101111000101001
10111100110001010101110111100110
10111101111001101011011110100001
10111110010000101111111101100101
10111101010010010011111111101100
00111101101000111101010100100001
10111101101111001000111010001100
10111100100101001111101000101000
10111101110011001010101101000100
00111101100111110101110000011111
10111101010100011010111110100101
00111101110010010101101100000001
10111010000101011110010100001111
00111101111100111101001011110001
10111101001001000001011100100000
00111101110000011101100110110111
00111101111001100000110010100001
10111101000001001010010100101001
10111100101110001110100010110101
00111101111100001011000111100101
00111101000111100001011111010100
10111101111001100100111110001011
10111100100001011001000100010000
00111101110010110001100010101100
00111101111010001100010111010100
10111101000100111001010011101111
10111011101110011011001101110000
00111101000100010000110010010110
10111101000111101111101110011010
00111101101110011001110100110110
00111101100100011111101101111010
00111110001011011010011110111111
00111110000111010110011101000110
00111101100010110110010010001001
10111110000111001100111100001010
10111100001011111000001111111100
00111101110111001000101111100001
10111100000000001011001011100010
10111101110011100011011010101000
10111110000100100010100110010011
10111101100111101100100001010011
00111110000100011111011001100101
00111110001001000001010010010100
00111101000011111000100101101110
10111110000110111010010001101001
00111101100110001110110101110011
00111101101000011001110011011001
00111010101000110001011111110011
00111101110101110101101001100111
10111101111001000000100010001101
00111101010011110100100000011001
10111101011001001111100100111101
10111110010111001110001101010101
10111101101100110011111111110111
10111100111010111000011011011101
10111101110110110000110000101110
10111101111011011010110101011010
10111101101000011011011101111011
10111100000110000110101111010010
00111101101011001101101100010100
00111110001000110001000010011100
00111110000100011000110001100110
00111110100000111101101010000110
00111101101010010011011100100001
00111110010001100000111100011011
00111110000000010110010110000110
00111110010101010001111101001000
00111101111111000011100100011101
00111101100110111110010101001001
10111101010101010011110110110011
10111110000011100111110101110001
10111110011000011100100011011111
10111101101010101111101100101101
10111101101111111011110111100000
00111101001111100111011101000000
00111101001000101111100011000110
10111101010100101110101111000011
10111101110111101011001101010100
00111100011111110100011000000010
10111110001011110001111111001101
10111101100100111000010100110101
00111101100100010001110001110100
00111110000100001111101111110000
00111110010001000110111111101100
00111101100110011000001001111000
00111101110111000101010010011010
00111110010010101111111110000100
00111101110010011000111111010001
00111110001000000001011110110001
00111110100000110010101000111011
00111101111001100111000111101001
10111011101101101100111110100100
10111101111010101100110000110101
10111110001101000101010101011011
10111011011010110001010011111101
00111101001000010101111111010101
10111110001111000100101101100010
10111110010010110110000000101100
10111110010010011010010111101110
10111100111110000010110111110001
00000000000000000000000000000000
00000000000000000000000000000000
00000000000000000000000000000000
00000000000000000000000000000000
00000000000000000000000000000000
00000000000000000000000000000000
00000000000000000000000000000000
00000000000000000000000000000000
00000000000000000000000000000000
00000000000000000000000000000000
00000000000000000000000000000000
00000000000000000000000000000000
00000000000000000000000000000000
00000000000000000000000000000000
00000000000000000000000000000000
00000000000000000000000000000000
00000000000000000000000000000000
00000000000000000000000000000000
00000000000000000000000000000000
00000000000000000000000000000000
00000000000000000000000000000000
00000000000000000000000000000000
00000000000000000000000000000000
00000000000000000000000000000000
00000000000000000000000000000000
00111101110000110000010011001110
10111100011100101110011011000100
10111101010010110001010101011100
00111101100101000110001001101001
00111011101101010000110011011110
00111101010011110110001000000010
00111110001011001110001011110100
00111110000100111101001110010110
00111101101011010101000001010111
00111110001110110001101001111000
00111110000010011011001011100010
00111100111111011010011101100110
10111110000110011000101101110000
10111101101111110110010111111011
00111100010010110101010100100011
00111100010011110110011101100100
10111110100000000000010101101010
10111110011000111101001001000010
10111101101000010010100010001101
10111101110011101000100101001100
00111100101101111110111010011110
10111101010111001001000010010100
00111100110111111010010111100001
00111110010111011011110000101000
00111110000111110011011101110010
10111101000000001010000001011011
10111100000100110110010101001010
10111110001111010101110111011011
10111101000001001100111001000000
10111101100101110101001110101101
00111011000101100110010100000111
10111100100100011111111010000001
10111101110101011010010001000101
00111101101111110010011011110101
00111101100110100101001000111000
00111100111101001110111110111010
00111101101101011101110100010101
00111101101010101000001011111001
00111101011000010011100011100000
00111101111000010101110011110011
10111101101111010100101001000011
10111101001110000010000110010111
00111110000001111111011001010101
00111110001101110001010001101010
00111101100001011100011101110001
10111101000111011011110010111010
10111101010001110101001000010000
10111101100000011010001011111100
00111101010001101100100110110001
00111101000110010100010011000101
00111011110010001110100111110011
00111101101000111111111111011011
00111101100111111000101101100010
10111100011100001010111111100000
00111101100101000011010111101011
00111110000000001101001010011010
00111100101100011000100110001101
10111100101010110110110110001111
10111110001010101101000011100110
10111101101111110100100011111110
00111110001011110110010101010101
00111101100010001010010111111100
00111101001010011001011110100111
10111110010010010011110110000001
10111100101110101110010111010000
10111011110111011011011000000001
00111110000010011100000110101100
10111101100001101110010010100000
10111101110111100100100110101010
10111110000011000000010001100010
00111110000000110101000001101101
10111100010000100001001011010010
10111101000100010101000010110101
10111101110100101000010000001100
00111101001001100101110001010100
10111110000001101000011111000001
10111110001101000010001100000101
10111101111111110111000110111011
10111110010110110110111111111010
10111101100101110010000100010111
00111010111101010110000000111110
00111101010000001000100000100111
00111101001000100001101100100111
10111101011101100011000000000101
00111101111101110000100101010010
00111110010011011000111000001111
00111110000110000011100101100000
00111110011111111110100010111000
00111110010100000010011111011011
00111101001110101000111011000110
10111101100001010011011111001011
00111110000011000101011110011101
00111110000100000100101111111110
00111101100110001110000001011011
00111100010000011010011111111001
10111110001101101010011101011110
10111101101001011001001000111011
10111110001100111000001011000001
10111101111100101011000101000011
00111101101011100101001010111101
10111101110100010000110001000010
00111101101011010000110011001010
10111101100110100111011100110100
00111101001001110101000000000111
00111100110011011001110100110010
10111011100010001110111111011110
00111101000111101011110011011010
00111110000111000100110010011110
00111110010001000000011100100111
00111101011111111011010100011010
00111110000010000101100011001011
00111101100011101001001101111011
10111011010011100111111110001111
00111101100010110100000100000001
00111110010001110100110000001000
10111100111000110011011101011000
10111101111101011101110000000100
10111110010010100011111011101000
10111101111100110110111101001100
10111101001110101111100001000000
10111110000000010101011111100001
10111101100010011001100111101110
10111101000010010101101001100010
10111101001000110001101010001100
00111100001100001110100111001000
00000000000000000000000000000000
00000000000000000000000000000000
00000000000000000000000000000000
00000000000000000000000000000000
00000000000000000000000000000000
00000000000000000000000000000000
00000000000000000000000000000000
00000000000000000000000000000000
00000000000000000000000000000000
00000000000000000000000000000000
00000000000000000000000000000000
00000000000000000000000000000000
00000000000000000000000000000000
00000000000000000000000000000000
00000000000000000000000000000000
00000000000000000000000000000000
00000000000000000000000000000000
00000000000000000000000000000000
00000000000000000000000000000000
00000000000000000000000000000000
00000000000000000000000000000000
00000000000000000000000000000000
00000000000000000000000000000000
00000000000000000000000000000000
00000000000000000000000000000000
00111101011000100001100100011010
00111100111010101000101000010110
10111101001110100100011001000011
00111101000010011110100001110011
00111101001000010010001001100001
00111101100000001100111011011101
00111101000101010001011001001000
00111101100101001011111110011101
10111101111101100101000110100001
10111101110100110011011111110001
10111101001110101010101100000010
00111110000000111000101000010110
00111100101000011010111100000100
00111101011110011011110111010011
10111101000011011000011001100111
10111101100011101011000010100100
00111101110110000100111110001001
00111101000110000011001011001010
00111100001011011010100110001000
00111101011100110110100000111101
00111101100001101011011010010001
00111110000000101010010100000010
10111101110010111100011010001011
10111100101011111111110101001100
00111101000000101101111101011101
00111101010110000100111000111001
10111011111111100010101111111011
10111101010000101011101001001001
00111101101001100011000000001001
10111100110011001010111110010011
00111101100010011001111101101111
10111101101010100100100011001011
00111100001100100011000101000110
00111101101000001000010110100011
00111101001000010010110001000100
10111101001111111010010011100011
00111100010010100001111011111010
00111101101011100110111001000111
10111101011010100110000000101001
10111101100010110001001010010110
10111100010000111100010011111000
10111100110010000100100100100011
10111101110100100100011001101110
00111011110100000110111000001101
00111101101111001100010110000010
10111100110111101010001010100100
10111101010110001110101000100010
10111101110011100001110010001000
10111101001001110011001110111111
00111100011001111110111010110101
10111100110000101010110100011000
00111101111010101000111011000111
00111100011111011001001110100111
00111101110010111001010000110010
00111011110011001011110010011100
10111101101111001110101011101011
00111100000101001010001000111011
00111101111101111001110010110000
10111100101011101111010101011001
00111100100101011100010000100001
10111101110101011110000011101001
00111110000001011010110001101000
00111110000010001001110010111111
00111101100101010001111010110100
00111010001000110111011100010100
00111011100101011111000101100100
00111100111001101011001010100010
00111100010111101110001101010101
10111101000101101001110100111101
00111101001100101111000110000011
00111101010100101001101010100101
10111101000010001011001110110110
10111100010100001010111110110101
00111101101000010110110000011110
00111101011001110001001000110100
10111101000011010100111010011100
00111101111011101100010000101110
10111101000111111101111001101100
00111101011101001011101100101000
10111101110010010000110111101011
10111100110011100011001110001101
10111101000011011111001001111001
10111101100000100000000101010011
10111101101000111000100001111110
10111100000010110101100000100100
10111101111101011101001010100111
10111101111101001000100001010001
00111101010000010110100011000010
00111101001000011101001011100111
00111001101110100100000011010101
00111101100011001101000011011110
00111101010111011000001000011000
10111101010011101000011100011001
00111101011011110011101011010101
10111101100100100101110101011010
10111101000110100111000001101011
00111101100101101110001100111110
10111101010110110110101011100000
10111101101111011110110110110111
00111010110110111000010101110011
00111101000101110010011010101010
00111101101011011000001101110100
00111101111011001100010000100100
00111101110111010111110000100110
10111100100010110000110000000010
10111101001100010000110110010101
10111100101001101000101111111001
00111101110100110111011010110011
00111101110100110010101010010101
00111101001000011111110011101100
10111101111010000110110111100101
10111100110000100100011110010011
10111100111111100110011000101001
00111100110010001101100111101100
10111110000000100010000001001110
00111101001011010100110011000100
10111101010010101010110001011111
10111100110111000010110111111011
10111101111011001111011111001101
00111101001011000111111111110111
10111101101000000101100110010110
00111101111100101110010110101011
10111101000101000110000110111101
00111101110010010010100010101100
00111100101011110100111100010011
00000000000000000000000000000000
00000000000000000000000000000000
00000000000000000000000000000000
00000000000000000000000000000000
00000000000000000000000000000000
00000000000000000000000000000000
00000000000000000000000000000000
00000000000000000000000000000000
00000000000000000000000000000000
00000000000000000000000000000000
00000000000000000000000000000000
00000000000000000000000000000000
00000000000000000000000000000000
00000000000000000000000000000000
00000000000000000000000000000000
00000000000000000000000000000000
00000000000000000000000000000000
00000000000000000000000000000000
00000000000000000000000000000000
00000000000000000000000000000000
00000000000000000000000000000000
00000000000000000000000000000000
00000000000000000000000000000000
00000000000000000000000000000000
00000000000000000000000000000000
00111101110010000010101101000111
10111101011110011000001001010011
00111101001001011101011011011110
10111101101111111011011011010111
10111101011010100010100111011100
10111011101101100010001010100110
00111101110011010110100110100111
00111101110111101000011111010011
00111101100100100101010110101011
00111101000000001100011110010010
00111101101001001011011010111011
00111101101111100111111001010000
10111101110011111110110100110001
10111101101011000110010101011101
00111101001011101000010010100001
10111101110010000111100001111010
00111100010010001100011111011101
10111100110100010000010111011101
10111101100101001000111110111100
10111101011011000011110100011000
10111101011100000101110010100010
10111101111001000010010000101111
10111101011000011100110111100000
10111101101000000010000110110011
00111101101100011001010000010101
00111101101110010000000111111101
00111101100110101100001110111010
10111101100001100101101101000111
10111101101010010001100000110100
10111100101001101000110001001001
10111101110001101100110000010111
10111101100101100011010110100100
10111101000100111100100100001111
00111101001101000011000001110010
10111100101101100001111101101100
00111100000111111100110111001011
10111100110000111110100110010111
10111101010100000110000001000011
00111100001010001111100111001000
10111101000100001000111111101000
10111101100011110100101010011011
00111100000100100101111000100011
00111100101111000010011011100110
10111100100011010110001000111011
00111101011010001011101001000000
10111101111100000100000100111110
00111101101001100111011100011000
00111101010111100010110010010100
10111101010001110101100111011100
00111101101000011110110011001101
00111101111000011010110111101000
00111100001010111101010000010011
10111101100010111001001101101001
10111101001110001001101000100011
00111101100100000110110011011010
00111100100111011010010000011100
00111101101001001111011011011000
00111101000101101010100000111010
10111101100101010111001110010110
10111101110001101001011111100001
00111101010001000101111010001100
00111100001110001011010001111000
10111100101100111010111111110011
10111110000000110011101111010000
00111100100101001010000010000011
00111101100010010011011101011001
10111101000001111111011101110100
10111100010000101111110110000010
10111101011001001111101111101001
10111011110010000000110111101101
00111101011011110011000111101011
10111010010010001010011100111111
00111101110000101011101001001001
10111100100001011000110100101100
10111101100001100000010001000001
10111100111111110100100111100111
00111101010000010110011011000000
00111100000011001101100100001101
10111100001110001001001000001001
10111100100001000000001001001000
10111100001010101010110010001100
00111101010110000101111000011001
00111101100111111101111110001101
00111101101101101100101000100101
00111101001110101001111110000100
10111101100110010001011010100010
10111101010000000101111000100011
10111101001100001111101100011101
00111101100000010111011011100001
10111100001010010100100100111100
00111101010011001111001010011111
00111101101111111000000110001111
00111101101011001111011110100010
00111101000010100010001011010111
00111101101010001010011000000111
10111101000010001010001110100111
00111101001010100000000111000010
10111101100010011011101000011000
10111101011011000011100111010101
00111100101100001000010000010111
10111100101010110000101110010000
10111101000000010001001011001111
10111101011001111101000001110000
10111101101010101110111010111100
00111101100011011011010100110001
10111101011100011000010010011011
00111100110010101011000101110101
00111100011010001111010000001101
00111101001010101000110100110100
00111100001000010010001010000011
00111101101011111100110110001011
00111101111011100101100010011000
00111010100010111010001101111111
10111101101111110111000111100111
00111101010010000001111000111010
10111101001011100101111000111011
10111100100011101100101011101001
00111100100000010011101000110010
00111100000011011011010010110011
00111100111110011110100010010010
00111101001010101111011110011100
10111101100010010100000010100101
10111100111110000101010110000001
00111101011011010001101101110100
00111101100001100101101000001111
00000000000000000000000000000000
00000000000000000000000000000000
00000000000000000000000000000000
00000000000000000000000000000000
00000000000000000000000000000000
00000000000000000000000000000000
00000000000000000000000000000000
00000000000000000000000000000000
00000000000000000000000000000000
00000000000000000000000000000000
00000000000000000000000000000000
00000000000000000000000000000000
00000000000000000000000000000000
00000000000000000000000000000000
00000000000000000000000000000000
00000000000000000000000000000000
00000000000000000000000000000000
00000000000000000000000000000000
00000000000000000000000000000000
00000000000000000000000000000000
00000000000000000000000000000000
00000000000000000000000000000000
00000000000000000000000000000000
00000000000000000000000000000000
00000000000000000000000000000000
00111101100001100110110101110001
00111100010000110001010000001001
00111101010101010101011010101101
10111101100111110100010100100001
00111101010011101000000101010110
10111101101101010011001110000101
10111101010001111001001101001101
00111101101000011100101100101000
10111101011011111100010011100011
10111101101000110011010110111100
10111100000011000100000001001011
00111001010001111110100101001110
00111101010010001010100011111110
00111011111000100001000111111010
10111101000111111001010101011111
10111100001000100101000110011110
10111101000001010000011001011101
10111101010101001110010010010011
00111101100101000110011011001001
10111101010101001101110011111101
00111101110100000000001100011010
00111101010100111101000001110111
00111101100100111110010010101000
10111101101001011101100000100110
10111101100110000110000011101000
10111100100111100000110010010000
00111101000010000000110100011100
10111101000101011000001010100000
10111101111001010011000101010101
00111101101110110011111010000011
00111101101001110110100011001100
00111101000110100000100000001111
00111101100000010111100000001111
10111101101000011100011000101110
10111101001001110011001110010001
10111101110011110001011101010010
00111011010110101010100011101011
00111101100011001011111011100101
10111101000011100010110111010110
10111101100110101000111101000101
10111101110101010110111000001101
00111101100001000010111001101000
00111101101000101110000100001100
10111011100001110000101100101011
10111101101001100110000001101100
10111101110110011111011010000010
00111101100100101101011000110000
10111101100100100111011110001110
00111101101110101001011000011100
00111101000111110010111100010110
00111101010111011111010110100100
00111101011110001110010111011010
00111101110001110010110001000011
00111101110000101110000001010101
00111101001001110010011000001010
10111101011001100001110110001001
00111101001010000000001001001011
00111101000011011001100101000001
00111101011111100111011001111010
10111101110000110010010100000010
10111101100011011111011011111011
00111101100111111011111111000011
00111101110010010101100100100010
00111101001001010010001100000110
10111101011110000001101011100001
10111101010000110101110100001010
00111101001000100000110011011111
10111100100000001010010110101001
00111101010111011001011001000111
10111101110110111100001101101101
10111100111001000101011111111000
00111001101110110010110100010010
00111100000010111010000001010011
00111101010011100000110100011001
00111100101000000101011100101111
10111101001010001111110100010001
00111101100000011011110110110111
00111101100000100010000010000100
10111101010100001000010010101110
10111101010110011000100110010011
00111100101101011000001110000111
10111100010101101100101001001110
00111101010010001100100011110101
00111101010101100010110110110001
10111101010010001011010010011011
10111101001101101000101010111100
10111101101010111101001010000111
00111011000101000111111000101111
10111101110111101110111110100000
00111010110001111011101110110001
10111101100100010100110110111011
10111101101001011100001010000000
10111100001001101101100010110010
10111101110011010011011110101001
10111101110100011110100011001100
10111100001101100000100101000111
00111100101101010111000010110011
10111011110100110010011011110111
10111100000001001001101101100101
00111100110001100011000111010001
10111101100000110000111111110010
10111101101110110100111011111111
10111101110011101111000000110010
10111100001010011100101011000001
10111101100000100001010110000001
00111100100001100100111100110110
00111101001100111011000001110100
10111101100101111101100100100100
00111010101010110000100011010110
00111101010111001111000111111111
10111010011110100101011111101100
10111101011111010011110010100100
00111100010011111100001010001110
00111100110111001001101011101101
00111101000001110101001100000100
10111101101111111110000011000100
00111101000010100101101110010100
00111101011000110110111001001100
00111101101000011010111011101110
10111101110100010001110010100000
10111101110000110110111011111000
10111100111100010111000101111101
10111101101110011111011000011001
10111101101010101101101000110001
10111101101010001011100010000111
00000000000000000000000000000000
00000000000000000000000000000000
00000000000000000000000000000000
00000000000000000000000000000000
00000000000000000000000000000000
00000000000000000000000000000000
00000000000000000000000000000000
00000000000000000000000000000000
00000000000000000000000000000000
00000000000000000000000000000000
00000000000000000000000000000000
00000000000000000000000000000000
00000000000000000000000000000000
00000000000000000000000000000000
00000000000000000000000000000000
00000000000000000000000000000000
00000000000000000000000000000000
00000000000000000000000000000000
00000000000000000000000000000000
00000000000000000000000000000000
00000000000000000000000000000000
00000000000000000000000000000000
00000000000000000000000000000000
00000000000000000000000000000000
00000000000000000000000000000000
00111110000010101000111100111100
00111110010000111001011001100110
00111101100101110001001100001001
00111110010010100111100101101011
00111110001010000110001010111110
00111101100111101000010001101111
00111110001001001101011110001001
00111101000101011001111100010111
00111101010000010100101011110100
00111110000011001111101011101100
10111101001111011010111110100010
10111101100010100100011000000011
10111110101011000111001010011111
10111110100011011000111111110100
10111110100110110111100101110010
10111101101101011001011010100101
10111101110100111000010111101011
10111110010100010100010000000010
10111110000100001111000001111011
10111101111111100110011011000110
00111110000010100101100101100010
00111101000000000101101110100010
00111110011100010111110111111001
00111110101010100100010101000111
00111110001001100101010000111110
00111101111010001101110101110011
10111101111000111010000110110111
10111101100110101100000101110111
10111110000111001001001110010111
10111100000011010100111011010101
00111100101101000011010100110110
00111110000011110000011100010011
00111101101100011000011011010000
00111101010010000101111100100000
00111101010000101101011111100010
00111101000011100110000110101001
00111110010011011100110010011111
00111110010001000110111100110110
00111101000010101001100101011101
00111110011011011101010110101001
00111101010010001100011110100101
10111100001010010101100010111010
00111100111000100000010001010111
00111110010111001010000110100011
00111110000111001111000100111100
00111100011000001010101101000001
10111100010010000011010000111101
10111101010101000000011011000101
10111101100111000101011011011100
00111101100100111101001111100011
00111011111100000011100101110000
00111101110010001010010010011011
10111100110011100101001000001111
00111101000100110001001001100100
10111110000000001110001001011111
10111101010000101000100110100101
00111110010101101011010010011101
10111100111011001001010100111000
10111110000011000100000000100111
10111110000000110011010101111001
10111101100111101011111001000100
00111110011100101111100000110110
00111110000000010011101111000010
10111110000000110101110001100100
10111101010011111101001111101010
10111101001000111000110101111001
00111101011000011101000000010110
00111110000110111111100111011001
00111100100101101011101100001010
10111101100010011111110111001101
10111100010101010011110110011101
00111101110101111011000010100101
00111101110010101100011000010101
00111110000000001100110111101011
10111101100001110000001111111011
00111100101101001010100010001101
10111110000110011001110000101000
10111110010111101101110000011000
10111110001101000100100101001101
00111100110101110000110101000110
00111100111111110001000110000100
00111110000101011100001000100010
00111110001110011001100000011100
00111110100011001011100001000110
00111101001111110100001010100100
00111101110100010100111101011011
00111110011101011100111011100101
00111110010110000001110000001001
00111110100000000101110110001111
00111101010001010100100100011111
00111101011001100001011101001010
10111110000110001110000111011110
10111110001101111111001101100001
10111101011001010010111000110111
10111101110010010111011000101100
10111101010010011111000110000101
10111110011011111010001011011001
10111110010110101011000000010111
10111101011011011001110011001111
10111100100100100011111101101110
10111101111011010011000010111110
00111101011011110101100000110110
00111100111010110111111000000010
00111101101100111100011001111110
00111011100001101010001010011011
10111011100001010111100001110010
00111101101111011101001010100011
00111110001000110110010000000000
00111110100101010010001000011001
00111110011001010000101110001011
00111110001100100000100110001111
10111100011011100101101011000000
00111100111111000001110100111111
10111101110111010100111011011110
00111110000110110011000111001001
10111110000110110110000000001110
10111110010101011100111111101011
10111110011001000111011111101010
10111110100001011011010110010100
10111110001001110101000111100111
00111101100111001000000001001010
00111101111111001001100011000000
00111101001001001011101111000110
10111101100101001101011000000001
10111101011001011100110100010000
00000000000000000000000000000000
00000000000000000000000000000000
00000000000000000000000000000000
00000000000000000000000000000000
00000000000000000000000000000000
00000000000000000000000000000000
00000000000000000000000000000000
00000000000000000000000000000000
00000000000000000000000000000000
00000000000000000000000000000000
00000000000000000000000000000000
00000000000000000000000000000000
00000000000000000000000000000000
00000000000000000000000000000000
00000000000000000000000000000000
00000000000000000000000000000000
00000000000000000000000000000000
00000000000000000000000000000000
00000000000000000000000000000000
00000000000000000000000000000000
00000000000000000000000000000000
00000000000000000000000000000000
00000000000000000000000000000000
00000000000000000000000000000000
00000000000000000000000000000000
