00111101000101010100010111000011
00111101100111100110100010110011
00111101111011110100001001111011
10111101011101111001101100101110
00111110000100110000110110011101
00111101111100111101111010100010
00111101101001010101011101101110
00111110010110110010101101000010
00111101110100100010110100111001
00111110000100011111010110100001
00111101101001100000011101110000
00111101111100011010010011110010
10111110000110110110010111110001
00111011100000010001001110100000
10111101100100111111110101100100
00111110000110110001110010001100
00111101100010101011001101001100
00111101111010100011110100010100
00111110001000110100011111000001
00111101010001111011100110010110
10111110000010100010100110111010
10111101101000101011101000011110
00111100100011110001000000110011
00111100101000100001000000101001
00111101101011111101001000001111
00111101010011101100011101011001
10111101010101011110111100001010
10111101011001100100100010111111
10111101001010000100100101101111
10111101101010100111100100101001
00111101001010001110111001101101
00111101110100000011111011101000
10111101111001110111011001111010
10111101101100101000001011000110
00111101100000101100110110101111
00111110000001001011101101001000
10111101100000111100000110110110
10111110001000011110100100000001
00111100110011011010011011100110
10111101100111101001000100110111
00111100001011111001011101001101
10111101101000110001001101011000
10111100011101010000101010011010
10111110000110111101001100011011
00111101000111010110111101010010
10111101010111011001000111010001
00111011001100000010100011101111
00111101110000010011010000111110
00111011101001000100111110011101
00111101011000000000011110110101
10111110001000000111000011000011
00111101100111110001100110111010
10111101100101100010100110111110
10111110000101111001110000001101
10111110001000010111111000000011
10111110000111010110000011110001
00111101100101111110001100010011
00111110001000111100000001000110
10111101010110000111101111001000
10111101001111100011011011001000
00111110000001100010111011011100
10111100101011010111011011101000
10111101010101001001010000110100
10111101001011101101011100010110
00111101010000100100111110000100
00111011111010010111101001011010
00111110000001011101001011001110
10111110000110010111000101100000
10111101110101010000111010000011
10111110001010111100010111000011
00111110001011000010100101110101
10111100100100111001110101101011
00111100001010110000110000110010
10111101110100001110110111110010
00111101110000101110110000101010
00111100001001001101001101010101
00111101110010001010100110010000
00111101100010010001000011010101
10111110000101110011110110110111
10111101111101101001101010100011
00111110000101100010100100000110
00111101101111100101010111100010
00111101100000001000100110000000
10111010100110000001010111000101
00111101111010001010101111010001
00111101101010011000000101110111
10111101100110100001010000101000
00111010010100011110011101001100
10111101010001100100000011100111
00111101001001000010000100111010
10111101010011011100011011111111
00111101110101100001010100000000
10111110000011110110010110100100
00111100101010111000110011110001
10111101111000100101111010101010
00111110000010110101010110101000
10111101111001011000111110110011
10111110000010110010010110001100
10111101001110100011100000110101
00111101111101100101000001110110
10111110000100000000101000100111
00111011110011010010111010011000
00111101101000001111001010010010
10111110000001101011111101110011
10111010001110001001110011010000
00111101010011111100111111001100
00111110000100111100111101100010
10111101100100010111110111001010
10111110001100010100001011110010
10111110000100100010001111010100
10111101111100000100111010101100
00111101011010010010111011100010
10111011111110011010010000111000
10111110010001001011111101111101
10111101101100110110001000110010
10111100001010111010011110000110
00111101011001011001110001111000
10111101101010011010001001111010
00111110000100001100100110000001
00111100110110100011001000101010
