00111110000110100010110011101011
00111101011101100101001111101111
00111110000111000001000100100100
10111100100000010101011010000010
00111100101010100000101101010011
10111110000100101100111111000000
10111101100111000111101101011101
10111100111100011110001011000111
00111100100001011001101110000000
00111110000001101110100101101001
00111101111000111010000100011010
00111101001111011100111101000101
10111101111010100001100011001111
00111101001110111010000100010000
00111101111011000011011001101001
00111101101011010101100100111111
00111100110110010101100100100010
10111011000001000000100101001110
10111100111011001101111011111101
00111110001101101011101011100100
10111110000011010010100111111010
00111101000000000110111100111111
00111101110101011110011111100111
10111100001101101110001001111111
00111101010011011011000001000010
10111101000011011001110000101101
10111101101101001011011100111001
10111110000010101000001111010110
10111101011001111111000011101011
00111101010001111010111001010111
10111110000111110010101001010100
10111101111101111100001001110011
00111100011000000000000011100011
00111101101011101000110111011011
10111101101000101011110111111111
10111101111010111110101010110101
00111110000010101111101001001101
10111110001100000100100100111010
10111101011011101011100101110000
00111110000010101010111000101010
10111101010001100110000111001010
10111110000001100100011010111001
10111101100011001101011011001111
00111101111000110101101000001111
00111101101010000111000100010010
10111101111101001001001010111110
00111101100001010011011010100100
00111101000100010100011111110011
00111101000011011010001111100110
00111101100100000000100011000010
10111110000001010100100111011111
10111110001100001010000011100000
00111101000100011100001111001100
10111101010110010101111000000101
00111101101010101010110001101100
00111101000110011000100000010101
10111110000000100101001011001000
10111110001011000001010000001111
00111110000001001000010101010000
00111110001101110001000001111000
00111110010001001110100100010011
00111100010101111110111101110010
10111101101110000100110011000101
10111110000110011010100010011110
00111101100111110110010100111010
10111101010001000001000001111100
00111110000101001011100101011001
00111110000101000101011111110000
00111011100001101000011110001100
00111101111010100101110110001110
10111110000101000100010011101100
10111100100011001110011011010111
10111110000011111010100101100110
00111101111010000010010111101001
00111110000101001110001011011000
00111101110001001001001001101101
00111110000001010011001110100111
10111101110101111000011011100110
10111101110011111010011100010010
00111101101101110000000010101011
00111110000010011000001101100000
00111110000100110001101110011000
00111110000111010111111001101010
00111110000000010100110111101010
10111101010001111010011111100010
00111101101001111101100000000101
00111101110101000000100000011000
00111101110100011111111111001101
00111101111010010001110111111011
10111101100000101001010010000101
00111110000001100110011100010011
00111110001011101101100001010000
10111101111000011011101011000000
10111101100100111111100001001000
10111101010111101110011001100011
10111101110001110000110011011101
10111110000110110100100000011000
00111110000101111011110010000101
10111101010100001101111010010101
00111101000101000011001001101000
00111101101010000000011010000001
00111100000100010011101010100010
10111101110000011001111011000010
00111101111001111011001110100010
00111110000010110100101001111011
10111101101111111101110000000000
10111101001010110100000001011011
00111101100110111011111100010010
10111101110100111111110000011000
10111100110001101001101010000101
10111011101101110110011101110011
00111101011000010101010010000011
10111101110010110001101101110110
10111110000110011001000000001001
10111100000010110000000100001011
00111101010101100001111100011101
00111110010001010110001000101110
00111101101100011010110000010110
00111110001011010110111000011000
00111110000011001011011001101100
