10111110001010010111111011010000
10111110001001000101110001111100
00111110000011011001011110100011
10111110001000001010011011011100
10111101001011000010000100000110
00111110001101101010010111100110
10111101101101001000101011000110
10111101011001110001100000010010
00111101100000111000110101111111
10111101100100111010100111100010
10111101100111101101111000101100
00111101110110111110010000111000
00111110000001000101001110110011
00111110000110000000011101100011
10111101101100100101010111001101
00111110000010100010100011000111
10111101011000100000101000101100
00111011010101011001001010100101
00111101001010010111010111001110
10111101010011000110100011100111
00111101000010100001001011010011
10111110000011001000101111001100
10111101101110000101110111110101
10111101111011010100111100110010
10111101110110101000100110010111
10111101011011111101000010001100
10111101111110100010110110010000
10111101100110110001000111000011
10111100000011011110101101010010
10111100110100000111100110000110
10111110001010111100101001110110
10111101101011100010010011101100
00111101100111001110101011111111
00111100111001001100000001111111
00111100111001100100100001111010
00111101011011000110001010000000
00111101100111110010000110011110
00111101011101001000001100100101
00111101100011100111111110001001
10111101000100111000011100011111
00111101101111111101101100010010
10111100010001011011111010100001
00111101110011100111010010001111
00111110000101010110110111111001
00111101101001001011100000000101
00111101110111010100110111000011
10111110001101001100000000100110
00111110001000110101100111011101
10111101100001110010010100001111
10111100111110001000101101000001
00111101100101001110111001000110
10111101111100000011110101100000
00111110000110010110010010101110
00111110000010001001000010110001
10111101101100000001010000100111
10111101101111010000101110111001
00111100101111001000101100010101
00111110000011100101110101010011
00111110001000001101101100101111
00111101000101000010011010111001
00111101011011101011111010100111
10111101010000001011011001010000
00111101100011101111111010111111
10111101101010000000001111101010
00111101100110000100100001110110
10111101110011110010011010101111
00111101110010001011001100010000
00111101000110110001010000011010
00111101101011111110100101011001
10111101110110110010110101101011
10111101110000111000110111110010
00111110010010110100100100111001
10111110001001001001101010101101
00111101111110111011011100111110
00111101010011000110011011011001
10111100100010001110101000111111
00111110001111001100101001110011
10111100000100011101111011111111
00111110001000000111010011111100
10111010110000010100001111111101
10111101101111111100000111010001
00111101101101001110111001100100
00111101101110100101001010101011
00111101000000010110001001001010
10111110000101101001101110110100
00111110001110101000011111001111
00111100011110110000110011001001
10111100100110110110111111011111
00111100001010111101001111100011
10111101101000101111101000010101
10111011011100100111011000101111
00111110000001100100011111111100
00111101110100100110110011011011
00111100010111101100110100010101
10111101010101011000000111100011
00111101101000110000001011101001
00111101010100000101000111110000
10111110000010000001110001000111
00111110000001001101011101110000
10111110000011010100011011011010
10111110000110000011111111001101
10111011110111100010111010100011
00111101001111011100001101111101
00111110010001101101001110111011
00111110001111110010011100101011
10111110000101101011101010000111
00111101100111011001000000111010
00111011110001111100001001100110
00111100100010101011001100011101
00111110001000111111011011011100
00111010101101001100011110100110
00111110000110011110111001101111
00111101001100101110101011000100
10111110001001001001001000010001
00111100110100011011001010110011
00111101110001100111111100010010
10111101100000010111010111101000
00111110010000001011101001001011
10111101110010110000011010101101
00111101101010001100101010010010
