00111101101100011101100101111111
00111100110001100111010000101100
00111110000001000000110000110000
10111100111110111001101000011001
00111101110001111100110001101011
10111101111000000101100010101111
10111101110101110011000001010111
00111110000010000001110010110111
10111101111000110010000101001011
10111101100010001001101110100011
10111101001101000001001010010011
00111101111101101001001111100010
00111101001011101101010101010111
10111110001111011111110010110100
00111100101101001011100010111011
10111100111110000100011101100100
00111101101100001110011110101110
10111110000000101000011101100011
00111110001100100000111000100010
10111101011001111000010000111010
00111100110001000100000010101110
10111101101111010010101000111010
00111100001000111111101110111010
00111110000100111111100000011100
10111110001100011000001011001010
10111110001011011000110101110110
10111100010010000000001000100110
10111110000010001111011001001100
10111100010111101110101111001100
10111101010110100110010010111011
10111100011100000010101011000000
00111110000011010100001011101000
00111110001001111100000101000010
10111101001001000110011010110110
10111101111001110000010101110001
00111110001110011001110001001111
00111110000101100000011111011001
00111101110001111011010000001000
00111101100111001000100110100001
00111110000110110101111110010100
10111011101101000101100100011000
00111100100100001000111110100011
10111110000111010111010011110111
00111101111001001001000001000001
10111110000100110001001011111011
10111101100101101110110111010001
10111101010000010100110001010101
10111110001011101000010011101100
10111101000101010001011101000100
10111101001000000100001110110010
00111101100111101010010001011010
00111110001101101010001110011010
00111110001011011011110100101100
00111101011011100111001111100011
00111100010011001011101111000010
10111011100101100001011010101101
00111011100010010100001000011101
10111011111001110110010100111101
10111101101111000101101110101100
00111101110011111001111111000011
10111100100010010001011001110110
10111101011101100101011011111110
10111110000010100101010011010111
00111011101101001110000010111100
10111100111000111101010100101100
10111101110100101110001001110011
00111101101010010100010101011100
00111101011100110011100001010100
10111110001010111001110011100001
00111101001110101010011000101000
00111101000011111110000111111011
00111110001000111000010101111010
00111110001000001100100100010011
00111010111101110100111101001001
10111100101011011010010111101011
00111110000110011001101010011110
00111101100111111010001111111000
00111100011011001111011101011110
00111101010100011001111011011001
00111101111100110001010110111000
00111100110010100110011101000000
00111101110101101111101111000000
10111101110011011001110001000110
00111101011101110010011001111010
10111101111110011000111010110001
10111110001010101110010011110110
00111011110110001100011110100101
10111110000010011101101110000011
10111101101111101011000100000011
00111101000100010111010011100010
00111101011000000001110110000010
10111101010010000010010001110010
00111110000111010011000111010010
10111100101100010011100110110101
00111100000111001101101011001010
10111101101011011000110010100001
00111101010111111111101111001110
10111101011110111111100100000010
00111110000010010001010111110000
00111110000110100100100011000010
00111011001111001010011011011001
00111110001011100100101101111010
00111101101101000001011011110111
10111101111001010110111110011101
10111110000111001010001010000010
00111110001110001110011101111100
10111101100011011001000011101111
00111100010011101100000000101000
10111101110001110010100110110000
10111101111110110011001110111100
00111010100011101110101101100111
10111101100011110010000100110001
10111101010001111111010110001011
10111101011100010011110101111001
10111110001100101010100001110011
10111101111000100000001000000011
00111101110110100101111001011111
10111100101011010111111110010110
00111110000110111001011101000010
10111101110001111110111001010111
