00111100101100111111001111000111
10111110001010101111000011111001
10111101100100110100101110011111
10111110001001110000110001110100
10111100111111001110111000010110
00111101010101100010111110011001
00111100001100100010011000100111
00111101110000100110110111100101
10111101100111000010101100111100
10111101011001100111100101011010
10111100000111101110110111111100
10111110001110111101110100011111
10111101101101101010101000101100
00111110010001101000000100100000
00111110001110001010111110011111
00111110000111110110100010110010
10111101001001010010111001001010
10111101110010010010111111101100
10111101110011100101010101011111
10111110000110011011011100101011
10111011100111111101010110010111
00111110001010101010000000101111
10111100011001010111101101111000
00111101001001001000010110101010
10111101001100110010000101111000
00111100101000111001001011111010
10111101101011011111101001111100
00111101111100110111101111101110
00111101010100010100010101101111
10111100100111110100011101000001
10111100110100100000011111001011
00111110000111001110100101000101
10111110000100101110011111100000
10111101101100001101100001111000
00111100010000111011001011111011
10111100100111111111011100111111
00111101011101101001011000101110
00111101110101010001010101110101
10111101111111111001010111111010
00111101000111001011100010010010
00111110001000100000110110001001
00111101110011100100100111110101
10111110000100011011010010010101
00111110001011010101101000101000
00111110000110110001111101111010
10111110001101010101111110110000
10111110000110001001011110000111
10111110000100110111110100101000
10111110000100011010100001111001
10111101011101001000000101001011
10111110000101010101010000111100
10111101111001100011110100101111
00111110001001011100101101100101
10111101000111110110000100100111
10111101110001111010101110011001
00111101101010101111110101010110
10111101101001101010110101100111
10111101100100101011110111011011
00111110000011111001100110101001
00111101001001011111111000001001
00111110000000110101000001111101
00111110001100010000100010101001
00111110001010111000010000101110
10111110001010011000110111100100
00111101101001110101110101000100
00111110000001101111000001100010
00111101101101100110110100000010
00111110000011110001111000100000
00111110000001001111100010000100
10111110000100101111011010101011
10111011100100100111001111011001
00111110000110100010101011001100
00111101001101100101111110100101
00111011110001011100100001101011
10111110000101001001001000100010
00111101010111001111010101110100
00111110000111001010011110101111
00111101110010010111001011101110
00111101101101011100001001101100
10111110000111011010001000001000
10111100111110011111110101000100
00111101011110010011001010111101
10111110000110111101000100101100
00111110000001111011111000000111
10111101010101101111000010010011
00111101010100000011110110011101
10111101100100000000000100000010
10111101010101011111110000110000
00111101110011101001100010011111
00111110000100011110011000011001
10111110000110110001011001011010
10111101000011011100110000000001
00111110000111110011000010011100
10111101110100110011100111011001
10111110000010001011000001111000
10111101111101100100010100110110
00111101111000000111111001001100
10111100100101111110101111111110
10111110000010000101100111101101
00111110001000110001101100110011
10111110001100011110110100000011
00111100100111100001110101100100
00111101100001000101111110011011
00111101100110010001010101100010
10111101101011001011010001100001
10111100100011001010100100110111
00111110001100100100010111101101
00111101101111101101011111011011
10111011100101111001000111000111
00111101100110001110101010001111
10111101100000001011110011010001
10111110000101001101000101110001
10111101000001000010110010001010
10111101011010001110011000001001
10111110000100001010110110110011
10111101101001111010111101100010
10111110000011011101000011010010
00111101001011100011110010100011
10111110000010001001110110001101
00111101111000100001110001100011
