00111101110000111011110011000011
00111100101000100000010001001010
00111101101011101111101111011101
10111101011100000101010001001001
00111101110110000001101100100001
00111101100000110011011000011011
10111101111101000011000111011101
00111110000100101001010111001000
00111100111011111110000110100011
10111100101000111101111000101101
00111110000000111110111000111011
00111110001100101101001001000001
00111011100101011100011110100100
10111110000011101100100110110101
00111100010100010111101001101001
10111101010001110001010000110111
10111011110001110111010111001010
10111101101010000010011010000001
00111110000010001110100101000101
00111101100100111001010000001101
10111101110001000011110110100110
00111101011110000100100110000001
00111101011011010000111111011000
00111101011000010010111000001000
00111011011110011011110100101001
10111100111011011111001110010010
10111101010101101100111111001110
00111101100010010111100001111011
00111110000110011101001100011010
00111100100100111010111011101000
10111011100101100111010000100000
10111101111010110101001011110011
10111011100100001001011011010110
10111101001000001110011101011100
00111101110100100011111000000101
00111101110001011000100011011000
10111101001000010001000001110001
10111110000001100011100110010100
10111110000110000000000010011110
10111110000011100100010011001011
10111101010111100110000111111010
00111101001010111011000110000101
10111101101010110110011011111101
00111101000000100010001011110001
00111100111011110110001001100000
10111101111100101111001011001101
00111110000101100100010110001111
10111101111000101011001001000110
10111101111110010101110110111100
00111110001001011101110101100000
00111101111101110101000011011110
00111101100101101110010000100010
00111101001101100100000010010010
10111101110100100100000101111010
10111011110010101000001010011000
00111101000000000000101010010111
10111101110000010110101011000111
10111110001010011111101001010010
10111110000111000111101011000011
00111100011111000100111101001101
00111100111110000110111101101000
10111101001100011000011001010010
00111100110101010000011000000000
10111101111011100101001111000111
10111110000101111110011100110000
10111101000110010101001111111011
10111011100111101001111001111010
10111101001111101100110100001111
00111101001111001001111000011100
00111101011111111000110100001100
00111101111110001101000010100000
00111110000011000101011010111010
10111110000001100111110010110100
10111101111110010101111111000011
10111101101010000101001111010010
10111101100100101110001011010110
10111110000010010101011101110101
10111101010011010101000110110000
10111110000101111000111000101110
10111101001111101100110100110011
10111101010011100001101101100011
10111101000011001000011010100010
10111100110111010111100000011010
10111101000000101011101110000101
00111101101001100000010010011010
10111101011111110110100110101111
00111100100010101001010110100011
10111100111111010100110101111010
00111110000100100101111111110011
00111110001100100101101101001100
10111101101011000111011011000011
10111100010011100110011111010111
10111101110100101001010101001110
10111101010000000100000000111101
00111101101100111000100100011011
10111110001001000011010101001011
00111110000100110110111100010110
00111110000001110111011000111100
00111100001101101010111111010001
10111101101001001010101001000011
10111101111000101110110001101101
00111110001010001010010001101010
10111101110110101000110010010101
00111101110000110001111101110100
10111110000110111010010011000000
10111101001100010011101001110010
10111110000010010100100101001011
10111101111110101110000010100000
10111101010000011110000010101100
00111101010110111110110011011001
10111110000111110010110101010100
10111101111111011010001110001111
10111101010000110101110111010100
00111100111010100001000001110001
00111100010110000100100011101010
00111101000111101100111010000011
10111110000001010001100110100001
10111101100010011110001100000001
00111101000111110001001111010101
00111110000111001101100001111100
