10111110001010111100100111111101
00111101000010100010111111101111
00111101011000000001000101001100
00111101010010111000100111010001
00111101101010101001011010100001
00111110001001111001111101101001
00111110010001100110111101110011
00111101101110010010011010100111
00111110000001000100110001010011
00111100000100100010001101000100
00111101100000010011101010111111
00111101110111010011001010110101
00111101100010110010111000111011
10111101111100111110100110101101
10111110000110111011100101011000
00111110000011011010011100001001
10111101111111010110001010101100
10111101110101110000000110110111
10111110001011100010010000010011
10111101110000000000010001111010
10111110000010010011111101001000
00111101111111101011001111111110
10111101101001011001010001010111
10111110010001101011111000100111
00111101100001110000110010101100
10111110001010000011111100011001
10111101100000111011010111011110
10111101111011111010111011101000
10111101110111010100001101101101
10111101110011011100010001110111
00111101010111000000001111011111
10111101100010100111001001110111
00111101000101001000111111110100
10111011110010110000110010001101
00111110000100000111110001000001
00111101011110110011111011000111
00111101111000010101110111111011
00111011101010001000110001001110
10111100010011011111110100001111
10111100000101111110011111011101
10111110000011101000101000001101
10111110001011001111011111010100
10111101000000000000010000001001
00111101111011110011110100010011
00111101010110110111010001100101
00111101111100010011000111111111
10111110000010111111010100010011
00111110000010100011101001110011
10111101010111011001011100110010
00111101110001001111001111000011
10111110001100101010111010100100
00111101111111010101010010111001
00111100011111001001011011101010
10111101010111111110100001110101
00111100000011101000110000010101
00111011010001010001011100011010
00111101101000011001101000000011
10111101110010111011010000001111
10111101111010111100110100011111
00111101110111000000001011010111
10111100000000000101000111000011
10111110001000101011110110000101
00111110010001110011011111001100
00111110000110100000100100001111
10111110000011011000010111000000
10111110001100111000110010110001
00111110000001110001011111101001
10111110001011101011000111111101
10111101010110010011000000001100
10111100110111100000110111110011
10111110001010001101110100001101
00111110000110111110010001100100
00111101110110010111100110011000
00111110001000101000001100101010
00111101011011111001011110000000
10111110001101101101100100010011
00111101111101110101001100111101
00111100101101110000101110011101
10111110000010111000111110010111
00111110001011100100001000000011
10111110000111011100010110110010
10111110000001000001010101101011
00111100111101010101011101110100
10111110000101111011100000101101
00111101010111001011110010011101
00111101110111011000000010000011
00111110001000011001010101100000
10111110010011100001000100001000
10111100100010011000110010011100
00111100111001010100111101110101
10111101111101100001010100001000
10111110000110110000110000000100
00111101111000111110110101110001
00111101110011111101010010011011
10111101101100101010100000111101
00111100111001111110110101110011
10111101101111011000111100010000
00111101001011010100110010111111
00111110000000111010011011110101
00111110000101111001100111110110
10111011111001000110111000100001
10111110000001111101111101110110
00111110000101111110000111001111
00111101001000110011010101110100
10111101100011101000100010110011
00111110001000000010101111100111
00111101101101011000100010100101
00111100011101001001010011111010
00111101001010010000010110110000
10111101101101111111111011101110
00111101011000111101000101101011
10111011101011000111100100101000
00111110000011110001000100110100
00111110000000001001101010000110
10111101000100100011111010111001
00111110000010011111111101111000
00111101111000100110011010000000
00111100100001010000011110111000
10111101111101100100100111001110
00111110001011000111110111110000
