00111101111001010111001110011001
00111011000000000010000010000101
10111110001010101000100011100111
10111110000011100110011100010010
00111101010101001110111111101100
10111110001011000110101010000001
10111101110110111000010001011011
00111110000011110100010010111001
10111110001001100101111110001110
10111101110111010110111000001110
10111110000110000001100000100000
10111110000111000101101011010100
00111100110010100110010001101010
10111101001100111001101100100101
00111101111000001001001011000001
00111101001110110001110010100000
00111101100001001011110110101001
10111101101000101101101101110011
10111101100100111100110011100000
00111101110110010001010010111001
10111101011101011011111100101010
00111101101110010101001111011110
10111100111011100110100110010111
10111110001001110100001011011000
00111101110101011101000100110110
10111101011101011010001000000100
00111101111110101010010101110110
00111100101111001010110001110000
10111110000001011110000100110011
00111101110100000110010110100000
10111101100000011101000110111001
00111101111010011101101001001001
10111110000000100110101010110101
10111110000000000101100011111011
00111101111101010000100000100000
00111101101111111011100000111101
10111100010011000011100001010000
10111010100000010010101011110101
00111101111010011000111001000101
10111101110010001101100101101101
00111100110001010001100001110000
10111011010101001001010001110000
10111110000010110100010101110110
10111100001011110100011100111110
10111110001010001011011000101001
00111101111001100110100001011110
10111110000001010100101001001101
10111101101110000001001000110010
10111101101101100101001110010100
00111101100010110001001111100011
00111101110100000101111010111000
10111110000000000000010101000000
00111110000111100011101101001111
10111101111101000011011101110010
10111100100010010100001010110000
00111100001100010111111000001010
10111110001001010110101010010011
10111100100011001011111011100110
00111101111001000000010110001001
10111101001111111011110000100011
10111100001100010001101011000011
10111101010001011110010100111011
10111110000100001110011110011000
00111100011101110011110100110011
10111101100111101011110101011011
10111101110010001000111010111011
00111101100010100010100101010011
00111101110101010010000000101001
00111101111001001011010011100101
10111110000000010110010100101000
00111101010011010001011001010001
10111110000101111100111101000011
00111110001001010110110011110101
00111100101110111010111010100111
10111110000010111010000101000110
10111101110110111100100001011101
10111101110001100111111011010110
10111101010111101010001110001110
10111101100000011100110111011111
10111101100111100001011111011110
10111100011101010011100010010101
00111101010011100001010010100001
00111110000111110010101100001111
10111100111101111000101111010100
00111101101110011100101011101110
10111100001010111010111101100011
10111101111110100110110000101010
00111101111001100000100000110101
00111101100110101101111100101010
10111101000100111010101001101100
10111101001001100100111010111100
10111101100100010010111101000101
10111101101011010100110000000001
10111110000111001000101011011001
00111101110111101100111101110101
00111101000001111000001011110010
10111101100110101101100110011001
10111110000011100001001001100011
00111011110110100010011111011011
00111101100000011100001111110000
00111100100011100010010111010000
10111101110101110111011001011011
10111101101100000100000000111000
10111101010001000000000001111010
00111110000110011011011111000010
00111101101010000010101111001010
00111101111001001101001001100000
10111101110010101101000000110101
10111110000100101100100001110010
00111110000010010010101000010110
10111101011101010001101001100110
00111011100100101111100001000001
00111101101110110110111101100101
00111101111001110001001010101010
00111110000010001110100110011111
10111110001001101000100101011100
10111110000000000000101110110101
00111101001111011000111101111001
00111101111000001100110101001010
10111010001001011001111011011000
