10111101111100111001000110011100
00111110000010100110000111011011
10111100010111011011101011010100
10111110000000110101001111101110
10111101100110100000101000001000
00111110000101011101100011101110
00111100100111110110010110011100
00111110000011100101010110100111
10111110001001111001011100010100
00111101100001011001110100110101
00111101001100110000000101110000
00111101101011001011000111111011
00111100101100111111110101111101
10111110000000001100101101111010
10111101100010111011100111110100
00111101100100000011100010001001
00111110000101001001110110010001
10111101000110010111011110111011
00111100011000100100110000101011
00111101000011111010101100010111
00111101100100110000110111110010
10111101001110100010101010110100
10111110000101001000010010100000
10111101100111101100111010110111
10111101110010101110010100001011
00111101001011000110111111011000
10111101101100101110111110010100
00111011110011000010100010010111
00111110000011000001000001100010
00111101001010011000111100010110
10111110001010011101011011111100
10111110000100100001101001010100
10111101110000011110110100111011
00111101010011010001001001101101
00111100100011010111101110100011
10111100111000110101011101001010
10111101100000010101101110011101
00111101000001100100111111000001
00111101001001101100011111000101
00111101111001100011100100111100
00111101001000010111001101101000
10111011010110100011100101011101
00111101011000111011101110101110
00111101000100011011010111000010
10111101111110000100111111100001
10111011011001010000001001110011
10111101111101001110101101100000
10111101000110010001111100000100
00111101010100011101000110001001
00111100101011101010001110111101
10111101000100001011101100001101
00111110000100011110110000111110
00111101100111010010010111011001
00111101011011111010000110001010
10111110001000100000111010110111
10111101011100011101100000111100
10111101100110011101111101000011
00111101010101011010000100111100
00111110010100110011101101100010
00111110000011110001111110101011
00111101100101110011111101010110
10111101100010111110111111010000
10111110001010101001101011111100
10111101000111100010100110101101
00111100100110100010111011000011
00111011101100101101001100101111
00111101100011000110011001000111
10111101011010101110100100110111
00111100010100101100101101110000
00111101100110111001001100101110
10111110000001001100011001110000
00111101001000001111110001100100
10111101110000011001100111111010
10111101011110000110110100100100
00111101000111100010001001101111
00111100101110001000001001101100
00111110000111110000100011001110
00111100010000011011001010111010
10111101110110111100101101011111
00111101010101110000100011000001
10111110001001110111000110010011
10111011100001001001100111110110
00111101110011101010011001111000
00111110001100010001111000100100
10111101111001011100011010010111
10111101110011110111110100001110
00111100100101001001101100101110
00111101110110010000010110101111
00111101101100111011000000111000
10111101101101010001110111000100
10111110000001000011011101001010
10111110001111101010100010100100
10111100110010111101111010110110
00111101101101011001011110010101
00111100111100000100101000100111
00111011110000111011100000110001
00111110001101000011111010110111
00111110001010100111011111011100
00111110000100001101101000111111
00111110000001000110001111001110
00111101110110010011111110111000
00111101111011111111011110000010
00111100100110111000100110101111
00111110001010101011011001011111
10111101011010110100000110011110
00111101110110011000110011001101
10111011010010001101011011111010
00111100011100011000000101000010
00111001000101100011011010010001
10111101100110010001111011001001
10111101110001010110010101111011
00111110000001011101111111100100
00111100100000011010110000111000
10111101100010000111100001011010
10111110010111010110100110110110
00111110000111111001001001101110
10111101111011010110010110111100
00111110001101001111011000110001
00111110001100000011011100101111
10111101011110001000000001110001
