00111101101010101010011011010101
10111101111101111101101100000010
10111101110001000111011110100111
10111101101000110110110011000011
10111100000101001110101011110011
00111110000011100001111011010110
10111101000110010000000001010001
10111100000011000110111100110110
00111101110000110110101011111100
10111110000101000111001010101110
10111101011011111000100101000011
00111110000010001001110101100111
00111101111000010111001101100110
10111110000010011001101100001000
00111110000110111111000011111010
10111101100011001101101001000110
00111101010011000001011011011010
00111101010011101100000111100010
10111101101100010111010110010100
00111101001110110010111000100101
10111101000001110011011010000011
10111101111010100101110011011111
10111110001001110101100110101010
10111101110001010011001001001111
10111101110001010011010101110110
00111101100011001101110001100000
00111101100111100011111001101111
00111101000011011111011011111011
10111101010110110110001011111011
10111101101110101110000001110010
00111110001001110001101010010010
00111101110110000101000000110100
00111101111001010001111111010001
10111101001110011110001100001011
00111110001100110001101010011101
10111101101111010101000011110000
10111100110011010001011001100001
00111100100101001110001100100011
00111100010100100101010100100110
00111101111010110111010111010010
10111011011110001110010010101111
00111110001010001000110110011110
00111110001000110011001111010010
10111101001100011101000010001011
00111110000110110110100110100010
10111011101100011001100011100011
00111100110000100100010110011001
10111101110111011001101110010010
00111110000111011011100101001110
10111101001011100110010000111110
00111101101001010101101001100000
00111101100100100010001101111001
00111101110101101110110010001010
10111101100010001000001110011000
10111101110110000011010000111101
10111110000000010000011011100110
00111101100101111111100110000110
00111100100011010001110001101000
10111100111100010101011000100000
00111101111010011011001101110011
10111101101101101110111011100010
00111101010000010111100010101101
10111101110011000100101100000001
00111101101010011100100101010001
10111101101101101001011001001101
00111110000001100111100001111100
10111101111010101001101100111010
00111110001000010100110100001011
00111101111000011100110110001000
00111101011100001110111011010001
00111110000111000110011110000011
00111101100101000110000101110001
10111101111011010100110100100001
00111101111100000010010000110010
10111110001010001011001100000110
10111110001001110001101000011101
00111110000101100010011001100011
00111110001011011100101110101100
10111100000000111000000111100000
00111100011001011111010011011110
00111110001011011000000111011011
00111110000100010010010011100100
00111101010110100111100011001011
10111110000111100101110010111000
10111100110100100101001110111111
00111110000000000100000010001010
10111100011111000010101011100000
10111100110110000100011101011010
00111100111001010110001010111111
00111101100101011011110100010101
00111110000000000110010100001100
00111100110000111111000011001001
10111110001000111010110111001011
00111110000001111100010111011111
10111101000010101001110110001011
10111110001000100000011110100100
10111110001001010101100000001011
00111110000100111111111001000001
10111101101000001011101101000011
10111010110111100011101110010010
00111101111110010001110011110001
00111101010100111111001100101001
00111101110000011001010110111001
10111011000001100001001011001010
10111101110010011100000101000111
10111101101110000111001000101011
10111101101010000011001001100111
00111100000110111011111001111101
10111110000000011011001010101010
10111110000000010100010101010011
00111101110010010000010001111000
00111101011011011111111000110100
10111101010011001001001001001100
10111100100010001110000000100111
00111110000011000001001111111101
00111101000011000001000000101001
10111101111111001010111001110100
10111110001111100000001001101010
00111101111110001010011110011001
00110110110001010001000101110010
