00111101100110001011111000101110
10111100111000011001111100000000
00111110001000000111010111011011
10111101000100100111011010101011
00111101101000001000111011100000
10111101110010010000000000110000
00111101011100111001111111010111
00111011100000110010101101001100
00111110000110100010101101011101
10111110001011100101000000000100
10111110001001000100010011001010
00111100101101010101100011101110
10111101111111111001111011111111
00111101001110100000010111010001
10111101110000001010000001000010
00111101011110110000101101001000
00111101101111011000111011100101
00111010111001000110011011110000
10111110001100000100111111111001
00111101100100000010011011110110
00111110000111111010101101100010
00111101111010010101101110111011
10111110000001011000110111111011
00111110000100111101010011101000
00111100101111000000110101111100
10111110000000010000001101101100
00111110001000110011110001000110
00111101110001011011010001010011
00111110000000111011100111100011
00111101110111011001011001011100
00111110001010011110000111110111
00111101100110101001111101010101
10111110010011110110000111101101
10111101101110110100010001111100
00111101001111010000100111110111
10111101111010110111110100111001
00111110001011111111001100110001
00111110000010010110011110110100
00111110000010001111111010100000
00111110000100001100101111010010
10111110000001110111011001111001
00111101011000110100110100100101
00111100100010011001001101101001
00111101000010010111011100001011
00111011101011100100010111111100
10111110000010000000100010011101
10111101110001001011111101010001
10111110001100111001001010010101
10111101111101100010111010111110
10111101110110010001010001100101
10111101110011110010001100111001
10111110000011010010000101000010
00111011100101000001110110011001
10111101101110001111011110110110
00111101110011110100000101100010
10111101101011110100111100011100
00111101100100001000010010110011
10111101110100001001001011101101
00111110001011100101100100101011
10111101100111101100101011100011
10111101111101111110101100010010
00111101110000110110010011000111
00111110000111100101011000000000
00111110001001101101011001010101
00111101101010000110101110011110
00111101110111001011110101010111
00111101100000110000010101111100
00111011110001010101011001010111
10111101111011110101100100110010
10111010010101011010110001000001
00111101101010100111000100100010
10111101010110001101100110100011
10111100100010011101111000101101
00111110000011100101100001111111
00111101111011001000100101001001
10111101111110011101010100000010
10111100101101001101101100111011
00111110000011010010110011011010
10111110001011010010000110001110
10111101100101001110001011101110
00111110001000100111101110110000
10111110000100110011000111010101
10111101101010000000011111110000
10111101100010010100101000011100
00111110001010110100111010000101
00111011001010101101011011001101
00111100111011000101110111010001
10111101111001100101110001011101
10111110000101011111010110111111
00111110000001101101111011010011
00111101100000000011011001110100
00111101111110011101010000111011
00111110000110101110100100010010
00111101111101111111010111110011
10111110000010100101010010111101
00111101100011110011101001000110
00111101111011011001001001000110
10111110000101100011100100010110
10111101110001000011101001010010
00111100110100000111100000111110
10111101000100000111011001101100
10111100110101101001011100100100
10111101111100000111100001000011
10111100101001100001001010000110
10111101101110110010001010111001
10111101011110101011100001100101
00111101001010101100110111011101
00111110001001010100101011110100
00111101101100100111011110111111
00111101100011110011101011111111
00111110000100011010111000101111
00111101011010010101010001000111
10111101000111011011111101100111
00111101111000111111001001100110
00111101000000011010111001001101
10111100011010001001011100010000
00111110001010011100001010110110
10111100000100001111011011110101
10111101110100100000001001101010
00111101100011110101111011100000
