00111101100011101001000101000011
00111110100010101111011011001011
00111110001011111001110001000011
00111101010001101100001001001100
10111101000111111111100000000001
00111101110100011110001101011101
10111101001101101001101100000100
00111110001010100010110010000000
00111110000000101111010010010011
00111110001000000100000110001010
10111101101000010010100110100010
10111110010100001111110010001111
00111110000000110010111111111100
00111101101000101011100100111001
00111110011101010111111111010100
00111110100001000001000110011000
10111110101100110001101010110011
00111101110010100111000000111000
00111110100100000010110110000000
10111101101011111101000100110011
10111110101000100011110011101100
10111101110001000011000110101111
00111110010001000000011110010111
10111101011101001000110100101000
00111110000100001011010001101000
00111110100011011100111001101111
00111110010101000010010101111101
00111101111111001000111011011011
10111110100001000100100100011111
00111110010011000111011001111001
10111100100111010000001001001010
10111110010111111100101001111011
10111110011101111001001011001110
10111101010010001001001000010000
10111110100110001111011011011010
10111101100110001101110001011111
00111101101011011101001010001010
10111110011101000000100001101011
10111101101101000001100011000010
00111101110111010111111010100011
00111101110111100011110100100011
00111110100100010100000001010010
00111110010010101100011000100010
10111110000000100011001111011011
10111110010110110000101100010111
00111101101101100101110001011000
10111011110110001001110011111011
00111101110101011000110000001001
00111101101010110011011100101000
10111110100000110011101010100101
00111101110100101000100100111101
10111110001100110010111000000110
10111110000011000011100111101011
00111110011101001001010110011100
00111110001001010001101000111000
10111101101001001001110111000110
10111101101111001100000110110100
00111101000100101110000010101011
10111110101001001011101100011011
10111110011000001111000100111100
00111110010111110101101110001101
00111110011000101011110000111100
00111110000110011010001110011001
10111110011010000011000111000100
10111101110101100011101110110000
10111110010010111110111010111101
10111101101001111001101001001100
10111101000111001100010110001011
00111110011110011111100011011110
10111110011110111000110110101001
10111110010110011100110111010110
00111101111100010101010101000110
10111110100001011001111110000001
10111101011001010110010010010100
00111101111000000001100101111011
10111101100100101001101000111100
00111100100010111000110101110010
00111110000011100110001101101011
00111011100100101001010110000110
10111101111011101001100100001111
00111110000110011001110011000111
10111101110111100110110111011010
00111110001110110110011000001001
10111110101110110010101001110100
