00111100111010100011001110011101
00111101100111110010101111011100
00111101010111110110101111010100
00111101010111001001010000111010
00111101001101111110010111111111
10111101101110100010010010001001
10111101001000000100100100101110
00111101101100011101110110001110
10111110001100010000100011011101
00111101010101101101011100110011
10111101100000011100010010000001
10111011001110111011000011001101
10111011100100011010011011111011
00111110000011110110110010000100
10111100111101101000110111101001
00111110000111100101101110000011
00111110001001010001110101100111
10111101100111001011001110101110
10111101010101001011111001010101
00111101011110010110000011110101
10111110000001010110101111111001
00111101100100011111100000111110
00111011011011010011101111011100
00111100101111001111001001011101
00111101010111101101111111011001
00111101010000101011111010010001
00111101100011100010011011000100
10111110001010001000101010110000
10111100101110101101110110001011
00111101000100100011100111000001
10111110000010011010000000001100
10111110000110101010011000100101
10111101001110000011011100000010
00111101111001100000111110111110
00111101001100000001000010011000
10111110000011110101100100111000
10111101111001111111101101011111
00111101111011111010110110000001
10111100010111001011011111000010
10111100001011100110001001011111
00111101100000000010001001010101
00111110001011011100110101111100
00111110001111010110000011111111
10111101101110101110011111010100
00111101101010110001100011111110
10111101000100111011100001000111
00111101011100111011001100011011
10111110000001001100000100111000
10111101111100000011000110010101
00111110001000101001100110100000
10111101100001100110111110100010
10111100110111100001001000011001
00111110000110111101101110110111
10111101110011100010100101011100
00111011100110011110011010011001
10111110000100001111111001010010
00111101100001011000011110011001
00111101001111010101100001011001
10111101101110111111111101111011
00111101010101001010000101100111
00111110000000000010110100000100
00111110001000111101011111000010
00111110000001000000001110101001
00111101011000110010111011010110
10111101011111101101100000011001
10111110001000111100010111100100
00111110000100000101110001101110
10111101100101101101001000011110
00111101110100101000000011000001
00111101110000011001011010010110
00111110001000110000010100111010
00111110000101101100000000111010
10111101000100000100100000010100
10111101110010011111001101010001
00111101000000000110000100011000
00111101111101011111001101101011
10111101110000101010101011101010
10111110000111100000111100010011
10111101000001011010001000000100
10111110000101110111000101000010
00111110001110011110100011011010
10111101101001110101111100001110
10111110000011101010001010000100
00111011010100010101101110011111
10111110000111001111001110100100
00111011110110000001110011110110
10111110000100101110100111010110
00111101111101100000111001011001
00111101101101101110010100011001
10111101000110100101011001010110
10111101100011101101011110111100
00111110000101000100110000101011
10111101011100000100000101111110
00111101111010100101100001001110
10111110000111110000001101101110
00111110000011100001101100110101
10111110000110110101000111101010
00111101101000000011110010011000
10111101101000010001101011011101
00111101111101000010011001100010
10111101101110010111000001001011
00111101011001011100011010010000
00111101110110011011111000110110
10111101111001100011000110110110
00111101111111110001001111100000
10111011101010110110000100000110
00111101111101100001001000101000
00111101110011111010101010110001
00111101000111110001101010111100
00111101101000101101000011000111
10111101100010010001110101110101
10111101100101100100001110110001
00111101111111101101111001101011
00111101111111010001101010001001
10111101011101101010100111111100
10111101100101101110001100000101
10111101011000111101011000001110
00111010010001111010011110111001
00111101101011100011101011001110
00111101000100101101001110001011
