00111101001100000001010110110011
00111101101101110001011101110011
10111110000111100110010100000010
00111101100110011011011001000110
00111101110001011001010110011011
10111100111001101111010001111011
10111110001000101100110101000000
10111101111110111010010111001000
10111101101011110111010001010000
00111101101001000001011000001011
10111110000000110011101000000101
00111110000111111100110111101010
00111110000111100111000011111001
10111101101110010101000110110100
10111101011010001111011011000110
10111110000000000110110111001011
00111101010100001101000111111011
10111100100010010001000011010001
00111101010111011000100111110001
10111110001011011001111110110010
00111101110010000011101101100100
10111101111011001100000001101100
00111101001101010000001010010111
00111101101111001110100100011000
10111101110000101110011110100011
10111100001100010010100001111001
10111110000000100101101100101011
10111101010000101011001110000001
00111110000000001011111100110111
00111100111100100011100011110110
00111101010101000101100100111100
10111101110111001111000110110111
00111101000000110100110001110101
10111100111001010000111110111001
10111101100100011111010101000011
00111101010000010101111000000100
00111101000010101100101011010011
00111101110011100100110000100101
00111101101011001010100000100100
00111110001000010110010010100011
10111110001011001101000000110011
00111101001101011011000001000101
10111110000111000111000100011100
00111110000110101011101001111001
10111100110101100011001111101000
10111101000001111111000000111111
00111101001101110001110100111011
10111100010001100001101001110001
10111101101101011011011001001001
00111100100011100001001001101111
10111110000011100110011010110100
10111101111100010010001101110011
10111110000110111100110110000011
00111100001101100000100111010110
10111101000001101000001011001001
10111101001010011101011101100111
10111101111010010010000111010110
00111110000010010011100101000011
10111101101001011000011010000001
10111101000101101100110000100100
00111100111101111101100001011011
00111110000001101001111111100100
00111101101110101000001111110001
00111011011010100100000111001001
00111101001001110111001010001000
00111100111010010010100111111111
10111110000101010100100110001011
00111101011110010110101101100000
10111101111011011011101101111010
10111100001110011111101001110000
00111110001010111011011111001011
10111101110100101111011110010100
10111011110010000110110101000000
10111101110010101111100000011011
00111101111101110001011011001101
10111101111110000101011101111101
00111101010001000111000100111110
00111101101001000100111100100111
10111101010100100111111010110001
00111101110101011010000001000011
00111101110010000101110011101110
10111101010110111100000101011101
00111101010111011100100110000111
00111101010011101111011001010011
00111101100010111011000001101010
00111110000001101101110000110111
10111110001000000010011001001100
00111100011111001001111110000111
00111101100011111111111111010001
00111101010000011110110000011111
00111100011001011001110011001110
10111101111110001100110110110110
10111100110010010001111010011100
10111101000100011000011001101010
00111100111110111110111110010001
00111101101000110110011000010000
00111110001011011100011100001011
00111101010111101011111100100110
10111110000011100001000101001000
00111101111000000001001110110011
00111110000110111100011001001000
00111101111010000110110101110110
10111100110001100010001000011110
00111101001001001100101111110001
00111101010001101011111111111000
00111100011111101011010010010111
00111101011001111100101101100011
10111110000010100001111001100000
00111100101001111110001111111111
10111100111001110100110110000010
10111101100110111010101101111111
10111101101111101000100100010011
00111101110110111001011110011011
10111101110110001100010010010100
10111101011010101010111111011010
10111101000000011101011101100101
00111110000000101111110010000011
00111101000011101001011011101110
00111100100100101110111010000010
00111100101011010000111110111001
