10111100001100010100100110000101
00111101011101110111100111101011
10111011111110101011110001100010
00111100001100101100101111110100
10111011111110000000011000100101
00111101000101000010110110011011
10111011100001110001011100110110
00111001010001010110001000010100
00111100010100000001000000011101
10111100010010000100100011001101
00111011010010101001000010011000
00111101000011000000110111101101
10111010101100101010101111000111
10111011101110101001001110000111
00111011111100010000111010101001
10111100010011010100110110110100
00111100000100100001100011011100
10111100010111000001110100110010
00111011110010001110111011011101
10111001110100111011111001110111
00111101011110010011000010111001
00111101000011110010001001010100
00111100101001100011000110011010
10111011100011000110011011100100
10111100100001111001101100101110
00111100110101001010100111011111
00111101000000110001110000111000
00111001011101000110111001110101
10111101010100001010111000011111
10111010110110001101001111000101
00111100100001011100110000000110
00111100110010011100001110011001
10111100110101011110100101110010
00111101000000100011010011110011
00111011011000101001101010111100
10111100001100101101000011101111
00111101000110110000010100011111
10111100010110110001100101110111
00111100110111100100011100100110
00111101010100001101110101100001
10111100110010101001111000111101
00111011001101101011110000010001
10111100110011100110111100011010
00111101100001110111001001011000
00111001110100000011111010110110
00111100110111001111010110001100
10111011110010101101010111111101
00111011000001101010111010001110
10111100011011000001111011011110
00111011110010001110010110000001
00111101000111110001100010111000
10111100010101100110101110001001
00111010100010100100001010101001
00111100111011101011010000110101
00111101011100100100100110010001
00111011100100000000011101111100
00111011110110000100111000110001
00111100000111101011101110100011
10111100000010100011001010110010
00111100111000111111101110100000
00111101000010000001100011111001
00111101100011000010110000001101
00111000010101010001100010100101
10111011110011010111101110111101
10111011001011100001011011011011
00111101001011010101001101110100
10111100100111010100010000000100
00111011001011000011011000000000
00111101001101010100110111011100
00111011111110100110100000110011
10111010110111011011111100110010
10111100101101101010101000001101
00111100100001011101101101010100
00111101000011000101000101011010
00111100000010000010100010001101
00111100101011111110101100101100
10111011101101101110001101111011
00111011100010110011110111000111
00111100011001101110011010011010
10111011000101010001010011001100
00111101000011100101101111011000
10111001011000101101001100110101
00111100001101001010100100011101
00111101000010101110001011000010
