00111100100100010010010110100001
10111010100110010010000101100111
10111110001000101000110100111001
00111110000001010011000100001100
10111100110110110001111101100100
10111101101001011001111000011010
10111101100011100000011011111001
00111101010010110101001111001000
10111101000001000001111011110001
10111110001010100100011110111001
00111101111111110011001101000010
10111101100000110101110111010101
10111101110100010111010011000100
10111101101011000000011000100110
10111101110101010011111100011110
00111110000000100010101110101010
00111101001000011101100101000111
10111110000010010001011100000100
00111110000000111100001000010011
00111101101110011111000010111111
10111110000011110110001111000111
00111110001011011101111100111101
00111101100010100001001010110101
00111101001110110110111010001011
10111101010101100110011000010110
00111110001010100010010010111100
10111101111101111001100000111011
00111101101010000110111011111111
10111110000101010101000011000100
10111100110111000110101110110010
00111110000011110010000110100001
00111101000110101010100111101101
00111110000111001100111001000011
10111110001000001011110110101101
10111101111001010011000100000001
00111101110101101100000101100011
10111101011010110010100010100110
00111101000001010101000100011101
00111110001010110000010111000011
00111101001101001000100010101100
00111101110101011100000110101000
10111101101110110001111111000110
00111101001111101101101010001001
00111101110111001010011101011010
00111110000100010011111110010101
00111110001100001111001000001100
00111100111101110110011101101100
00111101010110110001000000000011
00111101001010011011110110101100
10111110000101000110001100010011
00111101110010111010111011010100
10111101101100010011011111000001
10111110000110111101101110100001
00111110000111101111011011000001
10111100011100111111000100100010
10111101110111011111011111010101
00111100110001000001011111000110
00111101010000000001001000001000
00111110000110111101111001010001
00111110000100011100101100010001
00111101001110111010010100000100
10111110000101101111101001000100
00111100110001000101101111001000
00111110000111101010100010110001
00111101010101011110011100111010
10111100100001001011001110001101
00111110001010100101101011001011
00111101000110100001001110011100
00111110001100111101111111110011
00111110000010000100101110110110
00111110000110011100111001110001
00111110000000010111001110001111
10111100001101101000101001110000
00111100110011100010100000000010
00111011101001100001011101010001
00111110000100101010100101101101
00111101100010011000010110010110
10111101010100000000100001010001
10111100100100110000011111000010
00111100000110111010000001111100
00111100111011001001100101101001
10111110000011000011001001011110
10111110000110000110111001011001
10111011000101001101100011000101
00111101000101011010000000001010
00111110001100111011101001111011
00111110000111100111101110110011
10111101100101100001110011011110
00111101110011100010110101010101
00111110010010101001110110000101
10111100001101011111101001111011
10111101101010100110001110010011
00111110001100010010110000111100
10111101100001101100010010011000
10111101110101111101000110100000
00111101000001000101101110000001
10111101111011000110011111011101
00111011001000111110011111010110
10111101011001001010001010001101
00111011101001011000011011010001
10111101101111000010111001110101
00111101011000011101110111101000
00111110000000001010111000001001
00111101100111100000001110010011
00111100111110010001010000110101
00111101111011100011100011011110
00111110000111000100100111110010
10111101010100000100011010111101
10111110001100111100001111110111
00111101001000001111011111111010
10111101011010000011011110101111
10111100010111101010101001111100
10111101110111110100110010011110
00111101101101110010101000100111
10111101101010101010101110010000
00111011100111100001100111000101
10111101101110111010111011010110
10111101111110100101100011001110
10111101110101110010001010100000
00111101011000111100110110100100
