00111101011010111111010111010001
00111100110110011000101111111000
10111110000010100110111011000010
00111101111011001101000001001110
00111101100111111100101011000100
00111101001010100110001110011110
00111110001000000100110111110101
00111110001000100111000110011101
00111101100001100110100101001010
10111110001011101011011010011001
00111101110111111110110000010100
10111100111101101010101011001111
10111101101011111001010110010101
10111110000111000000101110010001
00111101111101111001101011010101
00111100101010110000111101101110
00111100101100100100110110011011
10111101011011000101110101000000
00111101110000010101101101111100
10111100100110101101101000001111
00111110001110101111100110011010
00111100111011011100000000001000
00111100001100110001011000110111
10111101101001001011010100010000
10111100100010011100101011101111
10111110001011111111010011110010
10111101010100001000010110111101
00111101110011111001010110111101
00111101001000000001101100100100
10111101100000110010100001100100
10111100101110111110100010010100
10111101000100111111111000010010
10111100010001101011111100110010
10111110000111000010100010000101
00111101101101110110011110111000
10111110001001100101100111110010
10111101110001101110001110100101
10111100111001111001110011110110
10111101101010110011110111010111
10111101010100011100001001010101
00111101110111001010101111010000
00111101110100110001100011100000
10111101111110100011101000100000
10111110000010100001101110100111
00111110010011011100111001011001
10111101101100110000111110011000
00111101100000011101101001101010
10111110001110001010001010010010
10111101111000010010000010001111
00111101000101010110001010000010
00111101110011000100010010100110
10111110001100010101011111111111
10111110001100001011110111111101
10111101111001011010011010010000
10111101001010001101010100001100
10111101111011000101101110111100
00111101010001010111011000100100
00111101110110001010100101001101
00111100000111101101111011001111
10111110001110000000011011101101
00111100111101001011000010100010
00111110000100001101110011110100
00111011100100001010001110000111
00111011110110010111010111110010
10111100110101111001000000011100
00111101100110100101011101111101
10111101111110000010000101001110
00111101111110010110111010110011
10111101101000111001010101011110
00111101111100000100011101000000
10111100010011010100001101110110
10111110000111011111000000111100
00111101000111001011011010111100
00111110000001000011111000110001
10111101001010000011111010110011
10111110001100100110011010000000
00111110001010010001000110011011
00111110001001111001011000111000
10111101110001110100011111001110
00111110001001101000001100010001
10111101111110111010010101111111
00111011101011111011101111111100
00111101111100111111110001101001
00111101100010100010010010010101
10111110000001000011101111111010
00111110000101110110110110111011
00111110000001110100100100010011
10111110000011001010011110110110
10111101101110111001111100111001
10111101101010010011010101011011
00111101110011110001101000110100
00111100010110111110111110001100
00111101111111110010001001100101
00111101111110111100011010010111
00111110000010001100011010111001
10111110000011010000000010000011
10111101110001011100111001001110
10111110000100111010000001111101
10111110000101101001001100100111
10111101111101100000111010100100
00111101100101010101001101010100
00111101101001110100111111001010
00111101000111000010010001001001
00111101100111101011111010000000
00111101100100000111010111111101
00111101000011111110011011010111
00111110001100010101000110011010
10111101000001101010011100110010
10111101111111011011101110111100
10111110000101011101110011011110
10111101110101101101100100110001
00111100100001011001011100010000
10111110000110100101100100010010
00111101100110110001011111001000
10111110000100100001110111000100
10111110000011010010001101111010
10111101000011000010110100010101
10111110001011101001110101101010
10111100101110010000110011010010
10111101110001000100111001001001
