00111101110111011111001011100010
10111110000000011011001100110010
00111110000101000110110100111101
10111101010000011010101110010000
10111101001111000101011100001011
00111110000100110111101110001100
00111101110001101010000001101000
10111110000011011110011101010101
00111100110100101000010101111101
10111110000111001101010011101110
00111100011110011110001111110110
10111101101001000100111101010011
00111101100001110010000110110000
00111110000101010111001011110010
10111110000100110100011100100010
00111110000110011001010001001100
10111101101000010001001111010011
00111100000101010100100100100001
10111101001110111010000111100110
00111101100001000100101101010111
00111100001110011000111101010100
10111101100100100100100100010010
10111101110110000001110011000000
00111101100011000010011011100100
10111110001001011001100110110100
10111100110101000111101101001110
00111101110110110111010000100100
00111110000111110111001010000101
10111110000110011101111100100010
00111010000100001011000001001111
00111110001001111101110011000011
00111101110100001111101101111101
00111110000001111110101011110011
10111101111111110110010101000100
10111101001101110000011011111011
00111100101101011110001111001000
00111110000001011001101101100100
00111101101000010111101101010100
10111110001001100011111101001100
00111101110110010001010111010011
00111101111001100001100101100011
10111110000000100010000011001110
00111101100000000000100111001110
10111101101100000001111000000001
10111100111100000100101111110000
10111101110011101001010010000000
00111101100111101100111011110110
00111101111010010111010011101101
00111101111011101011011100111100
00111101110111100000111101001110
00111101111110110111010001110101
00111110001011100011001011101100
10111110000001111011010100011101
00111101010000110100111110101100
10111101100111010001011000000001
10111011011101101101001111001000
10111101001001000101111101010100
00111110000011001110111010001000
00111101100001011111111100001100
10111101101010000001010101110111
00111101111100010000001000101100
00111101000111011101011100110111
10111100011100011011111100101010
00111110000111010010100110101011
10111110000110011000001111111111
00111101100011110111100111010001
00111100110000011111001010111111
10111101000001010001100111000110
10111101101011010111110100110111
10111011111001000011100011110010
00111101010011001111010100010001
10111101001010111011101100001110
10111101111011100000000110010110
00111110000111010100111110100000
10111110000111111110010000110110
00111100101011110000001011110100
10111101111011000000010100111101
00111110000010000000110001010110
00111101110101001111001111000100
00111101111100111110011000111101
10111101000101101100111011011001
00111100001010100001110100100111
00111101110111111010101101010101
00111110000011100100101000000110
10111100001011101100011101010110
00111110001001001001010100001000
00111101001000101100000101101110
10111110001110101100110000100000
10111101110000111111010111001000
10111101000110000000001100010110
10111101111011001011101110000001
10111100000000011011010001000010
00111110001111101011010101010100
10111101110011010111100100001110
00111101111011100100011111100000
10111110001001100010001111101110
00111110001010000101101011100011
10111100010101110000011111100011
00111101100100111001000000110011
10111110000000010110101011100111
10111101111101010000101011010101
00111110001010110111111110010101
10111101101010001110000110101111
10111101101001100100110011110111
00111011110000000011100100010100
00111101101100110111100001011010
00111110000010111001001010000011
00111101000110000101100010101000
10111110000010110101110000010100
00111110000001110110110101010110
00111110000010010100110110110100
00111110010110100010111101101000
00111110001100011111010011101001
10111110000111010011111011111100
10111101110110001011011101010111
00111110000111110001011011101110
00111101100010100111110010001111
00111101010111001001111111001000
00111100011100111000100010110000
00111101011010100011100010110000
