10111100110011110000111001010010
10111110001100011011001001011011
10111101011000000111000010000001
00111101100010000000010101011101
00111110001000111011110101100111
10111110001010011111100011101010
10111101000010011101101100111000
00111101110100010000001111111101
10111101101100000100111110100101
10111110000110001000111110100001
10111100111011010111011011011010
10111110000110111101000110010000
10111101111110001010111101011011
10111100100000010110000010001011
00111110001100101100010110110100
10111101100100001101010110110110
10111101100001111100111110011000
10111101111000100111000001000011
10111110000110100001010001101111
00111101000010011010100101111111
10111100000000101101101000100010
10111101010100110111000100010000
10111101110001011101101001110011
00111011001001010010111111010110
10111110001000001011011000110011
00111101110011110000110111101100
10111101110001101010100010000000
10111100101000000110100100111110
00111101001000101100111101011101
10111110010000100100011001010001
10111101001001110101110111000000
00111101100010000000100110100010
10111100100101101010000110101010
10111110001010100001011110110001
00111101101100001001001000010011
00111110001000010110111011101101
10111110000001010011011110111001
10111101101101101110100000010111
00111101001001110110011010011011
00111100111000110000001000110010
10111110000011010010100111000010
00111101001001110110001010001011
00111110000000011110100010011101
00111101101001111100001000100010
00111110000010100110101000101011
10111101110010100001110100001101
10111110001001101100100100100001
10111110000100101011100110100000
00111101111010010001011011010101
10111110000111001000111000100101
00111101010000001000101110001111
00111110000001001010100111010011
00111101101111101000110101111101
00111011100100001010101110110011
00111101010000010001100101001001
00111100100101000010100110110011
00111101011001101000010100110101
10111101110100010110000010100101
00111101110100010110010111010010
00111101001001000110010101101001
00111101100010010001101011101011
10111100110010100001100110111101
00111101110000101100011101100000
00111101001100000110000001000110
00111101101101111111110011001101
10111110000011000111001111110100
10111101011111011110011100000010
10111101101000111011010101100110
00111101000011010100011010100111
00111101011110111101000001000100
00111110000000100000101000111101
00111101000000111110101011000100
10111101100101010010000111101100
00111100011101011111010001010101
10111011110101101001111010010111
00111110000011111100010011101000
10111101101011110110101111101100
00111101110001000000111001010001
10111101111011000011101010011111
10111110000000011011111001100111
10111110001010001100101010101111
10111110001101100110001111010010
10111101101110100001101101100000
00111100101110100100010100100100
00111110000111100111000001110111
00111101111001000010111111000110
00111101110101100100001011010011
10111101111011010100100101000001
00111101110101110110000010010010
10111110001100000001000011000010
10111110000110110000101011100111
00111110001110101100101100111010
00111110001100000000001100111000
10111101101101101101001010100001
10111101110111110101011101010000
10111110000101110111011010000110
00111100001100111110100100010101
10111110001110100010111000000101
10111101100100111111111001000010
00111110000000000011011101001110
00111101101101101101001000001110
00111110001010011000100001101011
10111101111000001000100110101011
00111101111000111101010101001000
00111110000000001111001011000011
10111101100110001111101010111010
00111110000000010100011010110111
10111100000100011111100110011001
00111110001011111101000010011110
00111110001011110011011110110110
00111101011101010010101011010010
00111110000010110001101000011111
00111110000001010011110100111111
00111110001011011011100101010110
10111110000101001000111011111101
00111101101100010011001000110101
00111100100100110001010110010110
00111101110010011101101010000101
10111101100010100111110110111000
00111101001110101011101000010011
