00111100100100101101001000101010
00111101101101110011101110110000
10111110001111100100111111011111
00111101000100111110101110001011
00111101011011110000110111001011
10111110000101111011001101101011
10111110000000000000010111011001
00111110000111000100000000000101
00111110000001001101011101000111
10111100101100000001111111110001
10111100000010100010110011110110
10111101110001101011110100011100
00111101110001111100000010010001
00111101110010100000011100001011
10111101100100100000001111000001
10111101100100010001011001000010
00111101010001010111100101111101
00111101010100011101011000111010
10111011000010000100110111111001
00111110000111100010001111011010
10111100101001000001101111101101
10111011001101110010110011111001
00111101001101110110010000011010
10111100001101110111101110101110
10111101001101011111010111101011
10111101001011000100000101110111
00111110000010011010000100010010
00111110001010001110011100100000
00111100110100001100101001101001
00111101111000110001010100110101
00111101100000111100111011101100
10111011011010110001110001101111
00111100110110110001110100011111
10111101110000010011110111110101
10111110000001011101111100000111
10111100100010101001101101100110
00111110000101010001111110001000
00111101111001110001101101110011
00111101101100110111000111101011
00111110010110001001110001001100
10111101111010101001010010100000
00111101101110010100000001110000
10111101110101001110010101000110
00111101101110000010010100010001
00111110000110111010001111110001
00111101011001111110010001111000
10111110000101101100111000100011
10111110001001011011001101011101
00111011000010101011111010101110
00111101100011001001101100010001
10111100111000111101010001100000
10111101100010001110010000011111
00111101010000111110110101011001
10111100010011000000011101100100
00111101111100011111011011110010
00111101100011000010011001100000
00111100110110010110110000001101
00111101001110001010100111101100
10111101111001111001100110011001
00111110000101010011010010100010
10111101101110100110001010001011
10111101101111001111101010000101
00111101111010110000110110111111
10111101110100001011111010011100
00111101100011110000011011111011
00111110000110110010000101111011
00111101111100100001101011111000
10111110000001111111011010001011
10111101100010010100100100001111
00111110001011110100001010110100
00111101100100000111110000101010
00111101010000010100000001110000
10111101101101100010011100000110
10111110001000010010111110111001
00111101111011000111101001001100
10111110001001100111101111110100
10111100001100111000101010101000
10111011001111010000110110000110
10111101011101101111000001001010
00111101101100101110010000101100
00111101110111001001001000000010
00111101110111010100111011010010
10111110000101010001100010000000
00111100010010110011110101010011
00111101101000101000000011001010
10111101110101101100011110001011
10111110000110010101011111011010
10111101101111100100000001110111
10111110001011011000100010000110
10111110000100011000110101011101
00111100010000000001110110100110
10111101111010110111001000110100
10111101111001001111010100001101
00111100000010011101011101001000
00111101000111100111010111000101
00111101101100101011111010001011
00111100001101110010001100000010
10111101111100011000000001100001
10111101101111000001111000010101
00111110000111111010110010101000
10111110001001101000100011000100
00111101001010000000001010110011
10111100011100010001100010111000
00111100100111100110100011010011
00111101100000100101001011000101
10111110000111001001010101000111
00111110000101100010001011100010
00111100111010010011011110011000
10111110000100111000110011111110
10111011000000111101000110100011
00111110001011100010110011011011
10111100001011100101001110100110
00111101010011011010110010011011
00111110001101011010010111110001
10111101111100011111101101000011
00111110000000101001101010010110
00111110000101011011010001011110
00111101111000011110001111100111
00111101111001111010111101000010
10111101111111111111101011011000
