00111101110011111110011100011110
10111101111011111111000011111110
00111101101011000100000010011000
00111101111011000111100101111111
10111110000110000001101001001101
00111110001011110011010000111011
00111011111110011000100001101000
00111101100001100110100000011100
10111110000001011010110100010001
00111110000010010101111101000000
00111101011101011001100111101111
10111101111110110110000010011101
00111101110000011000110010001101
10111101110010110001011000011001
00111110010000101111100111011110
10111101000011011111011100001100
00111100010011101001010101111001
10111100010101101110010010001010
00111101100011010100001000100100
00111101100010110000010101110111
10111110000001101011111100100010
00111101111000100000101011101011
00111100101100111001001100100001
10111101000111011110111000111111
00111110001101001100011101100011
00111010100000100000001111001110
10111110000010011100011001110110
00111101011100001000000001100110
00111101010111110101101100110111
00111100010011011000011101010110
00111100101001111000101100110000
00111101110000000111101001110101
00111101000010100111000100001000
00111101100010100111110001011010
10111101101010101100001110000100
00111110000111111100011110101100
10111100101101100011011110101000
10111101100100000101110011100000
00111110001000101111010101111001
00111100100110001011100000101010
10111110000111010110011001010000
00111011000100111111111011100100
00111101101101111010101110010010
00111101101100010111110011100101
10111100011000001000011011000000
00111110000110010011011011101110
00111110001001100100010000100000
00111100110100001100111010001010
10111110000101111001110000110001
10111100111010010011100000101000
10111101000111010101110001111101
10111110000010001101101011001100
10111101100100101001001111110000
00111101001000101001111111011111
10111101011000111011011001000100
10111101011100111110001010100010
00111101110000010100101001001110
00111110001010110111010010010101
10111011001101101001111100100011
00111101111001111010000011010111
00111101100110110000110111111011
00111100110000101000001110111001
10111110001000110111001110010010
10111110000101101010010011111111
00111100110000011100011001000111
10111101000101110101001011100001
10111101001100001011110111001010
10111110000000111000000000110001
00111101100011001111100001111011
10111101011111100001011101010000
00111101110000100111111101000000
10111101010010001000010001101001
00111101001001001110100100101000
10111100110100001100110111001010
10111101101011001011100111101101
00111101011010111100000000111110
00111101101100011001001100010100
10111101011101011101101100101101
00111110000101110010110111111111
10111101110011111101111101101100
10111100010001000111100011010010
00111101011110111010010000011100
00111101100110101111110011111111
00111101001001100101110101001000
10111110000101101101001100101010
00111100111111100001010010001111
00111101111100000111111110100011
10111100101011011011000010011001
00111110001000000100010100101110
00111101000010101001101011011001
10111101110011101000001000111011
10111101000011100100010001000110
10111101100011011111001010101000
10111110001000100001000101101111
00111011011111101001101011111011
00111100110001110011100011100000
00111110000101000110101001111011
00111110001010111000001100111101
10111110000001110111110100011001
10111100101010001010101010011100
00111100110001100001100101110110
10111101100000111000101110000101
10111101101010100101100001011100
10111101101000010110001001110100
10111101011010001010000111011000
10111101101001001111101000001000
00111011111011100010100011010101
00111101111101001010001100001111
00111101111010111101000111011001
10111110001000101100100000010001
10111100101101000100010110110010
10111101111111000111011000110110
00111101101111101000010101010111
10111100111110000000000101011110
10111110000000100011010110000110
10111110000001100101101110111010
00111110000100101010011000001100
00111101110011010110001011101010
00111101010101011101001000010101
00111101111110011011101011000000
