00111101011100011111101111111000
10111101110100111001110011111111
00111100110110010100111001001011
00111110000100010011000010010001
10111101110111010011000110101110
00111110001101000100000101100110
00111110000001101010000111010101
00111100100100111011110011010100
00111110001000100000100101110011
10111101010010110011000001001011
00111101110110101010001100101101
00111100110100011011100101111101
10111101111110011110101100101111
00111110001110010011000100110110
00111110000011100101011111110001
10111100010100011000000111111011
00111101100000110111011010100010
00111110001000001010011101001001
00111110000100101100001110010100
10111101000011001111111110011100
00111101110100010111000011011000
00111110000001111110010011010101
10111110000010101011001110010011
10111101010000001010001110100011
10111110000001010100111010100101
10111110001011110101111010001011
00111101110010110110010111100110
00111101010001011001000111111101
00111110000100111011101010101100
00111110000000000001101100010000
10111110000010101010101111100100
10111110001001011101111110111000
00111110001101010111011010001010
10111100101101010110110101101100
10111101010011110100100011001011
10111101110010001100111110011100
10111110000100000000100111100110
10111101010000111110010001101101
10111110000100100101100111011010
00111100101100011110010001111110
10111101111101011001100001111001
00111101100010010101110101010010
00111101110010011001010110100111
10111101110110000110010000011111
00111101110011001000001001001111
10111110000111000001101010011101
00111110000010011101101110000000
00111110000010000001110100010001
10111101101100111001110110100010
10111101101010111001001110110100
10111110000001101101101011110101
10111110000000001101010011100111
10111101101011101001101010010101
00111110000101010101101110001110
10111110001001101010001100001111
00111110000000000111011001110101
10111110001001010111010111110010
00111110001000011110001110010110
00111010110001001000110110111101
00111101010010001100110100111110
00111010011100000101101010101100
10111101101000011011000100110010
00111110000011111100111010110111
10111010101100101111011000100100
00111110000111111100100100000001
10111101100010100010101110101001
10111110000001010001000101101001
10111101110101100001111011000001
00111110000011010010101100010111
00111101111101101100001111101101
00111101100010111111011110110101
00111110001010101011010011001010
10111101000111100000111001100011
00111110001101001011100101000110
10111101101100111001100111000111
10111101110001011010011000000111
10111100100001011111110111001011
10111101111110101010011001111010
00111101010111001010000010011000
10111101110011111111011100100111
00111101000011010110110011011001
10111101011011111100010111000011
10111101111000011111010111001110
10111100110110011101010001000000
00111101001101101110001011100110
10111101101001010011100101000110
00111110001011110100010010100110
10111101001101100000000100001011
00111101111110000100110011111000
00111100010011001101100101101111
10111101011101100000100110000111
00111110000011101010001011110101
10111110001010101100111111010001
10111101100011110010110101001001
10111101110100011101101101011101
00111101000011110110001000101010
00111101010110101110101000010101
00111101110011010011100111100101
10111101110100010001011101000111
00111101100111000001100011011100
10111101111110111001001111111001
10111101100000000111101011001100
10111100110101110000000101101001
10111100111100000011101111011110
00111101100011000010000111011100
00111100011111000001101011001010
00111101111100110001111110011101
00111101001010010001101101111010
10111110001011111111101000010011
10111101100001111100100100010000
10111101111011111100101011111111
10111101101000010110100001000100
00111110001001010001001000001010
10111101100110111110110111101100
00111101011100010111001101010101
00111100001111010001111100010011
10111101111010111011100001100000
00111101101000100001101110110000
10111110000000011110010011111010
10111101110001111011011000111111
