10111110001001000100010110001001
10111110000111100111110000000011
10111101100111000001100110100101
10111101111011101101000110101101
00111101110001101010100110001101
00111101000010110110000111011011
10111100111011011010110000011100
10111101000110101010001000110000
10111110000001110100001000010011
10111101111011100110110110110010
10111110000101001101010000110110
10111101101100010101101010101000
00111100010100111011011111000100
00111101111010100010001111100111
00111011110100110110001010111100
10111101001000111111011010011101
10111101101001010100100010011101
10111101111010011011010000001110
00111101110101010110100111100111
10111110001001110101110001101001
00111101111101011110110001100111
10111110001010100100010011011010
00111101100110110111110000110101
10111110000001010111001110110101
10111101100101010001001011110010
00111110000001010100011100101111
00111101100001101101100011010001
00111101001101010011001101100111
10111101000111110100110000100011
10111100010110011100110100001010
10111110000100000011001100101000
00111101011101111000010001101000
00111100001011010010101010010111
00111100110100001110000100100100
10111101100110000011000000010010
10111101110110010111101110110100
10111101110110111100001001111011
00111101110110010110001000101111
10111110000000100011111110111010
00111101110011000111001011001010
10111101111111110111111010100010
00111101100010000100100110000100
10111110001000001100111010101001
00111101101110000011110101000011
10111101101100010000000111010100
00111101111011100000111010010010
10111101110000011000000100111100
00111101100111010101101011000100
00111110001000100101111110011000
00111101111101110111100010001100
10111100011101100010100000101011
10111110000010110111110100101111
00111101101001101100101110101010
00111110000001101101111011100101
10111101000111000110000011111101
00111101111001100100110100001101
10111110000000000010101000000111
10111101101101001101001110010010
10111101111000000111010010000011
10111101110100101000000101101110
00111100111110101000111010000010
00111011011011100010100100011000
00111100111110000001101011101010
00111101001111111111110000100001
10111101101101111110111110000001
10111110000011010011110001000110
10111101010110100111101010101001
00111100110100100100111001101010
10111100100001101111101100000000
10111110000111110100010011101001
10111101010001110010101101010001
10111101001000100000101010111010
00111100000110001011100001100000
10111101000101000111000001000010
10111101001001001010000011000101
10111101111011111100011010000110
10111100011010011100101110111011
00111101100100110111110010101000
00111100001101000100010100011111
10111101111001001110100001111011
10111101100010101001000101011101
10111101111100000011000010110101
10111110001011101010010011110100
00111101000111000000011011101001
10111101000010101000010011000100
10111101111111110101000011010111
00111110000011001000011110101000
00111101101011100000110001011110
10111101001010101000110010000101
00111010111010000010001110101101
00111100110000010001011111010000
00111110001001111011100111011101
00111101100001100011111010111011
10111100111001100101101001011111
10111110001011100010001000110101
10111101111011011010001011111010
00111110000000101010101100011100
10111101111001010111011100111110
00111101000010010110001001000110
10111100110100111101000000101100
10111110000100111001001111111011
00111100101110011111110010000101
00111110000011001000111100100001
10111101001111101110111100000101
00111110000000000011010000000101
00111110000100011100011000000001
00111101100001011100010100110110
00111101011100111110010010001010
10111101001110000111100011101110
10111101010010000010001010010000
00111101011110101111100011010101
00111101001000101001110010001010
10111101011011011000000011111001
00111101101001101011001101011111
00111010101011111100110100110101
00111101101000011010001001010010
10111101011010011100111110110111
00111100100100101011110101111101
10111101101110101000000110100000
00111100100101010110100111000011
