10111101101100011000100010001111
00111101111111010001000011101011
10111101100001001010000111101101
10111101010001100001110110001110
00111101001100011010011010100110
10111101101011001101110011000010
00111100010011101111001101111011
10111101000010010110101100001001
00111110010011001111000000111100
10111101011100000100111101011110
10111101111111000000110011111001
10111101001100101000011000111111
10111101100001001001011010001100
10111101111001111111010101010101
10111101110100011101001110111110
00111110001011110001010011110000
00111110000010000100010101000110
00111101111111001001001011111010
10111110001010000110010010111011
10111110001100011100000111111000
10111101001011010110010010011101
00111101101000000100101011000010
10111110001110101100010110000010
00111101010001010000000011110101
10111110001100000111110000101010
00111101011001010011111101000001
00111110001011001111101100111011
00111100111101111110111011110001
10111110000101101011000111000110
00111101101000000110001000111000
00111101000101101100011010101100
00111110001010101110110100011000
10111101101000101111001110111111
00111110010111111000100011111101
10111101000011011011010100100000
00111100100100011100100001111010
10111101110001101011010010111000
10111110001010110111011111011010
10111101111011011100100001001000
10111100111101000010000101100001
00111100100100010110111001000011
10111101111001010011011111110011
00111100111000101111110000110101
10111101011011101110001101101001
00111101111000000001101011111010
10111101101011110100010100110111
00111110010001110101100111100011
10111100010111110011001110110110
10111101000001000010001010010000
00111101000001101010011000101010
00111110001011000010000110011010
00111100110110011010111110001111
00111101100011100101000111001000
10111110000111000001101001001000
10111110000010010110100010000011
00111110010010000110010111011111
00111110000111010011011001000111
10111110000111010011000000110100
00111101100010011111011111111100
00111101111010111100001100011001
10111101110010111101101000100011
00111101101111110111000011100101
00111101000011011110100101010101
00111101110010010110110000111010
10111101100100000011010101000001
10111110010000111010110011010110
00111100011101111000111000101111
00111110000111010110011011010101
10111110001100010101010011010010
10111101011011001100111100010100
10111101011011110101010001110010
00111110010001100011110100101101
10111110001011010010111001001000
00111110001011110010111110111101
10111101010001101001011111100100
00111101100001111101111000010001
00111100110010001011110011000110
00111101101000100110011110001000
00111110000101001000001010100110
00111101100000111101011110110010
10111101100011010000010001010001
00111101010101101111011110001011
10111110001011011011010110001101
00111110001011010010001001011010
10111101011101100111000101001010
10111101000000010101011011001101
10111101101101100111110101111010
10111101000111000001001101011110
00111100001101001011010011011011
10111100111100111111101100111000
10111100111001100010001101111110
10111110000010000001000010111111
00111110000101101011100100000001
00111101110001011101010010100101
10111101010011100110001101100110
00111101011001100100101110001111
00111101101010101111010110001001
10111101111111011001010010011010
10111101110011100100000110011000
00111101100111101100010001100100
10111101110101111110110111001101
10111110000000111001101010001110
10111101001001110001101101101110
10111101101011110011100111000111
10111101110111010011011100001001
00111101101011100001110001100111
10111101100101011101000010001011
10111110001110000110011010110001
10111110000011101000101011001011
00111101001000011001101000100110
10111110000010111010010010011100
10111110010011000100001111111010
00111101100110000111110001111110
00111101100101000001111011001010
10111100110011001010001011000101
10111101100101101100011010011011
00111101111001010100110101110001
00111101110010000011011011010101
10111101011010100001101001111001
00111101100011100010010110001101
