00111101111000000111011101000110
10111101001101000100010100000011
00111110001000100010110110001001
00111100101001110011100101100110
00111101111111001101111011001110
00111110001010000010101110100111
00111110001000011011101010011110
10111110000001001011011011110000
00111101000000111111111000011001
00111101101101100000000100101110
00111101100110111110010011111110
00111110001010001000110001011010
00111101101000111010010010100101
10111110000011010110110010110110
10111101110000111001011100000001
10111101010011101001110010110100
10111101100001101110001001010000
00111100111001000101111010010111
00111101111100000010001100110111
00111110001101101111000111110011
00111101011000001111000010101001
10111101110101100111111001011100
10111101101001010000101011010110
00111110000010010001010110110001
00111101101110011001000111100100
00111110000100001001100111101010
00111101111111000100100100110011
00111101110011100010111111010001
10111101110010001010001000111000
00111110000001000101111110011000
10111100000001111101100101010000
00111101100111110110000100010010
10111101000110010111001111000000
00111101010001100100001100011100
00111101100101111101111011001101
00111101111000110100100110000001
10111100000111010111101101011110
10111101000100000101000100000110
00111110000110010011101100011111
00111110000100101100110010111000
10111110000100111001101101001110
00111110001001110100110001001010
00111101101010101000001111101111
00111101101100101100011100001010
10111101100000000111000010011100
00111101110110100111011110011010
00111110001101111001110001010110
00111101000011010010010001010010
10111010001100000011001011110110
00111101001011010100110001101000
00111110000110001101010001010100
00111101111000011000110010110011
10111101001011001000100110111001
00111101110000001101011101010100
00111101110010101110001111001001
10111110000100001110101101011110
10111101110001100100101001011010
00111101100111011100000110101100
00111101101101101101101001000000
00111011011000000011111100111000
10111101110011001001000011100011
00111101101001100101011000001000
00111101111110010111100011000101
00111101001101001100111001111011
00111101101011001000000100110100
10111101011110111111100100100011
10111101100011101100101001110001
10111101001111001001110111111101
10111100001100000101010100110111
10111101001001011000001010001000
10111100101111100101000101100000
00111101001110101000000000001000
00111101011101100111100101101100
10111101111011110101101001111010
10111101101110011110000111010100
00111101001111010001010101111010
00111110000110110110011110001100
10111100100110100110110110100000
10111110000011101111100011001010
10111101010110111111111101010000
00111101001011011100010111101100
10111101100011010010110110010100
00111101011100111000000100001100
10111110000001010000010111110100
00111101001110011011000011100100
00111110001111101111011000000000
10111101101111110001000100010000
10111101111010111110010111100010
00111101010110111101110011000100
10111101111100010110011111011011
10111100111001110101011010101000
00111101100000010100101110111110
00111101110100000110101101110011
00111101001000110101000010110000
10111101110101111111010111010110
10111110000001001101011010101110
10111101000111101111100100011101
00111101001101100111111111010001
10111110000100101101001110111010
10111101101001010010011011001000
10111101001010011010100110000110
00111101100111110100000001001110
00111100101100110011111011100111
00111110001000100101110010011101
00111110000100100111001100110011
10111011110111000110010010011001
10111110001110111011111100110001
00111101110000101110101110000101
00111101001001110010010111010110
00111110000010001101100110101110
10111110000001101100111100100100
10111110000001011001110100011101
00111101100111100011110011100111
00111110000011010110110100011100
10111110001100110010101011011000
00111101101001001100111000111010
10111101100100101000000001110011
00111101010011110100100000000111
10111100110110011011000001011000
00111100111010111101100000011101
