00111101000001101111101101000001
00111101101011000101110101000101
00111110010100001010010001000101
00111100100011101101110001001110
00111101111111100000111100010001
10111110000001001110010100101111
10111101001000110000010000010000
00111101011001000110000010001001
10111101111111100001011010000000
10111100100000100110111101100010
10111110000000010011000000110011
10111110000111101101110001111010
00111101110010011000010101010100
10111100111101100111011010110101
10111101001110101101000001001100
00111101100000011001011111111011
00111110000010000110001111010000
10111110000111101010011010111011
00111110001100101000001010000110
00111101101001000110010111111011
10111101101110110100111000101110
10111110000110010101011110100110
00111101100100000000011000110010
10111101010100000110110001111001
10111101000110100011101000110001
10111110000100100110101000101011
00111100001000010000011101100010
10111101100110101110011001010110
10111110000000010101110111001000
00111110001111100010001101000101
00111110001000001101001110110011
10111100010000010110011010000100
10111101110000100100010011011101
10111110000011010010111100000111
10111011100111001101011000001111
10111101110110010000011101101011
00111101111010011111000101100110
00111110010001101101100010100010
00111101101111011000110110101100
10111100100000101111111110101001
10111110000001001100101101001111
10111101110110010001110001010101
00111101001100100000110100100110
00111101101100011010000001111011
00111011101101011100110100000000
00111100011010000010111100100110
10111101110000010001001000111010
00111110001001100001110110011110
10111101011110000101101010100010
10111110000000011011111101110101
00111110000110100110111000001101
00111100100001110011000100001000
00111101000001011010100010110010
00111110000111010000001101001011
10111110000111011100101110010110
10111100111101110010010011110111
10111100101001000110010100000001
00111110001010000001110000101000
00111101100000011101100001011000
00111101010001001000010111110011
10111101101010010111000101110110
00111101100101001101000110011000
00111101000001000110011110000111
00111110000001011010010100000101
00111110000101010110001100100100
00111110001010100011010111001111
00111101101101111000100110001110
10111101100100111000000111101100
00111101100111111000011000001000
10111110000011111100010111010110
00111101000111000001110001100010
10111110000100010100010011110101
10111101111010101101110001100111
10111100100110101010010011011100
10111100110101101110110111110000
00111100101001011010110010111100
10111100010011011100100111010000
10111101111100010101010110011110
00111100111011101000101111010111
10111101011101100010111000111101
00111101101100101111100110000101
00111110010010001110100101010100
10111110001010000101110111001110
10111100100000011110100011001110
10111101010011100000010111011001
00111110001100111101001011001101
10111110000011000101110000010101
00111100111010011001101100111110
10111101111000011111111001001100
10111101110001011100001000000010
10111110000000001001100001110110
10111101110001111111011010111001
00111110000101000110010101010011
10111101110110001010000111100111
00111101111010101110000010011101
10111110000011110100001000011011
00111101110011100000011110010101
00111101000110111000100010000001
00111110001001101001111010111001
00111110001100000111100110010100
00111101010111100100001111010101
10111110001000011000111100110011
00111101100000010100101001001110
00111110001010011001101011101100
10111101100100110110110100010001
10111110000100000010010001111111
10111101110001111101010100100001
10111100000100001011111101111000
10111101101010000110101100000110
00111110000111010111111110011001
10111100000011000010011100011011
00111110001110111010010110100000
00111110000111101010000110010001
10111101011101111000111110000000
10111101101001110000011100011010
10111101111110010010111101011001
00111010000001001001011101111010
10111010001100110111101111101101
00111101111100111011011111101010
00111110000110100101110000001111
