10111101001111101000011101000001
00111110010001100000100001010010
10111011001100101011110101011000
10111110000100011000101111100000
10111101100111100101110111100000
10111110000110000101101110000110
00111101110010001101001111010011
10111110000110011111101101110010
00111101100110011111011101000110
00111101111010011010001011111000
10111101100000010010101011001010
10111101100011100000011000111101
00111101110001001001000000111010
00111110000001000001000110000001
10111100100001110110011110101100
10111110000111101110110100000010
00111110001110110101111001000110
10111100011101011001010010101101
00111101110010001000001110001010
00111101110100100001010001011001
10111101101001111010100010101110
10111110000001000101010001110101
10111110000110101000001000101001
10111100101010001110000001101011
00111101001111111001111011101111
00111110001110011010000001000101
10111100100011001101010000111100
10111101111010110110110101000110
00111101111010000110110001110110
00111101111110011111100001001001
00111110000000011000011110100100
00111100110001011110101001011011
00111101011001111011100000111100
10111101001001001011010001101100
10111101110110101010111010101101
10111101000100011111101000000101
10111110001001000100011110101110
10111101000000101110111011011101
10111100111110011000011101001111
10111101110111110001011010001010
10111101110010010100111100011110
00111101100000001101011000110001
10111101101101001011101011011100
10111101001010010111001010100111
00111101001001110110010111111010
00111101001010110001001100010101
10111101101111111010110101001111
00111110000000000001010011000011
10111101100000100010000010101100
00111100000010010001001001001111
10111100100110111100110110100001
10111101110100011111101011100111
00111110010001011011011111101100
00111101010011100111000001001110
00111101110110111110000111010111
10111101001100101011111110101100
10111101101101110101000000110101
00111110000001000101101100110011
10111101101011110101000001100010
10111011110001000111011011110000
00111101100111000001111000001101
10111101101111010111101111111011
00111101101110001110101101111111
10111101010101110101110001000010
10111100100101001101000001100000
10111101101101000011111110110110
00111110000000110001101101101001
00111101101001110101111101110001
00111101000111010100011111000011
00111110000110110100110110101010
10111110000000011111100110001011
00111100100110010000110011000101
00111101111101010000110100100001
00111100110011111000101101110011
10111110000101000000101000001001
10111101001010101000100110010101
00111101101000100100111111000100
10111110001100010011000010110011
10111110000111100101010000011110
10111110001010111101011001111100
00111100110111011110110101001110
00111011110011001101010110001010
10111101001100000111010010001101
00111101110011111000011100100111
00111011000011100100010001000101
00111110000110100001000100110100
10111100111010100101001100101110
00111101111101111010101010011100
00111100110000010110011010000000
10111101000011100000001011110011
00111100000001001000000010011100
00111101111100101010111011001110
10111101000000000100011011100100
00111110000101000000100111001101
00111101011011111111000010101001
10111101010011011000100010001100
10111110000100101111011100001110
10111011100011000010000011111000
10111110000011100001110111011000
00111101001011111000100100100101
10111101101101000111001001010000
10111101001000011101101010110001
00111110000100101000100110101110
00111101111111011110011101101001
10111101100011101111011100110000
10111101111111110001110001000010
00111100101111001101111010011110
10111101100100110100110111001010
00111110001001101100100110100001
10111110001010111001101111011010
00111101010010010010001100111110
00111110000100011000010111100100
10111101001011111110111010000111
00111110000001011010010111010100
10111100000110010000011101111001
10111110001010000101101110101001
00111101101011101000001001101001
10111101110100111001001101110001
00111100010010011111010101000001
00111110001011111001001100000110
