10111101010011111100110001111011
00111110010001000100111000000100
00111101100111011001000011110100
00111110001001100101111110010010
00111101101110010111110100011101
00111101100000000011001111011100
10111101001000001111000101001000
10111101111110111101100100101000
00111101111100100001010000010011
00111101111011111111111101001010
10111110000001001110011000000100
00111110011010110100100001000110
00111101100000110010001000010101
00111100100000000000110110001101
10111101110101111001000001010000
00111101100001011001110111010100
10111100010010001111111001101010
10111110000110000100000100001011
10111100010111010101011001110010
10111101000001010001101000011010
00111101100100010000000110101111
10111101110000111001101000010011
00111110001010101101011011101000
10111101100010111011100000101100
10111101001001101110010111001010
10111101111001100011011100011010
00111101010111010000000101001110
10111101101101101010010111010001
00111100010000100110011010101001
10111101111111110001001101111100
00111101110110000111011000001010
10111101001100011110000110001001
10111101101000010100001011011011
10111110000000110101100001111101
10111101000100110110110010111100
00111110001110101110101010001111
10111101111101101111111111111011
10111110010001111000110100100100
00111100000001011111010010011010
00111100110001000110011101011101
00111101111101101100101000110111
10111101111100100110100111010001
10111110010001100000010101001100
00111101000011110111111110111101
00111100011000110001100111100000
10111101010101000001011100111110
10111110001000000011100010011001
10111101101101001101010010100101
10111011100101111010100000101000
10111110001100000101011000011000
00111110010000100100111101100101
10111101100111110111111111000111
10111110001000011100100100111011
00111101110010011011100111001100
00111101100110010011111000110010
10111101100011010100111000110010
00111110001111100000001101010101
00111101111111011011101100111011
10111110001111000010001100100010
00111110010010001011000010001011
00111101100111000101111010111100
10111101000101000011101110110101
00111101100110001011001111111010
00111110001100000101101110001011
00111101101010111110010011100011
10111110001110101000101010111100
10111110001110010011000001010010
00111101111111011101011000010111
10111110000101010111001010100000
00111101111010110100000110001110
10111101010011010010010011011001
00111110001100100110110001100000
10111110000011011110011100000011
10111101101001111100101111100101
10111110000101100001011001101011
00111110000011000010100010110100
10111101001111010111010101001010
00111110000011010000100101111000
10111101011000111110001101100111
00111110001101101110000010110000
00111110010000011100011111110011
10111101110001001110001000110110
10111101100100000000001111100001
10111101101000111100100010001001
00111101000110111101111100000111
10111110000000111010100111000101
00111110001000011101010101110010
00111110001111010111110101010010
10111110001011101101111111110001
10111101111011000101001100011100
10111011100011000010000100111101
00111110011100101001010110010100
10111101011000001010100000101001
10111101000111100001010100101110
00111100011111100110001000001100
00111100110110000100100101101101
00111101111100000000011001110110
10111110010001011101101101111000
10111110000000001011000101110001
10111110000001110100000001110110
00111101011001001001000001101110
10111101101011001100011000010100
00111101010011100000100010000011
10111101001011111100001100011111
10111001111011001101111101011111
10111100000001011011000000011110
00111101001100110100111001011000
10111101101011011100001100111111
00111101000001010100011101001000
10111110000011101010010110001100
00111101110100011010011111001001
00111101000011000000111100000110
10111101110110011101011100001001
10111101100001110011011000010111
00111011011101111110101100100101
00111101100110010110011110010000
00111101000101110001100001100100
10111100010011110111010000001100
00111100100001110100100001010111
10111101011100010010110011000001
