00111101111001111111111100011110
00111110000110001111000011100110
00111101010101010101011101101110
10111101110101100011000101111010
10111101000010011010101011101000
00111010100110000101101000110001
10111110000000101001000000001011
00111101110111000101100101101000
10111101110111111110000111011101
10111101001110111100010110000101
00111110000000001111011000010001
00111101101111101110110001000010
00111100100101101111000000101011
10111110001010111011000000010100
10111101110010110000001000111101
00111101110011111011010001001011
10111101101001010110001010111100
00111110000110110101011001100100
00111101011110111001010100110011
00111110000101100110110011100011
00111110000011011110011011100010
00111100100010000111011110101101
10111101111100100101011010110010
00111101110011000111000101101000
00111110001000011001111001111111
00111100110001000101101111100111
00111100110001010101011111000010
10111101100001101010011000011100
10111100110000011000011011100101
00111010000101110010100110001100
00111101101101110111100010111110
10111101110101100000100111001001
10111110000001111100011011010111
10111101101110010111010111111001
10111101110010110000100011001011
10111100111011100000001100000110
00111101001001000101100000011011
10111101100111101101110000010001
00111101100001010000100110100010
10111110000110100111010100010000
00111101010011110001111101101101
10111110000110101101110001011011
10111100101011101111011100010011
10111101011010001011110011111001
00111110000000101100100010011111
00111101110110000101110010110101
10111100110101110000010111110110
10111101110110010010001111100101
10111110000110001100111011010010
10111101010001111011100100000110
10111110000000111100001010100100
00111101010101110100010011101010
10111100001101101101001111011101
00111110000001111101111101111010
00111100010111101100100001001101
10111110001001010100100100000100
00111110000101011110100101011011
10111101100110011011000011101000
00111101111111000010010100000111
00111101101101011110001011000001
00111110010010001101001110011110
00111100101000110000011000111001
10111110001010110000111000100010
00111101011101011110100111001010
00111101110101000101101101110100
10111100101110110000101011101100
00111101011011000110111100010010
10111100101111111110011000100110
10111101001111101001001111010011
10111101101001101101001100000001
00111101110001100011001000101111
00111101111101111101000110000110
10111101001000010010110001000000
10111101110010100011110111010011
00111101101000010011011000010111
10111101010011010010011111001001
10111101101011010011001101101100
00111110000100010111000100110000
00111100101100110011010100000011
10111110000101110111000101100111
10111101110110011001010100000101
00111110000010111111011000001000
00111101101000001000010101110000
10111101110100011001111000000001
00111110000111110101001111001111
00111101011000110001000011001010
00111101111000010101000010011101
10111110000100110000111000100001
10111101101001011011111111000111
00111110000010111011100010000011
10111110000110011100101101110110
10111101110010010000101101101001
00111101110000110111111000001101
00111101111010011011100110110010
00111101010101001010111001111110
00111101111000100001000001011000
00111101100110101110100000011011
10111101000101111011101101010110
00111100000011000000111101001000
00111101010010000000001100000000
10111101111001001000000111111101
00111101100001010111011100100000
00111101110100100010001010110101
10111110001101011111001000010100
10111101100001010000111011100101
10111101101010001000110000100010
10111101101110010010111111001110
00111101110100001000011111010011
00111101101101111010111011110011
10111101101000110100101111100101
10111100111000111101110000000110
00111101101101000011111001111010
00111101101101000010110010111001
10111101101010011111000101101001
10111110000101001101001111010111
00111110001000010001000000100111
00111101000000110000010101001010
00111101100111100100101100011101
10111110000100000010000110101110
10111101111011011100011011000011
