10111101110011111111011111110111
00111100111000101000000110110100
00111100101011000111110110110010
00111110001010011110011000001001
10111101111000001011111010000011
10111100000001001101111001010101
00111100000011011001110110100110
00111101110010011010101001010000
00111101111111100110010101101000
10111110000000010001100000010001
10111100100001110000100101101110
00111100100000011011100011100101
10111110000101010010010000111101
00111101101010010011111100001110
00111101000110010101011110111110
10111100000101001110011010110000
00111110000100001001011101001111
10111101111110010001000000010010
00111100111000000101011011110100
10111110000001001001110010000010
00111101101111110110000101110001
10111101011001100110000101100100
10111100101001100111001010011000
10111110000010001100100011100101
00111101111010011101000111000110
10111110001000011110000000111101
10111110001011000111110000010100
00111110001001001011000111110100
10111100101100110000000010001011
00111101001011110111001001110000
00111101110011011110110000010010
00111101101101010000100000110011
00111101110001001001000110011110
10111110000001100000001101111100
00111110001000011100000010001101
00111011010000011000010111100010
10111011101000110000110110110100
10111101001101000100101101110001
00111101101011110110100101000011
00111110010111000000101100011011
00111100001010010110111110000111
10111101001110101011010100111101
00111101010110101000110110101011
10111101000001100000111101000010
00111110000110010010001011101101
10111101111001100100011100101000
00111101001001101101110000001011
00111101110101000101000110000101
10111101101010101110011001100100
00111101010000111000100110001110
10111101101000010111011100110001
00111101110111010111000001001001
00111110001110000000001101110101
00111110001011100101001000011100
10111110001101100111011001010101
00111110000101000000011010001100
00111110000011000110010010010100
00111110001111010001110110001110
00111101110101000100111000101001
10111101110101101001101001001011
10111110001110010000001100101110
00111101010000001110001110001100
10111101010000010011010000010011
00111110000101001100111000000101
10111110001111010011001000001101
10111100110010011010110010010001
00111110001001010011011101000111
00111101010111100011110110010100
10111110000101010110110110010101
00111010100010101000111000001000
00111110000101101010000110011101
10111101100011001110101100001010
00111101000101000010110111110000
10111101001111100010101101001100
00111101110111111110111000100100
10111101101000001100001100111000
10111110000001001000100010110010
10111101111001010001010110110110
00111101011100011101111100010101
00111101100000101111010001110100
10111101111010111111111011101111
00111101000001010100110010000100
00111011000000101000011111101100
00111101100000010010001101000001
10111110000101101010110111101100
10111110000100011011010100001111
00111101100011101101011110100101
10111100011101100101000111001011
00111101101100110111111000001011
10111110001010010001011100110011
10111101001110010001100101010100
10111101100011001110100111101110
00111100001001111000000100110100
00111101110100001001010001100100
00111101111101101011001111101010
00111100100010010101000101001000
00111101111001101001110101000011
00111011101011011001100011100100
10111110001000011111000101010001
00111110010000001111011101111010
00111101110010001101010000110100
00111101110101000111010011000001
10111100110001110010010111100101
10111101100001000011101001000011
00111110001000110100100011010111
10111101011010100001111101100011
10111010111110100101011111100110
10111101111101101111010011110101
00111110000011111110010111001101
00111101011000000110001100001100
00111110001010011010101100001000
00111110001010111000100001000000
10111101111001110100101101010100
00111101000110110110101100001100
00111110000101101000000110110110
10111101011111111100100101100110
00111101000110001100010111010100
00111101000111101001011100111111
10111110000000010000101010111000
10111100001010110001000001101111
