00111101001111101000001110111111
10111100010100000110000100011101
10111101000101011010000101110100
10111100010101100111011110100000
00111100011101001010011001011101
10111101101000100011111110000101
10111110001001001011010111100001
00111101000000101001100000011011
10111101100010001011111111100101
10111101100010000101101101011001
10111101101111000111110001011001
00111100100100100110010110010001
10111101010000100100111001000101
00111110000101110110110011001111
00111110000000000111011100000010
00111110000111101100101001000000
00111100110010000000011110001010
00111101110100111101011000000000
10111110000100000010010110110100
10111100101001000011000111111101
00111100001001110010001110000100
10111110001001001100110110111011
10111011101111000011110011000001
00111101011010101101001101010000
10111101010111000000011010101010
00111110001010101111001010010101
00111101100000011111010100110111
10111110000011110101110010101111
10111101101100000101100010110111
00111110000000001111010010010111
00111101001001011100100001000111
00111101110000100011010001100000
10111101011001000001100010011111
00111101111100100111100101100010
10111101100000101101110100000101
10111101101111000011010000100110
00111011000110101001100000001000
10111110001000010101010100001001
00111101101011000010011100111000
10111100111100011011100111110000
00111110000001001101001000011011
10111110000110001010111000011000
00111110010000111100001001111111
00111100110111110101110110100100
00111101111110100111011101001011
10111101101001110100010101010011
10111101111110110010100010110000
10111101000110011011000001110101
00111110000001000011000100110111
00111101001101100011101000000110
00111110001100100111010000000101
10111101110101101110101010110100
10111101000110111000100101011101
00111101101110001100000000000000
10111110001011110000011000001111
00111101100110110001001000010010
00111101110000011000100010010101
10111101011100011010100101101000
00111011110010110110011100001000
00111101101000001011010101011010
10111101011100110101011010000011
00111100010000101100101110011011
00111101011010101100101010110001
00111110001100101001101000100000
10111101101100100000010100001110
00111101100001000011100001010000
00111101011011100011010011001110
10111100111110010111001011010011
10111101110110010000100001011000
00111101110100111111110011000010
10111110000111001010100011010011
10111101101011101110011010000100
00111101111000000000111001010101
10111101101110000001111010001100
00111100001011110000101100110100
10111110000000011110001011011111
00111101011000001000100001110010
00111110000001100100000100101110
10111101101010101011110110001111
00111101001011111111001111011101
00111101111100101001001001111101
10111101100101101110010001001100
10111101000100111001111100100101
10111101100000110000010010000100
00111101000011011001100010101011
10111110001010001001010111010101
10111110001110110000000011000010
10111101100000100101011011101110
10111101100111100000001111001101
10111101111010100001000011101001
00111101011100010110001101001111
00111101010100100100001010001011
10111101100001000111000011101001
00111110000110110100010001101110
00111101111011011110000011111000
00111101011000000011001001111111
00111101101110011010000110110100
10111101111101011001100011100110
10111101110000110110110101111001
00111110001100111110110111001010
00111101111001100001111000010101
00111101011101011001101000001011
00111110000010001000110011101010
00111100001010100010011000111011
10111100110100100101001110110000
10111101111000100011101001011110
10111101100001100000010110110101
00111100111101010001001001010101
10111100011001111010110101111000
10111101111110101101011000000001
00111110000001111011110101000110
10111100110100101100010000111111
00111100000110011110101001100100
10111101111100010000001011000010
00111101111110001110111111110111
00111101101100110010101011000100
10111101100010011111011001110110
00111101101111111100111100010001
10111110000000001010010000100011
00111100111000001100010111110010
