00111101110101000001010110101101
00111011001110110100001110111000
00111101110000111000101010100010
10111110001000110000001000110110
00111011000101010010010100000111
10111101110101110101110001001110
00111110000010110110000010011111
00111100101110100001100010001010
10111101010101100101100111100110
10111101011111011000011111000111
10111101100011010101110011101100
10111101101101001101011000011111
10111101011111100101101011001001
00111110001011010111010011101111
00111101011010100010010010000111
10111100101111110011011011101001
10111110000110000011101111111001
10111110000010110001000010010000
00111101001000010001110101001101
00111101111001001100001110011101
00111101110110100101101010110110
10111110000010101011110010101110
00111101110011000001010110001101
10111100110000011101011111011100
10111101010010001001001000001100
00111101011100000110010110111101
10111110001010001111111101011101
00111110000100101100111110000011
00111100110101110001010110110001
00111101010011100001010000111101
10111101111100001011000100011010
10111101100101000110011101111011
10111101100100001100101001000110
10111110001111010101011111011000
00111100001100010001010101000100
00111110001010000011010101110011
10111101101000100111000010000101
00111110000010101111111111110111
10111110001001100100100011110100
00111101110001110011010101100110
00111101011101000011011111101011
10111110000111111000000100100111
00111101111011010001001010001101
00111110000110000111100000001000
10111011000010011001110010000000
10111011110010101010111011000001
00111110001010010111101000101011
00111110001010000111011010111100
00111101100101111001000111010110
00111110000000001010010000110010
00111110001101101011100100111101
00111101101111000111110010100111
00111101101001101011110010000001
00111110000111111101010000010010
00111101101101011111000001001010
00111101101111011111101101001001
00111100111010101100011010100100
00111110001011000101010011010101
10111110000111100101011001100001
00111110010001000001100000110100
10111101100001110110011100101101
10111110000010001010011001110000
10111100111100110000111101010101
00111110001011110001011101001100
00111101100110001100011010001001
00111110001110100111010100001001
00111110000101010000010010111011
00111110000001000001111110111001
10111101001011000110001010010100
00111100011001101001101101010011
10111100001011010010111101011111
00111101111011100110011101111000
10111110001001111110101101110011
00111101000010101100111010100110
00111101111110010101100110101000
10111101100010011110110000101011
00111101110000000100000010011001
10111100101100011011100011010111
00111110001010100101101011001110
00111100111111101000100011111111
10111100001010011011010001010010
10111101111101001011000001010111
00111100111000000110110010010010
00111110010100001111110011100000
00111110000110100000110011110000
10111101110101000101010001000100
10111110001001000010010011111011
00111110001011011000011101011111
10111110000100000000001111011010
10111101100011101101111111000101
10111110000001101001001110001110
00111101101001000001101100010011
10111100110101110101010001001001
10111101100000111101010110111001
00111100111000010110001011110001
00111100101111010010110111010101
10111101111110100000111010001011
00111101111111000111000111100001
00111110001000001010110011110111
00111101111101100000001010110100
00111110001010110110101111100110
00111110000010111100111011001001
00111101010001001001010001000000
00111100100110000010100111011110
10111110000001100110000110001001
00111110001010001101001010110011
00111110001000111110010000101110
00111101100100010100001000011111
10111110001010100100110001100001
10111101111011110010001000111111
00111101100011101111000111010000
00111101100000100111010101101000
10111011110110110001010001001110
10111101010000101101010001011011
10111100011101110000111010110011
10111100111101111110001010000110
00111101010000101100000101110110
10111011011000011101010111101110
10111110000000000100111101001011
00111101001010001000010011010100
