00111100110101100111111110110100
10111101110000110101100010001100
10111110000101111101101001101101
00111101000011110001100111100000
10111101011011110001000110101010
10111110000001010011101101000110
00111101110111011101001010010000
10111101001011100111110111110111
00111101111000110111110000101000
10111101100111001111000100001111
00111100010110011000100101100001
10111101000010001011011100011110
10111110000111111101110001100001
10111101011111100001011000111111
10111011111101001010110011100000
00111110000001111010001100101001
00111110001101100111001000110100
00111110000011110111100101000011
00111110001001110101011111011111
00111101100011000011001100000110
00111110001001110001000011000110
10111110000011001100000101001111
00111110001010000000011100111001
10111100000100001011110110010001
10111101111100001000010100111101
00111101101101111101011011001000
10111110000000000101000001000000
10111100101101100011111001101110
00111110000011000000011011101011
10111101010100111110011011001001
10111101000001001110110000000100
10111100011011110100011101111010
00111100101110110010011011111100
10111110001010011010001110001011
10111101100010111010111001001110
00111100101101010000001011010101
10111110001010101010010000000000
00111110001000011001010001100100
10111011100101010111001100001110
10111101111010001101101111001111
10111100101010111110000101011110
00111110001010010001101110010100
00111101101100001000111011000011
00111101100011011011001110101110
00111101101101111110011100001110
10111101111101001010100011001011
00111110001110010111000110011101
10111110001010111111100110100000
00111101111010000110011011100110
00111011111100101010100011111000
00111101100101111000111101100110
10111100111001010111010100000101
00111100100110001101011111110011
10111101100000010010110111110001
10111110000110000000010000000010
10111101011010100001000010001101
10111110000100001111111110100011
10111101101001001110001111010100
00111101110011001001111011010101
00111110001100100101101000010000
10111101101111011100000110000001
10111101100000011001010111100010
10111100100010111110010011100100
00111110000110111011001010010011
10111101001110000010011011000111
10111110001001000111000001101001
00111101111111111100010011001100
10111101010001001001111001011000
00111100110001010001100111000111
10111101100010110110001111100111
10111100111011100001101100110001
00111110000100101100101011100001
00111100101101000100100000101000
10111110000110100001111011100001
00111100001000010001100000111111
00111110001001101110001110101111
10111101001011111011110101111110
10111011101110001011101111010010
10111101000101111000001000110001
00111101111000111010101111001110
10111101101100011101110110110101
00111110001000001100011111001110
10111010101001100000010111010001
00111101110100001001111000100010
00111101101000000111000100001000
10111110000101111000101000100101
00111110000110010110010010101010
00111101000101010010000101110010
00111101100101000101100011110011
10111110000000011001101001011010
10111110000111010110111111100010
00111100100010111000001011000010
00111100001110010011010011111001
00111101000011110001011110010001
10111101010110011110110100000001
10111101010100101100011010011110
10111110000001000111111100010011
10111101101111000100111110001110
10111100111111111000100010000100
10111101000101110000011101101011
00111101000111101001011000000110
10111110001000110101000111010111
10111101010101111000101001111011
10111010101011000010101010011101
10111110001010000000111011110101
00111101111011100000110011101001
10111100000001010101110110000110
10111100101010011110011010010101
10111101111011110110101000100011
00111110001111001100011100100001
10111101001000001111100100111010
00111101001000011101110101100000
00111101100011101011000100100000
00111110000110010110010011110011
10111101100001100111111101111001
10111100011101111101001001001000
10111101001100110101011001101001
00111110001011011101010101101111
00111101111011111010001011101110
10111100110101011101000001111011
