10111101100011100001011100001110
10111100111111000010100100011000
10111101000101110110101101001101
00111101001100000010011010011110
10111101101100000010000010010101
00111101101000101010101111110111
10111100000101000010101100010101
10111101111111001101100111100011
00111101110110000100101000110110
00111101100001111000100001100110
00111101010001110010110001001110
00111101111101010111110110101001
00111110000010001111110011010100
00111110001010011000111000011010
00111100010010001111111010101010
10111101010001101101011000100110
10111101000111000000000011101110
00111101101100011000001010000111
10111100000001000000000111111100
00111100010100001011001011110000
00111110000001111101000101010011
00111110000000110000100100011101
00111110001000101000101110010011
10111110000011111100001100011000
00111101100101000001111111010110
00111101010110010110100001001011
00111110001011100100001001110100
10111110001000111100010101010101
10111101111000110111001110011101
10111101011110010111110001001111
00111101000011100110010101111100
10111110001001111100111110010011
00111100111000101100001000001101
00111101101100011100110000010001
10111101011100111011110100011100
00111101011111001101001011001101
10111110001010110010101010110110
00111110001101100110010011111011
10111101101110100111100111011110
00111100101100100110000100101001
10111101011111111011100001010110
00111101011000101101010101001110
00111110010001011010111100011001
00111110001010011101010001101111
10111101111000110110110001010001
00111101110010000001010010100000
00111100101010011111000010110110
00111110000100110100010111101001
00111101011010101000100111110010
10111101111101101000110010001000
00111110000110110111011110101010
00111110001100100100100001101111
10111110000111010110010010101100
10111101110101011101001100000011
10111101001010000101011101110110
00111101101100001101101110100110
10111101100010011111010001111110
10111101100001110010011010101011
00111101111101010110000000000111
10111101101011001010101011010001
10111110001001010010111010000001
00111101010110110011110000011100
00111101110000001011000011111111
00111110001000001010011100111000
00111101100010100010101101111000
10111101000001101011110011111011
10111101010010100100110101110001
10111110000010101011011100100101
00111100100110101011000100100100
00111101101011010111110110001000
10111100011011111110011001000110
10111101001101100110101010000010
00111101010010010011111000111000
10111110000101011010111100000101
00111101110111101011001010000000
00111110000010110111000110100011
00111101110001100000100100000000
00111101010101010111011101111110
00111101111000101001000110111000
10111110001010111110000001111111
10111101111000010101110000000100
00111101111000100010000011010100
10111100010000010100101011010101
00111101101100000111011001111010
10111101010010010111000011110100
00111101101001100011011110100001
00111100100101000000100010100111
10111101110100000011001010001001
00111101111111100111000010100111
10111110001001100001111000001010
00111100111011110111000100000100
10111110010000000000010101010111
10111101110110100000001010110001
00111101101011111101101001111000
00111101100000010110001010010100
10111101000011011101000001000110
00111110001001111010000101000110
00111110000001001101001011001010
10111101100001100010101110110000
00111011010101001110011001011001
10111101110010011100101001001110
00111100101100101001100101000010
10111101000100110001010110101101
10111110001100110001111000011110
00111101011010011010110000001100
00111101111010111001000101001101
10111110000101000110001110100000
00111100000101000111001001111000
10111110000000001011011110001000
10111101111001000010110111011011
10111110000101001111010011001101
10111100111010011101011101000000
10111011110000100100111011110001
00111101111000101100000011110110
10111101010101001010000000011110
10111101011101101010001101101111
00111110000100110010111001101100
10111110000010110000011011010110
00111101001010011010111100010101
10111110001001110110100111100110
