10111101001001001101010100001000
00111101110010111001000110000111
00111011111111110001111111101011
10111110001101000100010100111011
00111101100111100001010011111110
10111110000100010001101100101011
00111100111101101100010101011110
00111110000101010011000100011100
00111110000100100100000011000011
10111100100011100010011000100100
10111101100110110011110000010101
10111110001110000011101010000101
00111101101010110000000100000000
00111101101111110001001111011010
00111101000101100000111100000111
10111110000101110000100011011010
10111101110101100000001011101100
00111110001001100011000100011110
10111101111010000011100111110000
10111110001010001000101111100000
00111110000100100001111001001100
10111110000100101011010111011010
00111100100111110110110110000000
10111110000000110111010100111010
10111110001100111100010000011001
10111101101001010000111101000110
10111101111111111100100110101111
00111100010001101010101100110011
00111011101010011111011001001110
00111110000100111010010100000011
10111101111001010101011100000100
10111101101101100010110110101000
00111101110100001010101010100010
00111100110010000010111010001011
10111100111010101110101001110000
10111101100100001100011011010000
00111110000111100000011000110000
00111110001001011110000011000100
10111101101111000010010111110100
10111110000111000101011001011011
00111101111101111001111101111000
10111101011111011101101010101101
10111101100010000111000111011111
00111110000110111010011110000111
00111101100101100011010111101110
10111101001111010110111001110101
00111110001010010100011111100110
10111100100000001100001111110010
00111100110111101101101001111110
00111101111100000110110100101110
00111101100110000001001011001111
10111101110000101001101101101110
10111101001111011111011010110110
00111110000000101101101100101010
10111110010000110011100101010010
00111101111101101001011111001111
00111101100100001110000000110000
00111101111100011110010100110110
00111101100000001101010011000010
00111101110111100010010010000111
00111100110101000111101111010001
10111101000100101101100111110100
10111110000111010001101101101101
10111100110101111100100001101110
10111101000010010011001011011011
10111101000000100111110001011011
00111110001010110101000100100110
00111100010100111010111001001011
10111101101101100110110011010000
00111110000101010111000100000111
00111100000011111101010011010110
10111110001000111111100111110101
10111011110111100000000011100000
00111011100100111111010000001101
00111110000011010101110000000101
10111110001010111101010011000011
00111101011000001100010111101101
00111011011011101000110010110001
10111101100011100000001111101001
00111110001100011110010110100100
00111101101101000110101111010000
00111110000000001100110010100010
10111100101010000001100011000100
00111101111011100110001110101011
10111110001010001000010110101000
10111101001101001100001110101110
00111100000101000101101111101000
00111101100100111100011111111110
10111110000101010111101011010010
10111101010010110110111010000110
10111100100111100101100000010011
10111110001101110011111110101011
10111101110001000011100110111111
00111101110101101001100100110010
10111001101101100010100111010010
00111110001000000000111010100101
00111110000000001101101101101110
00111101000011001110110001011101
00111011000010110010001011101100
00111101100010010001011100110100
00111101001011010010011100000010
10111100110101101110001000101111
00111101110110011111111111101011
00111101100010010100011111001101
00111100100010001011001111101011
10111110001001000101010011010110
00111101001000111000100110011000
10111101110111000000000000000101
10111110000100101101010100001000
00111100110100011100000110001110
00111101001100000001001101110011
00111101111001101110111011001011
10111101110100010111011111100011
10111100101110010111100110001010
10111110000111011000010000110100
10111100010101001111110000011110
10111110000111001010101100011010
10111101100001111100100111001011
00111010011111101011011111000110
00111101110000010000110000011110
