10111101010000001000111100000001
00111101110011111000111000101100
10111101011001000100010001100111
00111101011010011110001110111100
00111110001010110000100101110001
10111101110001111010100000110010
10111101011000101101011000100010
00111101111011001111000000000101
10111101010101101011111010000110
00111101100100000011000010110101
00111011001110001100010111010011
10111101111001010011110101110001
10111110000011010111010111100101
10111101001101100010110101011011
00111101011010011000110010111110
10111100100011010000000011110000
10111100010101000011111101100111
00111101100001110100011001111110
10111001101111010110010000000011
10111110000111101011101100111111
00111101010100101010111001000101
10111101111110011111100110100101
10111101100110100111010001011100
10111110000110110000100101010110
10111110001000000010101001001011
10111101100110011000010111000000
00111110000001011010000111011000
00111101111001100010111011110111
10111101100111011111000110000101
10111101101100010101110000111111
10111011101110100111101011000000
00111110000101100001011101001011
10111110000110110110100101000001
00111101110101001001100000001101
00111101111110110010111010101011
00111101110001011010101010000000
10111101111010010011010110010010
10111101100110100000110100100011
00111101000110101000011111001010
00111100100001011101110000100001
00111110001010010011011100110010
00111110000010100100110001111110
10111101110000100011010011101110
00111101101011010000011000111101
00111110001010000000100111010111
10111110001011110110010101100011
00111101111011000111001001101110
10111100110110000111100001010111
10111101101111011011011110010011
00111110000001011110100010100100
00111110000011000101010010000010
10111101000000110110111001000101
00111110000001010001100111001100
00111101100101100010111110000010
10111101110101101000011100001010
10111110001001001110000000111011
10111101100101101111010000101001
10111101010011101000100111001101
10111110001000110001011011100110
10111101110011101000100111011001
00111100011011111110110011100101
00111101111100110110000011100100
10111010101011011011111001011100
00111101100110011010011011111010
00111110000100111101111000001110
00111101010101101100010010110111
00111101101000001100001111110010
00111110000000001010100000011010
10111110000101010011011010100100
10111101101010110110111000011111
10111101010110100111000100001001
10111101111001100001010110101001
00111110001000010001000110000011
00111101010000110110110000010001
10111101001001000010110110100001
00111101010001101111001111101011
00111101110010100111111010111111
10111110001100111000111100011001
10111100010010011111000111100100
00111110000010001000100101101001
00111100100101100100000011000101
00111010011011110111110001010101
10111100101010110100010001010000
10111101011111001111111100101100
10111100101011000100111010111000
10111101100010100011100001001100
00111010101110010000111110100101
00111110000100011110110100101100
10111101001001011100101000001110
10111110000100110100101101100110
00111110000001110011101010111000
10111101111111001001000111111011
10111101010010001100010111000001
00111101101000011000110010001010
00111101001101110001001101100011
10111101100111000101110100100101
10111100110100000111011100010100
00111101000101001100011011000110
10111101101100101000000111110010
10111101001010000111100101001001
10111101111000110101011110010100
00111101101101110000100011000000
10111110000101101011110111001000
10111100110110111000000110110110
10111101001001000001010101111101
00111110000111101101101100000000
00111011100100110111101100001110
00111101110110000011110100100011
00111101111010001010101110001010
10111101011110010001111101011101
10111110001001110001010010001001
00111101101000011111010111100101
00111101001011101111110001110100
00111101110000101011101000001011
00111101011010001010010001011011
00111110000010011101010000011100
10111010000011110010111110010010
00111110000010010011011001101110
10111100100010111100111101110110
10111110000011110000110000101110
