00111101011011101111100011001100
10111101101110110100111100001100
10111110001011011100100100111110
10111101110010011110100010111000
10111101100101011101111100100111
10111101100010100100011011001101
10111100111101101101101001111000
10111101110001011011111001111010
10111101001100100101110000010011
10111110000110001001011000101110
00111100101111001001110011010000
00111100110110110111111111000101
10111101001000001011101111100000
00111110000110110001001000010110
00111100101110001010111010110101
10111110000010110000100110000011
00111101010010010110000010100100
00111101111011000000100100011111
00111101001101001001101011000110
00111101010111110010111110101010
00111101110101101100001011011101
10111110001001110001111100100100
00111101100001101111011001100001
00111101111110000101110000101011
10111101011011010110000001110100
00111101110111101010010110010101
10111101110101011101100110101110
00111101010010101001010011011111
00111110000011100101101101000010
00111101001011011011010110100011
00111110001000011101010010001111
00111101011001001101000111111001
10111101111001100001000110110100
00111101110111101010011110100111
10111100001100101101001010001011
00111101101111110010000101011011
00111110000001100101111010111001
10111101111111111100111111100000
10111110001010100001000001100001
10111100110011110001100111000100
00111011100000010100101111100110
10111101101110001110100110101111
00111101000011101010000011011000
10111000101100100110110000100011
10111101101011100010111111100111
10111100111010101001111101000001
10111110001011000100111010101000
00111101101000010111100111111011
10111101000111100101010110111000
00111110000110011101011011110001
10111100100101011111011011100011
00111101101001000001100101110111
00111100101101010111111011110110
10111101110100110000010011000100
10111101101101001101100101100110
00111101001001000111010101101011
00111101101000000100110000001010
10111100100101111101001001100000
10111110000000101001110100001100
00111101001110101101110110001010
10111110000100111100111111000011
10111100011000011001111011101011
10111011101010001110111111101010
10111100110011000111100110101000
10111101111000101100111000000100
00111100100011011101100100111000
00111110000001110111101110110011
10111101101111011000001010111000
00111101111101010011010010000011
10111101010000001111010010111100
10111110000000011010110110100011
10111101110101100010011110100110
10111100111001001100100010101000
00111101011010100000111000101011
10111101101010100100001010100001
00111110000011000010110001000110
10111110000001000010001010100111
10111101100011011000000110010001
10111110000000101000111011100000
10111101011001111011111111001001
10111101111101100000101101111101
00111101001001011000101101100001
00111101010101110100100010101011
00111110000101111110000001000100
00111101110010111001110110101110
10111110000100111010001001111000
10111100111001100111101101101110
00111100111111100001111111110110
10111101111001111000110110011001
00111101101110001110111010100100
00111110000010001101000101101001
00111100110111010011100101000000
00111101101001111111110100010101
00111101110000101101110000101011
10111101111101100100001111001101
00111110000001001110100001000101
00111110001001101110001001000100
10111101001111110110100001101100
00111101100110010111011011000001
10111110000010100010000111100100
10111101000100100011101001000110
10111101011110100011100000100101
10111100010000011101111101001100
00111101110001110010010010100101
10111110001001110000111100010101
10111100000001101111010011110110
00111100110110100010010010101010
00111101101100011100110100001101
10111101100011101010100000100100
10111100001001111010010100100110
10111011010011100001010111011100
00111101110001100110101111100000
10111110000001000011001110010101
00111100000101001011110101011111
10111101000111100011110000111111
00111110000100000111100110100111
00111101100111010011001011010010
00111110000111111010011111011101
10111100111001101000101101001000
00111101100111101101110001000101
