10111110000000100011111001111001
10111110001110110111001110100001
00111101100000000000000010110000
00111110000011111010100000001100
10111101101001010111011011100001
00111101101011100101100000001011
10111101111101011010110011011101
00111101100110011000111111111100
10111100011110101011000011010100
10111100100001111011110111100101
10111101100000110110111011100010
00111101011000000010010101100011
10111101000011000110101010011111
00111110000001001100010001100100
10111110000111000011001111100000
10111011010101100010000100110101
00111101101110000100111010011111
00111110000111111000010111100010
00111100110010100101110011000101
10111101111101010100100000110010
00111101010111110111111100011011
10111101100110101010101111010000
00111101111110011011110011000111
10111110000001110011000011011110
10111001111011110010110101100001
10111110001110011100101110110011
00111110000100010111100010011111
00111101110001100111000110011010
00111101101110011100000100111010
10111100000000001111110011101101
10111100101000111010111101111000
00111101100111100000110011000000
00111101001111011101011111110001
10111100111110100001010011101110
00111101101010010000110000001110
10111101001000101100101001011000
10111101000110001001100001110100
10111101010101111110110010001000
10111100000010010000000011001000
00111110000001000010001011000100
10111101000111100110000110100011
10111110000011111110100010000001
00111110001011010000100000100011
10111100110001011110011011001110
10111101111000001111110001011011
10111101110010110110111100111010
10111100100011010100101001011011
00111100111110101110100110000001
10111110000001100001011101111011
00111101001000001001110000100001
10111100001111001000001001101011
10111110000100100110100010110000
10111100110001000111110110111110
10111110001110010101111011001010
10111101110101011010001011100101
00111110001001111100011001101011
10111101001001110110110011111011
10111110000111010100010101000000
10111101011011100111000001110011
00111110000100111011011010101001
00111110001010011101110100010010
10111101011101001100111010010011
00111101000010101010001101110001
10111110000111001110110010010000
00111101000000110111000011000011
00111101100110100101011011001100
00111100111110011101011100110100
00111101100101001001100100110001
10111101101000100001111000010111
10111101011101000110001111101000
00111101000011101111001001110010
00111110000110100001010100111010
10111110001010000010010100001000
10111101011110110010001110111100
00111101110101010110000100011000
00111100000111101101100110100011
00111110001100101101000110011000
00111110000111100101010001111000
00111110000000010010110000001101
10111110000001101111110000100110
00111101100001001110001110100111
00111110000110000000000111101011
10111100011001010011000110111011
00111101010110110110101010000110
00111110010011000101111111000001
00111101100011000000000111101010
00111101111010011010100000001000
00111101100100101100010101010001
00111100111010000000011000100101
00111101100001100100110101100000
00111101011101110110101011110000
10111101000001000101011101011100
10111110000101000111110111110001
00111101011011101110001000010000
00111101011111101010110110011011
10111011100001001100010001100001
10111101010100101000111101111000
00111101111010110111011001000110
00111101011000100001101110101110
10111110000011111001010101111010
10111101001011111101001101000010
10111101011100010111010010000001
10111101110010100011101000000011
00111110000001001010011000100000
10111110001001100000001101011110
00111110000011001010101101000010
00111110000101111001000101011101
00111101100110011011010011110000
00111110001000110101000100101011
00111110000001100011011011011000
10111101010110111101010110000000
00111101100100010010000110111101
00111100000111000100010000001011
10111100110001111010010000011101
00111101110110000111111011000001
10111101010010101110100100110100
10111011010100001111100000010001
10111101100001101110100100110001
00111010100011101101000101001010
10111110000010111011110110111100
