00111101111111101110111111111010
10111110000111001000010001110000
10111101101111000100000010100010
10111100011100111001010101101010
10111101110111100000000000110000
10111101001011001011010010010110
00111101110111010111111101111100
10111101000000000000111100001111
10111101100000000110111011010001
10111101001001000100000011111011
10111101001111010100010011111110
00111100110110000001001001110010
10111011110111010100010111011001
00111101100000100010000000100101
10111110000100111111111001101100
00111101111111000110011001010010
10111101100001101110001000111110
10111100101101000011100010111111
10111101111100011010010001110111
00111101110110101110000000010001
10111110001000000000001111010101
10111100100010100000000011111111
00111110000010110001011001000100
00111101010111010110011001000100
00111101000000100000010001001001
00111110001000010111110010000111
10111100001001101101110110000011
00111101101101101000000100010011
00111100010011100010101110100101
00111101110110011010010100011011
00111101110000111000000000100010
00111101101011010001010101110001
10111110000111110100011010100110
10111101111101111011111001010001
00111011111100010010101001111001
10111101111011101010110100000101
10111101110100111100001001011100
10111110001000111010111100100010
10111101110011000011101101000110
10111101000101011010000010111001
10111101001100111011011100110100
10111100111011100000101101111000
10111110001010101111001000000001
10111101001001010011110110111111
00111101011011100101001011000000
00111010000111010001101000010001
10111100000100010101001101110110
10111101110101111100011000111011
10111101100101010111010100001000
10111101111110110110100110001011
10111110000111101100111000001010
00111101111111100000000001010111
00111100011000111110111100110011
10111101111111011101110100100111
10111010111010101101111011000001
10111101111101101001100001011100
10111101000000010111011110000111
10111101110000001001011001001101
00111110001000101111011011010111
00111101110101000111011111101011
10111101000110011100000111110010
00111100111100011011000111011001
10111101111010011111110001100000
00111101110101101100100111110011
10111110000000001101000001000101
00111110000100111001010111110000
10111101111001110101100000100111
00111101000111101111001110111111
10111100111001111010100001101001
00111100110101010101110011000000
00111110001011111011001110010010
00111110000000011011111010100101
00111101100110111110100010000000
10111101111111001011000010100110
00111100010011010000101101010101
00111011110001010100001000010111
10111110001010111001110010010110
00111101100010010000100100010011
00111110000101100110000111001101
10111101101011001111010000011100
00111110000000010101000111010001
10111110000100011101001010010100
10111101001110101001110011011010
00111110000010110010010001000010
10111110000011101010001001110110
00111101101111111001111000011010
00111101011100011111101100111111
10111101011011011001011010100001
10111101011001101100000100111011
00111101011000111100101010111110
00111110000101110111010010110111
00111100101011001001000000100110
10111110000011001101001111010111
10111011110110010111111001110111
10111100001110010110110011100000
10111101100100010111100000011001
00111100110111111001000101101111
10111100100100111110010010000100
00111110000000010110010111001001
10111101011010010011100001000111
00111110001011010111000110111001
10111100101100000111000011110000
10111101011111010011000101110100
00111101111111100010001101101101
10111101000100000011111111100110
00111101111011011110110010101010
00111101111100101011110110010011
10111101001010110110000111011000
00111101001000111011001010010110
00111101001110110010001101110000
10111110001100010001100011001001
00111101110000011001001101101001
10111101111110011110001001011110
10111100110101110001010011101100
10111110000010011001101010110110
00111101011010100011011111111100
00111101100010110001111101110111
00111110000000000001010111101011
00111110000100010100101100110011
00111110000110011110001000010011
