10111110001011100100111110100010
10111101100111011100001110110001
00111101011101101000011111010010
00111110010000000100000001011100
10111110000110100001101011000110
10111011011010001110101101011010
00111101101001010011100011010101
10111100101110101111110010001000
00111110001001100000011011011111
10111100001001101101011110011111
00111101100100000100101000010001
10111110001111100000010010000100
10111100101100010001101110101001
10111101011111101011000010110110
10111101111011101011010100000100
00111110000010000010011000111000
10111101011000100101011011010010
00111101010100101101100001011110
00111110010000010001111110011100
10111101101101010100001010010011
10111101100001111111101011101011
10111110001000101111010110001000
00111100110000111111001010101011
10111011100110101111110110000011
00111110001000000000100001011101
10111101001100101010010110110000
10111101100110011000101000010100
00111101110101111010000111011000
10111101101100101011010000110110
10111110001100010010100101100001
00111110000110000100010110111001
10111100011011110011001111001010
00111101001010110000101011101011
00111101110101001100010001011101
00111110000010000010011011001111
10111101111011101000001100001011
10111100111111011010111110111010
00111101111000100101001010011000
10111001011000011000000110010101
00111110010100001101101000100011
00111011101101101110101100100100
10111110001001110001010111011111
00111101011010111000110111011010
00111110001010010010010110110100
10111101100010001101001000111010
10111110010000001000100101000100
00111100111000111110011011011001
00111100110111101011010010001010
00111101111010100001001010111110
00111110001101101000010100100000
00111101100110100110010010000010
00111110000100011110000101110000
00111110011001000010000000011000
10111100001111111101010100101110
00111100110000001101011101010010
00111101011001011000000111011100
10111101111101110010000010110111
00111101111100000001101111010110
00111101101001100010100100100100
10111110000101000101011110111001
10111101011000100101110001111001
00111101001001111010100001010011
00111101111110010110110110010001
10111100110000100101000101010101
00111110000111001010110001110000
00111100110011101100100101001001
10111100011000010100110010111101
00111101100111011010101110000100
10111101011000010100111011100111
00111100100011101011101000100001
10111110001011111100011110011011
10111100000001011001000110110100
10111100110100001001110001010000
10111101000001001111000001000001
10111101100001011001001110010101
10111110000110101001000110100111
00111110000110101010011100111101
00111101010111101000001000010101
10111101011000000100111110100101
10111101010010101010101001110011
10111110001000011101101011011110
10111101000000110011111011001011
10111101100011100011111011001011
00111110000111100010110000001001
00111101000010100111100111001111
10111101110000001111100001110110
00111101001011011101010001001111
10111110001010001110110011010101
10111101011011000010010000011100
00111011110101111011001110000101
00111101110001011110011010110101
10111101111001000101001101000111
10111100101000101100101111000000
10111101110000010100000010100101
10111110000010111001111001100010
00111110000110101101010110100111
00111101010000110010010010011000
00111110000100010010100111010100
10111101100110010010101011111000
00111110000100101011001101100000
10111101000000100010111101000011
10111101000010011100011010101011
00111101101000000000110001110110
10111101110001101000110111110100
00111101110100000111110001110111
10111101000011101110111000111101
00111101101001011100010110000111
10111101011111101010110000100011
10111101111100100000010101010111
00111101111100011110001010100000
00111100110010101111001010111000
10111101111011100000010011000011
10111101001110010111111001101101
00111101101011110010001100100100
10111100110100110010101000011000
10111100101111100010011011000100
00111101011010101110000011000010
10111101101011000011110000011111
10111110000001000111010011010010
10111101101101111101011111110111
