10111100001100100111010010010011
10111101100111110101000001001101
10111101010101001011010101111111
10111101100001001010101111101101
00111101101011101100010101000011
10111101001010101010101011111111
10111100101000110000101111111101
00111110001010001100101111111111
10111110001010010000110110110100
10111110000101111010000010010100
00111100011010011011000001001000
10111101011100000100100101001111
10111110001100111111100001101110
00111110001100001000001011111110
10111100111010011001000110110100
10111101010100000110010000011011
10111101111101001110101101111101
10111101111000111110010110110110
10111101000010100011001110111010
00111110000000001111011001010010
00111101011100000010011000001000
10111100101011110010100111001010
00111110000010101000011101111000
10111101001001001001111000111110
00111101001111101001100000100101
10111101100100001100010100011111
10111101110001111010001010001010
10111100110000111111100010111110
00111101100101110001011101101001
10111110001000111110000001110110
10111101100000000010101001011110
00111101001111001110111111100000
00111101111110101010001101111000
10111101011100101000000011000110
10111110000010101001000100101111
10111110010000110111110001110110
00111101101101011010100000100101
00111101001111110010101010001000
00111110000110110111011000000011
00111101101010011110010001000110
10111101010011101110101001010100
10111101101010001100000001010100
00111101000110011111110011110111
10111101100101010010100000111010
00111110001000000101000010111101
00111101100010011101010111111000
00111101111101100111000011110010
10111110010010110010101011101110
00111110001101011101000111011000
10111101110011110000110101001001
10111101111100100011001011000010
10111100110111001110100110101011
10111110000011111101000000011010
00111010010010001001100111011111
10111101111000110010011110100000
10111101111011011000110100100000
10111101101011110010000100101111
00111101011101001101111011010110
10111101110011000000000101111010
00111110000010101000100001010100
10111101001011011011010100010011
00111100100110111110001101100110
10111110000000000101100110101001
10111110000010111000010001000100
00111110000011101110000111100011
10111110001000110011111010100010
10111100111111001000010101011001
00111101111110001101010001110101
00111101100110001101101011100101
00111110001000111001011010110000
10111101101100010101011000011011
10111101100011001010101000010100
10111101100110011101111110111111
10111101101110100100101100111010
00111110001100011101101001000110
10111100101010101010111111100001
00111101111001101000101101001111
10111100101010001111001110111001
00111101110001000001000110110011
00111100011111111011101111110010
10111110000011010010010110000101
10111110000010011000000000100100
10111110000000000000111111111110
00111100111001010101000010100000
00111011110110001111001000000001
00111101111011001101101100000011
10111101101101011001011100001101
00111101100001011110010111101010
00111101100110111111101100000110
10111110000100101111010010110001
00111110001100110010111110000111
00111110000111000000001110000010
00111100110101011100010010011001
10111101100111001010001010011110
00111101100001001111110111000110
00111110000010010100011001010101
00111101110101000110100110111101
10111101000100000001100100000101
10111101010011111001100110111111
10111100011011101101100100110100
10111101100010111011000111100000
10111101001000000010001011000001
10111101101100001111000000111101
00111110000111111000110011101001
10111101110010110101100101110010
10111110010001001001110110111110
10111101101100111111111000010010
00111101001000100011101100011110
00111101110000111111110001111111
10111101010010101001000110011010
00111101111100100001111010011010
00111110000010111110010000010001
00111110001011101101110001101101
10111101001011110010010001000000
00111101100010110010110010010011
00111101000100010110111110011101
00111101000010110110010100010001
00111101001100100100101010011000
00111101110110011011111100111001
10111101101001101111001010101011
