10111101100001001000011011001010
00111101111111110010110010011001
00111110000110101100011100010101
00111101100011001100111100101000
10111101001101010011001110011111
00111101100110101111111110011011
10111110000111000101111000110110
10111101011011011011110001010001
10111101111010011010100101101100
10111100110110010001110101101001
00111101110011101110101101001011
00111110000011001101001000000110
10111101100010110000100111111000
10111101111111011100110000110110
10111101110011101101101000010101
10111110000000110000010011101010
10111110000101001011110111000010
10111101000111000000101010111011
10111101101010110010101000110111
00111101110101100001111110110100
00111101101111101111101011111110
00111100011100010000011001000111
10111110000000101100110001001100
00111101100011101000010101001100
10111011001110100010010011001010
00111100101100001100010010001001
00111101110010111110100010101011
10111101101110000001010001101100
00111101101011100110011001100110
10111110000101001001010111011000
00111101100111101101101000101100
10111110000001001110000011010001
10111101011110000100000010101111
00111110001111010000110010100001
10111101110100111111011000101101
00111100000100100100101010101001
10111100010000011111100001100011
00111110001011110111001001011111
00111100110111110011001001101100
00111110001011101001001000100100
00111101110100101001000001011101
00111110001001010101100001100001
00111101101010000011010110000101
10111110001101110010000010101001
00111101101110110100110000101110
10111101111001010101011100011100
00111110000101011110010101101001
00111110000101001101011110111101
00111110000111111100101011011110
00111101100101101111100001110011
00111101000110110001110110001101
00111100100010001010111000100111
00111110010010111100101010100101
10111101110000001110010101101101
10111110001011110000111110100111
00111101111101001011100110100101
10111101111010011010011110111000
00111110001100001001000101011001
00111110001100000011111110010000
00111101011011101110001101010001
10111110000110110100011100011101
10111101111101010100101011101011
10111110001011100110000101100100
10111011110000011001010100011100
00111101101001100111111111000011
10111101110110010001111001000001
00111101110000101100111010010110
10111100101110010010111100010101
10111101010111001100000100010111
10111101100110101101101001011001
00111100011000100000111001111001
00111110001101010011011111111110
10111101101011110010001000100101
10111101101011111110000101110110
10111101110101111101111110011110
10111110001101111101010011100010
00111110001100100101110111100101
00111101101100000111110010100000
10111101000101011001101000000000
00111101111011010000010101001111
00111110000100100101011011010111
10111101110011000100010000101111
00111110000110100111101101010010
00111101000110011100010111110100
10111100110000011000110010111100
10111101110001011101101001001111
10111101111100000100110111001010
10111011101011010100110100010011
00111101011111001100010111010101
00111101010000010100011110010001
10111101110111110100011100001000
10111110010110011001100011101001
00111110001110000011011011011111
00111101101011101000011011100101
00111101110001000101110010101001
00111100001001011101001000100110
10111101001101111001010011010010
10111110000110000111100110011101
10111101100101010111101101010110
10111101101011101010000101010100
10111101111000011101011000111101
10111110000001100111011011011101
00111110000111000010000100101011
00111110000101100011111000111000
00111101010001000000100111100110
10111101101100110100111100111001
10111100100101011000110101100101
00111110000100111000100000111010
10111110000100101110100010110111
00111101101011001000111010000110
00111100100110011110001000000000
00111101011110101111011100110001
00111110000011110010111011101000
00111100000111111010101010101001
00111100110101010100100011010110
10111101101011000000000100000110
10111101100000110011101000101001
10111110000010100101001000101110
10111110000010101110010000101101
00111101100111110010010010110100
