10111101111101001010110010001101
10111110101000101110111000110111
10111101000010111011010011010010
00111100100000010000110111101010
10111110011000010011111101110101
00111110000110110101011110010100
00111101100011111101010000111101
00111101100100110111010001010010
00111101010010110101000111000111
10111110001010100101110110010011
00111110000001101010110000110100
10111101110011010111001110011110
00111110001101010000001100111101
10111101001000111110101110000111
00111110000100110111011111101010
10111101101011100111011101010111
00111110100101111011111000111111
10111110100000010000000001000110
10111110101100100101111011011100
00111100011100111001101111110110
00111110101001000001011001000011
00111110001110111101111110110111
10111011100010001111110110000011
00111110000001011100000001110000
10111101111010010110110110110001
00111110001110101100001010101011
00111110010010100110101011000011
10111101110000100001101000100000
10111110011001010001011110001101
10111101111110010001100101001000
00111110100101000000110101110010
10111110000001100101001001110000
10111110000110011010110100110010
00111110010110011010110011101011
10111101110110010100001000011110
00111110100001000110101111110000
00111110010110010111110011100000
00111101101010000101110011000101
00111110000000001110100100010101
00111110100111110010100110011000
10111110001100100100000011111100
00111110100101011011111000100000
00111101010000010111011001111101
00111110001101101011110010111010
10111101100011100111100111100011
10111110100110001101111011000110
10111110100000110110000101110000
00111110010111111111111110011110
00111110000100100111101001110010
10111100110100000010110101011011
10111110010000001000011000101111
00111110000001111101000101011000
00111011110100111111011101100111
00111110010110111011101000001111
00111110011011101001001011111011
10111110001101100010110001110100
10111110011101100111000100011100
10111101111100111000100100101000
00111110000010011101010100001100
00111110011001010111111100100111
00111110010010010011000110111110
00111110100010100011010001001011
00111110010000101100110110011100
00111110001100010100011000110100
10111110001000000101000101011010
00111101100111111000011010101101
00111110000000100110110000001001
00111101111011011111010011110111
10111110011111101101110010110101
00111110100010000000010111000100
10111101111001000000101000010111
10111110010110010110001000111001
00111101110100101100110111011110
10111110001100101010101001011111
10111110000010100000011100011110
10111110011100100000001111000001
10111101111100101100101101000110
10111110100000001101000001011111
00111110011111111110111000110011
10111101111111110101010110111101
10111100101011001111011111011001
00111110000010010011101010101111
00111101001101000011000011101001
00111110011100111011100010011000
