00111101101101110110010000110011
10111101010100110000110100000010
10111101000100000000011100001100
00111101111111111110101110010100
10111101010010101011101001100110
00111101101110001000010111001000
00111100110100110001101011010000
00111101111000001011000101100011
10111101100001001011111111001001
00111110001000101110111110010011
10111110000000100111000001000101
00111100001110000110000101110001
00111100110111111011100001011101
10111101100010101110010011101011
00111101101111110000100110111000
00111101101000000110100110110000
10111101101001001100111101101010
00111110000101001001111100100101
00111101111010010111101001010100
10111101011101100000110000101111
10111100101101111110011011010010
00111101111101010100011011101101
00111100101101011000110100111000
00111110001011101110001110100000
00111110000000001111100100001111
00111101100010111111111111001111
00111101010111110011111001100011
00111110000011100110100111111110
10111101101010111101011010111100
10111101110100101001001011000000
00111101000000100011101010000100
10111101010111110000001101011000
00111110011010100010011111100101
10111101010011110000110001100111
00111001100110011000000000011111
10111101100101000000011110110001
10111101011101010100101100011111
10111101110110110001010110011111
10111101010101010110101011101000
10111101100100100100100111010000
10111110000110111011111010010010
00111110000101010111001010000110
00111101010101110111001100110101
10111101111111001110011011010001
00111101100100110000101101111110
00111101111100110111110100011110
10111011110101011001100111010001
00111110001000100111101111110010
00111101101010000010101101000100
10111101111010001010010101000000
10111101111010001000010111010101
00111011110100010111010101111111
00111110000010101110010000111100
00111011011100001111010011001101
00111101000100101001001001100111
10111101110110111111101010100110
10111100011100101011011000101000
10111101101011101101110110001001
10111011101110100100111011000001
00111101000100010011111111110110
10111101110001001101110101011011
00111110000100111001110011001010
10111101101101010110011000010110
10111101110110001001000001000101
00111101100011100000001011000001
10111110001110001001010110011100
00111101010000110010111011110000
00111101110010011101011111101111
00111101110001101010110111011100
10111011100111000110001101100000
10111101101101110000100010110001
00111101001001110100010010100100
00111110000011000001111110111001
00111101011000010110110010001000
00111010101001000011010100100111
10111101000101101101001101010101
00111101001101100100110110010011
00111110010001000111100111110011
00111110000001110011100000111001
10111101100110011100101001010100
10111101000010011101010011101100
00111100100101100101111110110000
10111101001110100001100101010001
10111110000011010000100010100111
00111010100010111101100000101011
00111011001101111001011101011000
00111101101110001010110111000001
00111110001011101010011000100101
00111101101001001111110000111101
00111100110000010111010101100111
00111101111000011001011101100100
00111110000100010100001011001111
10111101101000000101111000000111
00111101110111000100110101100001
10111110000000001001101000011011
00111101111101010001000010011010
10111101011011101111001100100010
00111101011111001100001110101000
00111101000000001110010101110011
10111100100110000000000011010001
10111101110011001111111111010011
10111101110001000011110111101010
00111110001000110010101111101110
10111110000100001011001000011111
00111101011011010100001000111000
00111101100001010000100010110000
00111110000011101000000001000110
00111101110110100100110010010100
10111110000001101110011011100010
10111100000000111011111101011010
10111101111000010011010010101101
10111101111101010111111110110010
10111101100011000000010000111011
10111110001011011110110100100110
00111110011000010001010001001100
00111011101110001100111000111010
00111110001110011101000100110110
00111100001101111100000101000011
00111110001001111001000010010011
10111101100110010011010000110111
