10111101110011110001100001101001
00111110000011101111011010100000
10111101100101111101110010110110
00111010110111011111011111000110
10111110001110100111000111111101
10111100111011110101010101010011
10111101010101001101110000000100
10111110001001001110101011101010
10111101000010000111111111110111
00111101111111101010100100101000
10111101110101010101101111001011
00111101111101110011111011001101
10111101000101010101110110000101
00111101110110101100000111110001
10111101100011100100100110101010
10111101000101011110011001001011
00111110000100000010001111110000
10111101101100110010111010101111
00111110000000101011111110011100
00111101001000101100010100001101
00111101100001010101100011100110
10111101111001110011000001010001
10111101111010101101011001100101
00111110001000100101011011010011
10111101011101010111110111101101
10111101010001111011010000000101
10111101001101101110100101000001
10111110000111100000010010111101
00111101110100010111110111001000
10111101111001111001101100000011
00111101111110100111100010011010
00111101000011001001111101000001
10111101100001000001111111110011
10111110000000110000100110010110
10111110000001111010000000100111
10111101000000111000010101001000
00111100111111110001011100111000
00111110000011100001100100100111
10111110000111010010110110000011
10111100100010111111110000011000
00111110000100111111011110110011
00111101000101110011001110110111
10111110010010111111110101110011
00111101111100111001001001010001
00111100110000000111001111011000
00111101110010110110000001111101
10111101111101101001111001111010
10111100010001000100001001100101
00111101111010001111011001111110
10111110000100100011001000001101
00111110000011100110101100111000
00111101111011101101100011000010
00111101101000100001110000001001
10111110000100001001110010011010
00111101111000111001110010101110
10111110001101101100101001001110
00111110001010010101010010111011
10111100011011111101100100111100
10111101110000111011110100010010
00111101000010101011011011111111
00111101000011100001011000011000
10111101001001011110110101000111
10111110000011101010100110100100
00111110001000110000000111011111
10111100101111001000100001000111
00111110000011101011000110011000
00111101101101001001011001011000
00111101101001111001000000110101
00111110000011011101101101100000
10111101101101110100110100100011
10111100010111000000110001011010
10111011100001101110000110111001
00111100010100111111101110100000
00111101101101101011111101111011
00111100001111010000000010100111
10111100111001101001101111010101
00111101001000010011000111111110
10111101100110111111100110100000
00111101101001011000011001100110
10111101100011001101001101011001
00111101110011111110111000101001
10111101101100100100111011011100
00111000101111101011001001001011
00111101101101011011111110001100
10111101110101011110011110011110
00111110001111000110001101111101
00111101001000001100100101100000
00111110000101010111111110101000
00111100101101110001001111101111
10111100100100001010010011001101
00111101111110101000110000100101
10111101110000111001000010110011
10111101001110100111001111010101
10111110001100000111001000111100
00111110000000010111110100101010
10111101111101100000100111010111
00111101110111010100011001110111
00111101011110001000110001101101
10111101110011111100010110101100
10111101101110011011010101000011
00111101100001010001011010010100
00111110000001100110110000101100
00111101101001110010111011100111
00111101110101001010000001011101
10111110001110110000000111110111
00111100010011010110110000010010
10111100110010101011101111010111
00111110000001110110000110001011
10111100100000001110101010010100
10111101110011010110010110000000
00111110010111011101011110111111
00111110000001110001111111100101
00111101011000000111101100000110
10111101111100001100010101001111
00111101111110001000100110101000
00111011101011111111000101010100
10111100010100111111011101011110
00111101010010010010001000000101
00111101110011011100111011111011
00111101011111111001101101100101
