10111110000011101100001110111010
10111100111011111000011111000001
10111101100100011010010011110101
10111101101100011111011111111000
10111101000011001000001010011100
10111101111000101110100100000111
10111101010001101011011011110111
10111100110000001011010110001000
10111101111000111101100000110110
00111110000101000011001000000011
10111100011011000101101111101100
10111110001100001111000111111011
00111101111010011100111110101111
00111100001011001110000111101000
00111100110010100110011011011111
10111101111011000010010001000000
00111101111010111011001001010010
00111110000110110111010101101101
10111101110010101101110100001011
10111100001100001011101000101001
10111011101010100001101111011000
00111101010110010101111011010011
00111011111110001101001011110111
00111011000100001001010110000101
10111011000000001011110011001001
00111101111111000010100100000110
10111010111011010100001000110001
10111101001011110110101101111010
10111100001111000111001010101000
10111100100110001111011111011011
10111101111111111111000111000110
00111101001010110000110000000101
10111100101001100101101100000101
10111101100100111111001101110001
10111101000100111000110001011110
10111101101101110000101110110011
00111110001010100101001100110101
00111110001000110010111110101001
10111110000101010011110110001110
00111110001010100100111000100101
10111011100011101101011010100010
10111101100011110010011011010001
00111110000011010100001000101101
10111101011000000011101100100110
10111110000011010100100011011010
00111110000000111110110011111001
10111101100001101000100110100000
10111101101110111100010110000010
00111101100001010010010101101100
00111101011000000100100110100011
00111101011011011111100010011001
00111101011001000001001010000001
00111101110100100011100000100001
10111110000110010011011010110111
10111101010000111101101010100100
00111101111011000110101010110011
00111110000101111000110101000110
00111101110000000011111010010010
10111110000100001111101111100011
10111100110111101101000111100100
00111110000010110111001111101111
10111101110010100111000111110011
00111101111100000000101101001000
10111101001111110100111010010010
00111110001101000101000100010011
00111101110111101110001110001110
10111100011101111111110011001100
00111101101101101001100000101101
10111101011101111000100011000010
10111011100101100110101101011000
10111110000000101010111111011000
00111101111010110111000101100111
00111110000101010111011001001010
00111101100101101011111011111011
10111101001000110100001110110010
10111110000101010000101000011011
00111101101011011010001110100010
10111101101000000111000010111111
00111010000000100110100100001100
10111100110110001000011111111010
00111101011100010000010101010111
00111101100110001101110111110101
00111101000001001001100010001101
10111101101101111001010100000001
00111110000101010010101000111000
00111101111100001100001011000101
10111101010100001010010001110010
10111101110110011001011110100011
10111110000001100101100011000101
00111101110001010011011111111010
00111110000111111101110011001011
10111101110101000110010110001001
10111110000100010001001111110110
00111101011000100111001110001101
10111110000110000110101101000111
00111110001101111110010001001000
10111101001010100001010010110010
10111101110010111101000101111000
00111110001000001011001001110101
10111110001001000111000001001011
00111110001011010000000111101110
00111101010111001000001111100011
10111100001101110101001110111011
10111110000001010010101010011011
10111110000111011111111011110101
10111101100010101111110101000111
10111101101101100110011100101101
10111110000001010011110001100110
00111101100111011110011000000010
10111101011101100110101100010011
10111101001111011001111110010100
10111101101110100010010011001010
10111100000100011100001001001111
00111100100110000111011101110001
10111110000101111110101111001000
00111110001011111110100011101011
10111101101101010001000101011101
00111101010000100011111110110101
00111110001011001001010011101001
00111110000011100111010110111100
