10111110001000010010011000100110
10111110000000001000110110011100
10111110000011000011001001101110
00111100101100010000110100100000
00111101010101100011111001110011
00111101110111011110000111010011
00111101000110001101100001110110
10111011110000101001010001010010
00111101100011001010110110100111
00111110001000110001001000000001
00111101010001110100110000001000
10111110000110111011011101110010
10111100100101000001101101000101
00111101000010100100011010101001
00111110000000111100111101111101
10111110000110101100101110011011
00111011100100000101100001010011
00111101000010110101110010000101
00111101111100000101011000100111
00111011101110100010111111100000
00111101110010110110111111110011
00111101101000010100000110010110
00111110000011010011011100100011
00111001100100000011110011011010
10111110000010101011100011100010
00111101110010100011111011000010
00111110000010110101111110000110
10111101110010001111111011111000
10111101101001011010100000001101
00111101000001110101101010110010
00111101111001101011010110001011
00111101100010011000011010101010
00111110000110100000011100111111
00111101101110111101010111100101
00111100000100010001110011001111
00111100101111100100001001111111
10111110000010111000110011111011
10111101110010010101000110011110
10111011001110111110100100100010
00111101101000010100011111110010
10111101000101110011100011100110
10111101100001100110000110001101
10111110000001110100100110000010
10111110001001011011101001001110
00111101100101000100011010001110
10111110000011110110111010100001
00111101101110010110110001011011
10111101001010101011010010100001
10111101101100001011000110100011
00111101100010111100110000000011
10111101101011101011101011111001
10111110000100111000011000101110
00111100011011100010110100111110
00111100101110101110110010111001
10111100101001001001100000110100
00111101110011110000000010000000
10111100111110010110001011110011
10111110001010100000001100000100
10111110000011110010010101001001
10111100110110111010110111011011
10111101011010010110011111001011
10111101101110011101000100100010
00111101111110100111101000000000
10111110000011101001110100001000
10111101110000010110110011010111
10111101011010110111100001000001
10111110000101101111000111000110
00111110001010111110010001001111
10111101100100011000000101010010
10111101011010010011110001101110
00111011110100111111000101111000
00111101101110100010101100000100
00111101011100010111010111101010
00111110000111001101000000001000
10111101000111011111111010001011
10111101010001001000101010010100
10111101101100101111110101101101
10111101101001010010011000100000
10111110000000101011001000101010
00111100110000110100000000011100
10111101110000001000011110001000
10111110000010101001100001000001
00111101011110000001110110000010
00111100110110111101101010001011
10111110000100111110101111010010
00111101110100100000010111011100
00111101111001001111011111010111
10111100100100111010011111010011
10111110001010100110001011101110
00111100110010111000000110001000
10111101111101000110010001011010
10111101111100100111110110010110
10111110000110100111111011101010
10111101110010001100101011011111
00111101011111000100001101011010
00111101110111000111001101110101
10111110000101111001000101101011
00111100111001001000110010101101
10111110001001000100001110100111
10111101110101011000110000010001
00111100111000010000100010000110
00111101010010001111001001111011
10111110000110011001110110001001
10111101101011000000101111111000
00111110001000010011010010101111
10111101011001101110111001000000
00111101001001100001101010011100
00111101011101110111100000101111
10111100010001001011001010100001
00111101101010110011111111000010
00111101101110010100110101000110
10111101000100001110101111010101
10111110001010001101110011100001
00111101111100001101001000011011
00111101100010100000101010001011
10111101101011000000010101110101
00111101101100100100110010011100
00111110000000010100101100010011
00111100111000010011001110011101
10111101100110101110011110100110
