10111101011000101110101100100011
00111110100001001111110101111110
00111110011111000100100000001011
10111110010100011101100001000010
10111110000010110000111111110111
00111101001110001000100000111010
00111101100010001000011000011111
00111110010011111111001100000110
00111110001100100111000011011101
10111110011111000110001001000111
10111110010111011011010001111100
00111110011110001001010100001110
10111110010101010010010001001111
10111110001110110010011101100001
00111101111000011001001010110011
10111101010101000110011010010101
10111110011110100011000111100001
10111101100000101011111100110110
00111100001100000011100101111010
10111100101010011100100010011111
00111110100000111101000010100111
00111101101011010010110011001010
00111110110000010010010010111000
10111101100111101111111110000111
10111101101110010000010100101000
00111110001011001111000110100010
00111110100010001000101011111111
00111100000000001110111100110010
10111110100101011110011100110111
10111110100001110110101011110001
10111110001000111100000010110011
10111110100000111110011101100001
10111100110000101100001111001010
00111110100101001001110011100001
10111110000011111110111100111010
10111110010010001011011001011101
00111100100000011000101001010110
00111101111001011100111100011111
00111101000000000010100001011101
00111101010110000001001101001000
10111101101000100010100011101100
10111100010101110000010010100101
10111101100101100110110100101011
00111110101100101100101000001101
10111110010100110101110100111011
00111110011000011111000110100101
00111100111100100101110110000010
00111101101101110101110000100000
00111110011000001110110000101110
10111110100101000011111001101001
00111110001101010011011111111111
10111110000000111101110010110111
10111110000111000100000101001100
00111110000100111110110010110110
10111101110111001101001110010100
10111110000011000100011101011110
00111110001011000001001000110111
00111110100001100001000000110100
10111110010010110011011110100001
00111101100101101111100100011100
10111101010100010101011101110001
10111110011001011011110001100100
10111110011000001101001000111010
10111110001000001000001101000111
10111101100000101101010110000110
00111101111110110001100101001001
00111101111010110100000010110100
00111101110100000010111001110111
00111110101001111001100110110100
10111101101100100100001111000000
10111110010111011010110111101011
10111100100101111010110110001100
00111100101111010010100110000100
00111110100110010011000000100011
10111101100010111010111101000110
00111110000001011111010110101001
10111110101101100010111011101000
00111101111000111010011011110101
10111110100111011101101010101000
10111110010010000001010100010000
00111110100000100001100100101001
00111100010110111100000010011011
00111101100010001000010010000000
10111101101111001000100001001001
