00111110001001010011010100011100
10111110001010111111001111101100
00111110001001101100101000111111
10111110000011010011010100111111
00111101100001010001011000100110
10111101100111001100001100101100
10111101101100101011001111110001
10111110000000101101010011010111
10111101010110001011111100101100
00111101111001010010011000001111
00111110000101011010110010010111
00111110001011101001001111111101
00111101001110011001101111010010
10111110000101101010100010011101
10111110000100011001010011100100
00111100100011101001101011100110
10111101101000100110001100100000
10111101100111011000111001101010
00111110000101111000000101011110
10111110000100000010010111001101
00111110001010000110010010100010
00111101000011111001100100010001
00111110001001010110001110101010
10111101101101000100001010100000
00111100101111100011100101111101
10111110001000011011001111001001
10111101111001011011101100011001
00111110000010001010110110100000
00111110000110100101101111101110
00111101100110000101110011110000
10111011010000001111101010100101
00111110000111101010010001000011
10111101110010011101110111100101
10111110000011011101111011001000
00111100101000111100011111111000
10111110000101000101110000111000
00111101001100101100111011011001
10111101100110001010110001100001
10111100100000010011110011011110
10111101000101000110110100001100
10111101100110110001010011111100
10111101011100101111110101010000
10111101111110001001011000100000
00111101111101001101010000010110
10111110001000011110011100110110
00111011100100100111100111101010
00111101100010100000100000000111
00111101100110100000110011010100
10111110001011001101101000011010
10111101101101000111111111000101
10111101100000111101101011111111
00111101000101100100010110000001
10111101010110011011000000001111
00111110000010001011111000010110
10111110000010100111110111001000
10111110000110011000100111111101
00111110000100010010111000011010
00111101101000001011101011011000
00111101000100111001010001100110
00111100110101101001110001100000
00111101101010111011011111000101
10111110000110000000000111010001
10111110001001101111100010000100
10111100110001011000101110001011
10111101100111000101111010010101
10111110001010010100010010100100
00111101101111001111110000100001
10111101100011100000000011011100
10111110001010111011100100110111
10111101100100010110100111110100
10111011101111100000100000111010
10111101101110011011110011111011
10111110000100111010000100101110
00111100010000010010100001110111
00111110001011000101010110000000
10111101011100111010100000110010
10111101101000101101010011101001
10111110000101001110010001001110
00111110000000100110111011100001
10111101100010101000111001100101
10111100100001001011001101101110
00111100001011110001000011111001
00111100100110100001011110110111
10111101001001100110101000100010
00111110001010101100000010000111
00111101100111010111010000111101
10111101010011010100000000100011
00111101101000110101110001000011
00111100110000111010100011010111
10111110000011000000101101011110
00111110000111111010101110010101
10111110000101101110000010001011
00111110000111110101000011111101
10111110000000100011101111111001
10111101101010101110101011100101
10111101001000100011011011011110
10111100010100101001011010011101
00111101011111111101101011101110
10111100111110010011100010100001
00111010100011101010111001110111
10111101110100011101111001011100
10111101111111110111011001111101
10111110000000101110101110011101
10111010111011001001011101010110
00111101010111111110010011111000
00111101110110001010000000001100
00111110000100111000110011010101
10111101100001010000000110111000
10111110001011010111110110100101
00111101110100011101000101000000
10111101101100111011011100110111
00111110000100001001101000110000
10111101100010101000100101001010
00111101010001110101111110000111
00111101100000011010101110100100
00111100100100101010001101100100
00111101000010000010100000111010
10111101110101111100001101010110
10111011101011001010010100111010
00111101100110000101100101110001
