10111100110000000010101011011001
00111101001111000000100111001001
00111101111000000001000101101010
10111110000000111011001110001100
10111101101111110011101111111100
10111101000011110110000111110010
00111101001001000100101110001011
00111101101010101011101011100111
00111101000111000001110110110001
10111110000110000110110100010111
10111101111100011001110001010110
10111101110110100100110101101001
10111100100101110011011011110000
00111101110001000001010110010101
00111110001100110001011100001110
00111100100111111000010001001101
00111101000010010010100101011110
10111110000100101110000010111110
10111101111000011101011100000101
10111110000101101111101011010010
10111101101000111111001010100100
00111110000100000010101001000010
10111101100001111111100100010001
00111100100100001111110011010011
00111100011110011011001101101111
00111101101000011001010101011110
00111101111011101110001001111000
10111101101001111110110001010110
00111011111011100010111001111100
10111101000101010101011110010010
00111110001010111000011101110011
10111110001010111001111100100101
10111101001101001101001110110101
10111110000111101101011110111110
10111110000011001010001101100010
00111110000101011000011000100100
00111110001010101101001001101000
00111110001010011101010001110110
10111101101011001011010000000011
00111110000010100111000111111101
00111110000001001111101000000111
10111101111010000101000001000110
10111110000011111111010001011011
10111101001110000100011010000010
00111101110010111000100011001110
10111101001101000100001001101101
00111101110110101010100001001000
10111100000101001100111100100001
00111101111000111101011001111010
00111101001101010001011000110000
10111100110011011011111101010011
00111101100110111010011101101110
00111101010010100101100010111000
00111101000011011111100100101100
00111100100010000010101110011000
00111100000111100110011111101101
00111101111101111110001101100110
00111101100011001001100000001111
00111101111101100000101001010101
10111110001000111110000011001110
00111101111101010100001001000011
00111110010010111111101000111100
00111101101001100010101011010101
10111101100100110100101101110000
00111100101011110111010000111110
10111100001101100100100110100110
00111110000001110110101111101110
10111101110001000010001001000111
00111101100101111110001010011010
10111110000110001011011010110000
00111101111001001110101111111101
00111101111001101001000111110100
10111100110011011010100011001000
10111100001111001101101100111111
10111101011010011011001010010001
00111100010001000110010011010010
10111101011110010100111010101111
10111101010100110100111000001101
10111110000000011001011101011101
00111101111100001001111000001001
00111101110010110100110001111100
00111110001011111110110011010001
10111101011011100100111100010100
00111101111000100100110011000111
00111101001101011111111101010000
10111101010110100010100011000110
10111100111011000000000100101110
10111101100111000001000100001010
10111110000000000010110011000110
10111101011101011010010110111110
00111110001001011110111011111111
10111101000001101000001101111101
10111110000101100001110011100010
00111101111101110000000000001110
10111011000101111011101001011110
10111101000011111100010010000000
10111101111001011010001110110110
00111100011110111100001011011001
10111101111010100001100100000010
00111110000100111110000101100100
00111110001011111001001111011010
10111101100001001000100100111000
10111101000011101011101100000110
00111110000100011011101000000001
10111100111001101010100011100000
00111110000001111010011000100111
00111110000100011000100011100000
00111101100111101100100010101110
00111101010110011001000011001001
00111110000010100111111011111010
10111101000000100110001101011000
10111100010101111010010111100010
10111100101011110011011000001001
10111101111101100010101101101100
10111100111100010111111010001010
10111101100110110100101100111000
00111101011000000011110000101000
10111110001011011110011011110110
10111110001100101110001101101001
10111101111001010111111110110101
