10111110000000010011101000101101
00111100101001111010110111011001
10111101111010010111101001111110
00111110001001111101101101110011
00111101001000000110010000000110
00111101010101110001110000001011
10111101100011111011100001110111
00111100001111100000110100000111
00111100101100100110000000010110
00111110001001011110000011010001
10111101101001011011001000010101
00111101101000110011101100101000
10111101100111011000001011111101
10111011110100100101000100010010
00111101101001011111001010011100
10111101110000101100001111010011
10111101001110000100011000110110
10111100001001011111101011100011
00111100100001100011101011010000
10111101011100000010010011000110
10111101100010010101101010110010
10111101100010001101010010000101
00111110000100110111001110101101
00111110001010011001101101100011
00111110001000000000100000101011
00111110001001101101110111100111
10111101111010001110010100100011
10111101111011011100000010110001
00111010111111111101001010000011
00111100000110100101001010111111
10111100100100110011000001100000
00111101110110011100000111100001
00111110000010111001010010100010
10111101110110001101101010101011
10111110000001010111100100000111
00111101110010111000000000001101
10111101100110001110100110001001
10111101100010011011010011001100
00111110000101011010111011011011
10111101100111110110100001000100
10111100100000011101100001010010
00111110000101111001100011110101
10111101101010000001011000010000
00111110001001110000011001000011
10111110001000001010001000110000
10111101110011110100100000110101
10111110000010101100001100010011
00111101110000011001111000000101
10111101110100110000100001011011
10111110000000000001001110010000
00111101100000111101000101011000
10111101101111001101101010100010
10111110000000100000110000101010
00111110000110010110010010001111
10111101010001001110101101100110
00111101101101001101010011000000
10111101110100111100101110001011
10111101100100110101001000010101
10111101000101000011011111100001
00111100101001110101011000110011
00111101001100100111010011010100
00111101011111111110111101000010
00111101111000100011111011011001
00111101100100010010001001111000
00111101110110001100100100010101
10111110000000100100101111100010
00111100101110110101101100011010
10111110001010010011010110000011
00111110000001011101010001000110
00111110001000001111100101111101
00111100100100111111101100010000
10111101110001110001100000101010
00111101111001010101010110010110
00111110000101110100110100101011
00111101001101110111011110110010
00111011010100101010110011101100
10111101010110000111100111110100
10111101001110011011000010111010
10111101100100101111110011100101
00111101101001001110001100010111
10111101110111000011101100010101
00111110000010110101011111010111
10111100000100111111011011001000
10111110000110101001111001111100
00111101111010100100011011001111
00111101001111011111111101101101
10111110000000110011111110111010
10111100101001000010011000010001
00111110000110101001010100110110
00111110001000100110100101011100
00111110001010001011001000110011
10111101101100100001010011001010
00111110000110101111101111010010
00111101001101011111110011001111
10111101111010010111010001011011
00111101011000111101010010110001
00111110001011110001110110101101
10111101010111100110110011100101
00111110000110000000001110100111
10111110001001011010101110110010
00111101010110011101010110001001
10111101100110011101101000110000
10111110000010110000111000101010
00111100101001011100110110000110
00111101110010110011110110001010
00111011000101010010001100101101
10111110000110100010010010001101
00111101000110110111111001110100
10111110000110000101001110000011
10111101100001011111001001011011
10111101000000011010011101101010
00111101001001111110100111110000
10111110000011011010101101010001
10111110000000101010101000011111
10111110001011011101110101011101
10111110000000010101110010100011
00111101111101101000001101111111
10111110000001110101001100011110
00111101111011101110011010100100
00111101111001111100110100010111
