00111101100011001001010110001111
10111011110000100011110111110110
00111101010011101011110011000101
00111100110010110101011011001101
00111101001000100011100101100101
00111110001010110011101001000001
10111110001110111001000001101101
00111011000010100110000111000001
10111101100000000100101000101100
10111101100111001110011110001000
00111101101010010011111010010101
00111101100010010101110110000010
00111101111001100101011110001110
10111101111001001000000101010010
00111101100001010000111001110000
00111011100001100101110001111111
00111110000110010011011100001010
00111101001110111110101111110100
10111101001101110111101001101001
10111101110000111100010100110110
10111101000101001000100101110000
00111110001010111100011100110011
10111110000011110101101101101101
10111100001000011100100111101001
00111101111101000100110110011101
00111101100101000000000010111101
10111110000101101111111101110010
00111110001010001111001100000001
00111101111000110011101010110111
00111100100110100011000000010111
10111101101101101011110110001110
10111100101001111100010101000101
00111110000011001001000010010000
00111101100011010100101010000100
00111101010110100100000111100000
00111110000010101100010001101011
10111110000100000010000101011110
00111101110001011110011110110010
00111101100101100010101110100001
00111101111000011110101010101101
00111101001011111010110000100000
10111101001011000001001010000011
10111101111101100111001101000110
10111101001000100101010000101110
00111110000001000010001101011000
10111110010011000111110001110110
10111101111110010000110011010011
00111100100100110110111010000010
10111101100101001011000100101101
00111110001000000100010010101010
10111100000000100011010111011101
00111101101001101001011111000010
00111100100111100100111010111001
00111101001100110100111100111110
00111110001011100000110011010110
10111101011011100100100000100010
00111101101111001000011111101000
00111100111001110010101010101111
10111110001010101100001100011101
00111110000111011110000001001110
10111110001101110011010010101001
00111100100000111110001100100110
10111101101001110010000110101110
00111110001000101101101010111100
00111110001100100101010011111110
10111110000001011000010000000001
10111110001000101011001010000001
00111100111100000001100100101111
10111101101100001101110001101010
10111101001101100111011110010000
00111101110001000000101011100101
10111101111010010000001111100010
10111110000100010110011100100001
10111101100000110111011000100000
10111100111001000110101100110001
00111110000111000011010001101001
10111100100101011000101101100111
00111101100011101100101011010010
00111110001010011101111100100010
00111100101001100110100011100001
00111110000101000110101110111010
00111101110101001011011100100101
10111101011111000000010110000110
10111101100000100010011001111101
10111110000010010110001011001100
00111101000011001010110111101111
10111110001001111000010011000001
00111101000001010100010001010111
10111110000101110010110001001000
00111100010111101101110111100010
10111101000110110100110001101100
10111101100100011000010111010010
10111101100001000000110011001111
10111101001111101111111001010000
10111110001100011000001100110010
00111101011101101010101001010001
00111101111011000100100100010110
10111101111110000011101011100001
00111100000001100100000010110011
00111100101111110100110101011010
00111101101111101100110000011100
10111101011001100110010010101111
00111110001100101001000111000111
00111101010010000111110111110011
10111101101010010011011010101011
10111101010001000001001010100001
00111101101010110010111011101100
00111101010110001010111111110100
00111110001111100010101011000101
10111101100011110000001000000001
10111101111101011001111100110100
00111110000111110101001010110101
00111101110001100001010111011100
10111110000111100010001111011010
10111101001110111100111011100001
00111101001010110011101111001000
10111110001100110100001110110001
10111101100000011111010110100110
10111101110111100011100101110001
00111110000101100001100101101111
