00111100010001010111100110100011
10111101101100010011011010101001
00111101110000001011000101000000
00111110000110111001000110101001
10111110000111001101110011110110
00111110001001011101001110001011
00111110000000110111011110011101
00111100100101010000101001001000
00111110001001000001010111011111
10111010010001110101110001011101
00111010011110111010001001000011
10111101110110111001110100101000
00111101110111011100011010111100
10111101001011110001011000111100
10111101010011001011111010000010
10111110001000111101010010101001
10111110001001110000000110011001
00111101110001000110010001101010
00111101111000000101001110001100
10111101011111100011110011101111
00111101110110111110110010100111
00111101001011110110111100010000
10111101101110110010001001000111
10111101011110011101011101001010
10111110010100000100011101001101
00111101001111010001111111000100
10111011001101101111011100111001
00111100100110111101111011001100
00111010001010100110100100111111
10111101100101101101001010010001
10111101100101100100100010111010
00111101010100001100100101001100
10111101111110110100001001110100
10111110000110011000101110000110
10111100110011100000000100001000
00111110001100101111000000111001
10111101101100101110110011101000
00111110001001100101011011001110
00111101100001101000100000110011
10111101100101111100111000101010
00111101100011011110001001100110
00111110000000001010101010010100
00111100100011100101101110001011
00111110000010010010100100011110
00111110001010001111000011101001
00111100000010100110011100010001
10111100000111111100111011101111
00111101000100110001111010110111
00111101101100100011111010000001
10111101110101100001000000111100
10111101101100100010100001111011
10111000100011101001101010010000
10111110000101011011111000001101
00111110000001001111100101010100
00111110000001000010101011100001
00111101110011111110000111100110
00111101101100011000001100010011
10111101100000100110110100111101
00111101111001011100010011100110
00111110000100100111110010000101
10111100011011101111010100111101
10111110000010011111010100100110
00111011111010010001000110011001
00111110000111101101100101001001
00111001101010000000111101101010
10111101110000111111000111110011
00111100111111100101110110111111
00111101011000000110010110110001
10111010101100000111000111100001
10111101101000110001001010000001
10111101111110111011111101111011
00111101000111001010100000001100
00111110000101111000011100110101
00111110010000001100001111001011
00111110000011011100011010000011
00111101111011101101111001110001
10111101001000000010100110010010
00111101100010100100100101101100
00111101001000110010010101100110
10111101110110100101100111100010
00111101100100100101100011100110
00111110001000110000111011010000
10111101101000001000001010000100
10111110001010110010010110111011
10111100110010011111100011101001
10111100111001011100000000001001
00111101001001011000000010100010
00111101001010000011110010110001
00111100000110101100100111010011
10111110000111001100001101000101
00111101111100100001000110001100
00111101100011010010101100100110
10111101100100011111001000100111
10111110001001111100011001000101
00111101101111110001100110010111
00111101111000100100010110011011
00111110001011100011101010100110
00111110000101101011011010001101
00111110000001001101010100110010
00111101111010111011011110111110
00111100100010001101001010011010
00111101100101111010111111101111
00111101110111100101010100000111
00111110001010101110111100011011
10111101101010010100101010110011
00111101010000001110010010111100
00111101011111010010110010010110
00111110001010000010001110110001
10111101111000000101001110000010
00111101101001100110001000011011
00111110010100011110111111110111
00111101011110111010101101101111
10111101101110010101011100101111
10111110001000010111010110100100
10111101011100101011110110011011
00111110000010001010010000100101
10111101111110110111011001011110
10111101110000000001001001111001
00111100101001110100111001001000
10111101010000101011001110111011
