10111101101010001100011011000110
00111101110100100010001000101011
00111101011110101011011100000101
00111100001000000010011000100100
00111110000000110011101000101111
00111110001100100010101010101000
00111110001100001111111111010001
00111010110000000010111010011010
10111110001100000011010101111011
00111101110000011110111100100010
00111110001100010001111000001110
00111110000110100010111010011111
00111101111010011010110101111001
10111101101111110111000010111101
00111011101011010111001110110110
00111011010111011101111110001100
10111101100000101001001011101100
00111100010101010100001000010000
00111110010011001011010110010001
10111110000001010111100101111111
00111110010101011000110000101011
00111110001010010100011101010100
10111101111100010011000011111101
10111101001111000111110000011001
10111101111100111100100001000100
00111101000010111011110010111011
00111101110001101010001101100001
10111101101110011010010001001010
10111101110000100001101001010001
10111101110011000010100100110100
00111100011101011111110001001011
00111100101100001110110101110110
00111110000110000110010101111101
10111101000001010010111101011100
00111101011111110101011100101110
10111101100011010011110011011100
00111110000001011100011101010011
10111110000011010110111011111101
00111101001001101110100011101101
00111101101000100101100000011100
00111110000100000101101001110011
10111101100111101111100111010000
00111101101001100100110000011101
00111101100100100100000000101111
00111101010000100001011111110111
00111101001100100111101100010100
00111101001000101100101111000111
10111110001010011010111101100100
00111101011110001100001100001101
00111101111100000100010101001001
10111100011010100110101011111000
10111101000101010010010000101100
10111110000110101000111110101101
10111101100100110110001011100110
10111101000110000010011100101010
00111010000001111101111100110110
10111110000011101001001100011111
00111110001001100110011100001010
00111110000001011001000111111010
10111101100001111011100101110001
10111100101100011100010101110101
00111100101100000110101110000011
00111101101001111000111010000000
10111101110000011101111111101001
10111101100100010000011100100011
00111101101011000010000100110100
00111110000110110011110100111011
00111010110001010001110111101101
10111101110001101100001111001111
00111100111010101001001011000001
10111110000100110111001000011100
10111101010010000011011010011110
00111110000000101011110001001010
10111100000111001001000110110101
00111110000010100111000111101101
10111110001011111011001011111101
10111101110010010000110011000101
00111101110111000011111010001101
10111110000011111101000001000101
00111011101001000110111000011111
10111101101001000100010110101000
10111011010110110100110101011100
00111101011111100000011010001000
00111101100000110001000100010110
10111110001101101110110100001111
10111101000011100111001011111010
00111110000101110111001101110101
10111101011100000111001110011111
00111011100011010110011011101110
10111101101101011001000011011001
10111101011000000111101010101000
10111110001001101111111101111011
10111011011000111101011111011110
10111100010100101000101010010010
00111100111101100001110001111111
10111101101110100100100100001000
10111110001100010001101010010011
10111101100101100110010010110111
10111101110011011101111100011100
00111101110010110101100111001111
10111101111111101000101100100001
00111110001011100110010001001110
10111100100101100001110000010111
10111101101100000001100011101101
00111101110110111100100110000010
00111110000000110010001011010001
00111100110001011111010110010000
10111011100010001100100101000000
10111100100011101100010111110101
10111101100001011101011010011111
00111101110001000010010101110010
00111101100011101001111011001000
10111101000100001101010101001000
10111101010111000000001111000101
00111101111011111100100001001100
00111110000100011101110100110010
10111101001000011111011110111011
10111110000011010001000000111100
10111101001010110111001001100000
10111101101010100000100110100110
