10111100001010101101011000111101
10111110001111001100101010111001
10111011011111100011001101110101
00111101000001011011111100000001
00111101010100100111110110001000
10111101111101001010110111001100
10111101001110110111100000111100
00111110010000110101000011100001
00111110001101111010010000100001
00111101001000110000000110100000
00111110001101101110101110110010
00111110011100001011000110011100
00111110011111011010011001111001
00111110010011011011011001101110
00111101100100010101010000101011
00111101101011100100100110111101
10111101100000111101001110111110
10111110000011110100101100101110
10111101100000010011010011011101
10111100110001010100101110010111
00111101001101111100111010101010
10111110010001000100001101100111
10111110010111101110111010100010
10111101101100101010001111110000
00111101000010011110011011001101
00111101110100101101110110110001
10111101101010100110010111110000
10111101011101100001001000001000
10111101110110001111010001101100
10111101101111011101000000011010
00111100111010111100110110001111
10111011010110000001010111111010
00111101010100001111111000101110
00111101000100101100101100100111
00111110000101011001110011001110
10111100100110111000001111110100
00111100111000010100011000110000
00111100000001100001000011101111
00111110000110100001111100110001
00111110000001111011111101010110
10111101101111000011110010101011
00111101001010000010111111110010
10111101100100011001000101011011
00111101101110000000101001010100
00111101111110001011110111101111
00111100001101100100001100100111
00111101000001001001001110001000
10111101100000010110101000111000
00111100101101111101110010111110
10111100101001110010000011011100
00111100100111101111110001111000
00111110000010101111011010100010
00111110000001100010010111101010
00111101110111101110101010011010
00111100101110111111011101000001
00111101100100111000011010100010
00111101110000001011100011110011
00111101000011000101101111001101
00111101110111111011000001000101
10111101111001100011110011101011
00111101110101010100001001101110
00111101110010100011001100000101
10111101110100010110111001001010
10111011100111001101111000010010
00111100110101000110010110110000
10111100011001101000000110100101
00111100101010101011110101111000
10111110000001010100101111010010
10111101101101100101101101011011
00111101000101100001101100110010
00111101000001001110101100001000
10111101100001110110110101001110
00111101100010010110011010000110
00111101101000111010100001101001
00111101101110011110100111010001
00111101010100000000111010101000
10111101011000110111110111100001
10111101110001100011100000110011
00111101100001011100100100010111
00111101100011001011000010011010
00111100111001010001000100000111
00111110000001000110010111101110
00111101100000000011001000101001
00111101111001100101000110111000
00111100001100001000100010100111
00111101110000001110100001000010
00111101000111001101110101110011
00111101001101110000010000000000
00111101101100101001110100110001
00111101101000011101100000101110
10111110000011000101000111000111
10111110000110000111011001011001
10111110000000111111010110100001
00111101100101001110111000011011
00111101010011000101000110010101
00111011101000100001011001111011
00111101101111001011011110011100
00111101101010101000010100100001
00111100111100001011111110010110
00111101100111001111000011000001
10111101010000111011100001000100
10111100111001010011101110000010
10111101011011001011001110010111
10111101010011001001010111110011
00111101101001111101101000001100
00111011111000110000001011110000
00111100110001010011010011001010
00111101110110111011011110101110
00111110010000001100010101000101
00111101101111111000100100011110
10111101001001111011100100110000
10111101010111010010001101010001
00111100101010110100001011000111
10111100010000111110100100110001
10111001000010010111011000110011
10111101010110000111111101001110
10111101011110110100010000010101
00111101111111011110010011100011
10111100100011001000110010111111
10111101001010111110111111110000
00111100101111000010000001001100
00111100110110010010100101101100
00111100010110110111011011100001
00111101001011110100111010111111
10111101011100011100110111110110
00000000000000000000000000000000
00000000000000000000000000000000
00000000000000000000000000000000
00000000000000000000000000000000
00000000000000000000000000000000
00000000000000000000000000000000
00000000000000000000000000000000
00000000000000000000000000000000
00000000000000000000000000000000
00000000000000000000000000000000
00000000000000000000000000000000
00000000000000000000000000000000
00000000000000000000000000000000
00000000000000000000000000000000
00000000000000000000000000000000
00000000000000000000000000000000
00000000000000000000000000000000
00000000000000000000000000000000
00000000000000000000000000000000
00000000000000000000000000000000
00000000000000000000000000000000
00000000000000000000000000000000
00000000000000000000000000000000
00000000000000000000000000000000
00000000000000000000000000000000
10111101010000001110010101111001
10111100000001010010100001101001
00111101101001110011111100001111
10111011101000010100110110111110
00111101101011100110101110111110
00111101101111011101000001110011
00111110001110011100110101010101
00111110011000010111110000000011
00111101110011001010010111110100
00111101110110000010100101111011
00111101111011110000001110101110
00111110000101111000111111000000
00111101101001110110011101100011
00111100001101101100110110010010
00111110000101011010010101011011
00111101101010010100110000001100
00111100110101100110001010110101
10111101110001011001110111000011
00111100100010010110001101110101
00111101110101001011010111001000
10111110001010111100010100100100
10111110000010000011011111011000
10111101011110100000011111110010
10111101101011101000110001111100
10111100101111011111000001010100
00111101111000011001010111001001
10111100110010011000011111100001
00111101100011101111110100011111
10111101101001000010111111000110
00111101110101110001001011100010
10111100100000000011001111111011
10111101011111011101100010010100
00111101110101100100101001111011
00111110000101110010111111101100
00111110010001001000111000101111
10111101000100011100101110000101
10111100101011011001110001111101
00111101111110001111001111001001
00111101100001010010111001011011
00111110000000100011100011110111
10111101101110110100100111100011
10111101111001000001001000001101
10111100111000111110111100000100
00111100111011010010110011000000
00111101100100111111011110010110
10111101000111001101000011011000
00111100100111010000001010000111
10111011000001110110000101010001
10111110001010111011011111010101
10111110000111111101100010111100
00111110001000101111110111100110
10111011100111100010010010000001
00111011011010101110001110011110
00111101011100101100000111110100
00111101101110100001011110111100
10111100110100000100000010110001
10111100101011001011001110010110
10111101100011100111111110100110
10111101000001011010001110001111
10111100010111011010111010111110
00111101110011011000101000010000
00111101000001111010011011101010
00111101011101010100101110011001
10111101111111000110010111110111
10111110000100111010101101100100
10111101000101111010100110000100
10111011000110011011100111100111
00111100110010101010010100011111
10111101101100101000010111110111
00111101011111111110011000101001
10111101001111010110011001001010
10111100110000000011010010111111
00111101000110001100111010100100
00111101101010001100011011010011
00111101001101110001101001011000
00111100110100010010110110110011
10111011011001000010000010100010
10111101000100010100011100101000
10111101110000000111111110011111
00111100100010011011011100110100
00111110000011110111110111110100
00111101011010000101011101011000
00111110000001001010010010100001
00111101111110110011101011101111
00111011101000000010011111110101
10111101000110000100010011110110
10111101011010101101110111011111
10111100000110011101110101001011
10111100001100000110101000010010
10111010100001100110101101101011
10111110000110110000111011100000
10111101111111010111000010111110
10111110000101000100111110111101
10111101100000101000010100101100
00111101100010001000000100010001
00111101101101010101110101101111
00111011100101010011100100111000
10111101101011111111100100001010
10111101101100001001010110111010
10111101011010011010011010010101
10111101010100000011001001011001
00111010100011111101111100000011
00111110001100110110100110001001
00111110001000110100011011100110
00111100001010110101110111101011
10111110000000100000000000011111
10111100101110000111011010010100
00111110011101111110011100011000
00111110010010101000011101100100
10111100100101011100110110000011
00111100101001001011010101011011
10111101001110110010000101101011
00111110000101110011011100100001
00111110000011110001010110011001
10111101100010000011011100011101
10111101110100001010100001000000
00111101011010110011001101101101
10111101000101001111111011101110
10111101111010111011000001001010
10111110000100100100011001000110
10111100100000001111011010010111
00111110000011000000010100101010
00111101101101000100000110111010
10111100111011000100111000101001
10111101100110000100010101101111
00000000000000000000000000000000
00000000000000000000000000000000
00000000000000000000000000000000
00000000000000000000000000000000
00000000000000000000000000000000
00000000000000000000000000000000
00000000000000000000000000000000
00000000000000000000000000000000
00000000000000000000000000000000
00000000000000000000000000000000
00000000000000000000000000000000
00000000000000000000000000000000
00000000000000000000000000000000
00000000000000000000000000000000
00000000000000000000000000000000
00000000000000000000000000000000
00000000000000000000000000000000
00000000000000000000000000000000
00000000000000000000000000000000
00000000000000000000000000000000
00000000000000000000000000000000
00000000000000000000000000000000
00000000000000000000000000000000
00000000000000000000000000000000
00000000000000000000000000000000
00111101101010011011000111101101
10111100100101111011010001011101
10111101110010111010001001110110
10111101011001110111101000000000
00111101100010100101101000100111
10111101000001010110101111110100
00111011011001100011110111000010
00111100001010100011010000010011
10111101101100100100111000101010
10111101101101111001001100010011
10111101010010111000100000100000
10111101011011011111011100110001
10111100010010110110011101111011
10111101110010001101100111111101
10111100000011010100011010100010
10111101001110000010110010100100
10111100010110010000000010101100
10111101110011010010100011100001
10111100010100000001010110111100
00111100010111101001111100101101
00111100111000010111101111100000
00111100001101000111100110101100
10111101100110101011101000110110
10111101000101001000111011110101
00111100110111110111101111111111
00111101101010011011010110100101
00111101011111001100111011001111
00111101110101010001111010000010
00111101101100011111000010100000
00111110000000000110000111010111
10111101100100101111011011100100
00111100100011110010000001011111
00111101010010110011011011100001
00111101101011110110010100011111
00111101110000111010111010000110
10111101010111000010001101100100
10111101001001101001110100000101
10111100001101010110000110000000
10111100111000101000010100001000
10111101100101000011011111011111
10111101101110000000101100001000
00111101000000011110110101101010
10111011111100110011111101001111
00111101100011011100101110011100
00111101101010001101011000110010
10111101000000001100100000100000
10111100101111010100110000110101
00111100000110101000111111110011
10111101100101000001101001111111
10111100111000111001100000000010
00111100110101111111111010000111
00111100100000011111010101010001
00111100011110101011110101100001
10111100111101111100111100101101
00111101101101100001001110101110
00111101100111000011111000111010
00111101101001001000110100101101
00111101100010111010000011011001
00111101111011100011101110011111
10111010100110111000101000110100
00111101010111011100011101111101
10111101010001000101111011000011
00111101000101010010110100011100
00111101010010000011011111101000
00111101101101111001011101110111
10111101010001001010001010000100
00111101001000100101110001000111
10111101000001001010010111111001
00111101101001100010111101000100
00111100011110111010010100000010
10111101010001000101100111000110
00111101100011110110011001011110
00111100111111010011010101111101
00111100010001011111011001100001
00111101101011010101101111111100
10111100110001100111100010100111
10111100001111010000010111001010
00111101001100010010111001100001
10111101001110010110010101011110
10111100010101001000101110011011
10111101100010111011000010110000
10111101110001011010100010000101
10111101101010011110101111011100
00111101101001110111100111100001
00111100001101100101110010101101
00111101000000001001110101101010
00111101001110011111010111001101
10111101011000100001011001011000
00111101001000000111101100010011
00111101000000101001111000101010
00111100001110111111111111110000
00111101001000011101010011110001
10111100000100011001011000010000
00111100111101011100110001100011
00111101000111001100001111101100
10111101001010110000011101000010
00111101000110011100111101111110
00111101110110111110000110001001
00111101100101010110111101101010
10111101101100101101111010100010
10111101011001010111011010101000
00111101101101000011101011011011
00111101010001001111000110101111
10111100110000001111111111010011
00111101111111101111011001110110
10111101001100000011011110110101
10111110000000111001011110111101
10111101101000000100110111100011
00111101101011000110010110110101
00111101111100110100111110001111
10111101000001001101000100101000
00111101001010111110011110111111
10111010101001011100100010001111
00111101001011100101100100111110
10111101011001110001000010110000
00111101100011110101101000001000
00111101000001000010000011101000
10111100100010100110100011101010
00111101101000110101101010010000
00111101000101011001100000100010
00111100101100011011011100101100
10111101101111101110100100110010
10111011010101011111100010101011
00111011110110101110101101000011
10111011101101000101111100010011
00000000000000000000000000000000
00000000000000000000000000000000
00000000000000000000000000000000
00000000000000000000000000000000
00000000000000000000000000000000
00000000000000000000000000000000
00000000000000000000000000000000
00000000000000000000000000000000
00000000000000000000000000000000
00000000000000000000000000000000
00000000000000000000000000000000
00000000000000000000000000000000
00000000000000000000000000000000
00000000000000000000000000000000
00000000000000000000000000000000
00000000000000000000000000000000
00000000000000000000000000000000
00000000000000000000000000000000
00000000000000000000000000000000
00000000000000000000000000000000
00000000000000000000000000000000
00000000000000000000000000000000
00000000000000000000000000000000
00000000000000000000000000000000
00000000000000000000000000000000
10111101001110001010011100011000
10111100101000001101111110110001
10111101001001111111000000101110
00111100001100000100001001100110
10111100000111011001101011110010
00111101100010100101100111111000
00111101011111111101011011001010
10111100100110101100111000011000
00111101011111110001011101011010
10111100000101010101100011101111
00111101100000110101111000100111
10111100111001101010100010110111
00111101001101101000111101010011
00111101100010101110011111010000
10111101010011101101111001000010
00111100011011011100111001100101
10111100100111101001110110100110
10111101011110011011011011100110
10111010111110000100011001010110
10111101101111010111001011110111
00111011000001000111110011000101
10111101110111111110011100001010
00111101001001000110101000001011
00111101100010110011010000100001
00111101000101011111110011011001
00111100101001110101101110101110
00111101011010111110110111111011
10111101100001100101111101001000
10111100111000101001110110001010
10111101001011011100001111100001
10111100000010010010001110001001
10111101100111000101010011011011
00111101101010100111010111011111
10111100110111111111000000001011
00111101011110000001100110001000
10111101011001101100000100000110
10111101100001011001101100010000
00111101101000100000001101000001
00111101001011101001000000101011
10111101001010001000100100001111
10111101101011111001100111101110
10111101010001010111010000000000
10111101001010110001011110011000
00111101100110011001011111000110
10111101101100100011100111011000
10111101010001001101101111000101
00111010010110101010101011010010
10111101110110111000110101000011
10111101001101111001010100101000
10111101011011100000100111000101
10111010000111010110010100000011
00111101100100100000001100100111
00111101101101111110011010011010
10111101100101111000001011000111
00111101011011101111100100000000
00111110000001011000011000110010
10111101010010001011100000001000
00111100001000011000000110111101
10111101000100000110001100011111
10111101010011101011010100101111
10111101000000010011011100001111
10111101011110111110010001000011
10111101000111010110111001011010
10111101111000010100010110110110
00111101100111010110011001011001
00111100010011111010000000101001
00111101001001100001100110101010
10111101101100000111100101100111
10111101110101011100101001111111
10111100111011011001000111101101
00111100111100000011101110100000
00111100010111110100110100011111
00111101101011000001000001000110
00111101000100011101000001100100
10111101010010001000110101010110
00111101110001111010010111110000
10111100001001011010010000001101
10111101100000001110110111000001
10111101100000111000001100011010
10111101011011010000101111000001
00111011000001111000010101110000
10111101100000011011101110001111
10111011010010111010011110001100
10111100111001001111110100010101
10111101110111010001101000110000
10111101100111110110000001010011
10111101000111110100010000001110
00111101000111100111010100111100
10111101011010011010110010110001
10111101101001100101100011111011
10111101110101111111111111001001
10111101100110100010001101101110
10111100101000010100011111010010
10111101100010100001110101110011
00111101100000011111111001100011
00111101100111001100001111001000
10111101100010011111110100100111
10111101110010001001100101100000
10111101001011011010101011110100
10111101010010011111011011001011
10111101110110001100000100011110
10111100000100110000000010000000
00111011010011011111000110001001
00111100110100100111011000100111
00111101101011000111000001110000
00111101101001010101011101000111
00111101100010001001110011101110
10111100110100001111111100001101
00111101000111011100001000101110
00111101110011001001011110011111
10111101011011111001100011110110
10111101000111101111101111011111
00111110000101000011000011100101
00111101101101110111010100100110
00111101001111010111101101010010
10111101110010011000001011100110
10111101100111100110101110001111
00111110000000111000100110010001
00111101100110010101010111010010
10111101000010110001110011111001
00111101000101101100110010100111
00111100010010001001111001011101
00111101110100010110011011000000
10111101000010111100110001101110
10111101011111001011110001101111
00000000000000000000000000000000
00000000000000000000000000000000
00000000000000000000000000000000
00000000000000000000000000000000
00000000000000000000000000000000
00000000000000000000000000000000
00000000000000000000000000000000
00000000000000000000000000000000
00000000000000000000000000000000
00000000000000000000000000000000
00000000000000000000000000000000
00000000000000000000000000000000
00000000000000000000000000000000
00000000000000000000000000000000
00000000000000000000000000000000
00000000000000000000000000000000
00000000000000000000000000000000
00000000000000000000000000000000
00000000000000000000000000000000
00000000000000000000000000000000
00000000000000000000000000000000
00000000000000000000000000000000
00000000000000000000000000000000
00000000000000000000000000000000
00000000000000000000000000000000
00111101100010100011001111000001
00111101101101000001101101010101
10111101100101110010110110111110
00111101100010011100110000111101
00111100111011110100000110011100
10111101011000000101100110001011
10111101001011101000010100011111
00111100100111110111100001100000
00111100110111000101101010000010
10111101001101000010100001001110
10111101100111000001100111111011
10111010001010111000011000110101
10111101010000101010101011101000
10111101100010101110110000101111
00111100101001011010000000010110
10111100110101010000011101101100
00111101110111000110001111001101
10111100001000001111110101001010
00111101011101000010101000010010
10111100100111111010101000000100
10111101100001110110010100100001
00111100100001001100111011100011
00111101011011010100110110110110
10111101110001111010000111011000
00111100110011001010111111001011
10111101000000100101100101110101
10111101100011111101111001011001
00111101110011000101110000011011
00111100100001101101101110000101
00111100101011100110000001110011
00111101110000101001000000111011
10111011011000001111000100110100
00111100011010000101010111000111
00111100111000100101001111111111
10111101110001000111111010000001
00111101110101010001001010001000
00111101110001000110101000000001
10111101001010011111111001111011
10111101101010011001000011010100
00111101110010110000011010011101
00111101100000001111000011110110
00111101010100100000111100011010
10111101101101111011001100001100
00111101101101101011110111110011
00111101101111001001001111010101
00111101010000000100101101011000
10111100111001011000010111001110
00111101110100111101110001101100
00111101010110100100110010101110
10111101000110110010101111110010
10111100000011010111000011100011
00111011000000011010010000110111
00111101110111111100110001110000
00111100010011000101101100010010
00111010100011011000110100010101
00111100000111100011000100110010
00111101101100000010011111110001
00111100100100011100011000111001
10111101100000111011111100010010
00111100111000000101001110010010
10111101101011101110000001100010
00111101010011001001011011111100
00111100100001001011011010101101
10111011101101100011111110000000
10111101010110101001110001010010
10111101010000000000110001101001
00111101110110000101011010000100
00111101010111101100101110011011
00111101000100111011000101101011
10111101101110101110110010010000
00111101000000001010011001000001
10111101101101001011010101111010
00111101101111010110110101101110
00111100110111100000011011100111
00111100110011101110000000101010
10111101001000110100111001101111
10111101101111010110001001001110
00111101000001011000110100100001
00111101101001100100001001010100
10111101001110110011011011011100
10111100001100110110110111000111
00111100110010100001011101100111
00111101101010011111100010111010
10111101100101110100001001110100
00111101110000100101011000101100
00111101101111110100101001001101
00111101100000101011011001101000
10111101100101010100010100000111
10111100011010011100001110010101
00111101001111010001110101001111
10111101010110101011100100000000
10111101001000110101011101101110
10111101101110011110000110001101
00111100101001110110101010000001
00111101000101011011000001110011
00111100010011000101010111100111
10111100111101000110100110010111
10111101001110011001110111110111
10111101110101111110111010001000
10111100001011110100111010000000
00111101001000001111111110001000
00111100010000000110000111011000
10111101101110000100011100011101
10111101000010110011111100010111
10111101011101011101111111011111
10111101101110001011001001100001
10111010101011110111101101001110
10111100100101001000010010011110
00111101110011100011101001010011
10111101011101111011111100101101
00111101101110101100000011011101
00111101100010100000101010101111
00111101100010011000111110000111
10111100100000110101101100110001
10111101010001000010011111100000
10111001111011010001111110101110
00111101101101101010110000010111
10111100110101100010100100011100
10111100111010111011100010111100
00111101100101001011100001101111
10111101101011101110111110010001
00111101110011100000101010111001
00111101101010111101110000100100
00111101101110000100101110001001
10111101101100110110101111101010
00000000000000000000000000000000
00000000000000000000000000000000
00000000000000000000000000000000
00000000000000000000000000000000
00000000000000000000000000000000
00000000000000000000000000000000
00000000000000000000000000000000
00000000000000000000000000000000
00000000000000000000000000000000
00000000000000000000000000000000
00000000000000000000000000000000
00000000000000000000000000000000
00000000000000000000000000000000
00000000000000000000000000000000
00000000000000000000000000000000
00000000000000000000000000000000
00000000000000000000000000000000
00000000000000000000000000000000
00000000000000000000000000000000
00000000000000000000000000000000
00000000000000000000000000000000
00000000000000000000000000000000
00000000000000000000000000000000
00000000000000000000000000000000
00000000000000000000000000000000
10111110001010010100110011101011
10111101000101111100010010001000
00111110001001000000010100101110
00111100101101100010001100000001
00111101011010100101010101111011
00111110000101110010110011000111
00111101100111101100111000110111
00111110000100101100100010010001
00111110010101111011000111001111
00111110011111011011010011110001
00111101100000000100101011001000
00111101111001111001111101111101
00111101010001010101010001100011
00111101010010010100010110011000
00111110000000101111000110001111
10111101010110101100100101111001
10111110010101010010000001101001
10111110011110111000000110110101
10111110000001110111010010101111
00111101011110000110011101011101
00111100011001010010001001111000
10111101010101100101010001101010
10111110011100000111010011011100
10111110000001101001101000011100
10111110000001011101110111110111
00111100010101110111100110110000
00111101100010011110010100100010
10111100110001001101111101011001
00111101010010001010010011101101
00111110001101011100100001111000
00111100000110100010110111010011
00111100110110110011001110101110
10111000110101110001001101000110
00111110001100111101111000111100
00111110011111110000101000001111
10111110001001101000110101011000
10111110000000010001100110001010
00111100000010111100100001001101
00111101110000000000110101101110
00111110000110011010101101100101
10111100001100001101100001110001
10111101111001101010100011100111
10111101000010000010111101000000
10111110000111110110101110001001
10111101110001101001110110100010
00111110000000011110011101100110
10111101001000100111100001000000
10111100111110011111101000000100
10111110000111101101001101001011
10111101101011110101001111010111
00111101000110010111100011101011
00111110001110000010100110000100
00111110001001101011100101001010
00111101101101111011001001011110
10111101110100011111101011100000
00111101101010010001100001110011
00111101011000010000111111110010
10111101000110100011100100110100
10111101111110011111001111000011
10111101101001100011010000010001
00111100100110011101001100010111
00111100110001000111110001011011
00111100000001011000010010001001
10111110000000010010000010010100
10111101110100100000001011010011
00111100000100101100111110000001
10111101101111010111101101001111
10111101100010110101010110001100
10111101100111100011100111110101
00111101011110011000110011100010
10111100011111110011100000100001
10111101111111110000011001001010
10111101100111010101111100011011
00111110000110100100100010001110
00111101000000100110001000110001
00111110000000111100101111111111
00111101110011011100111101101111
00111100011100110000010001110100
00111101111100000001110111001011
10111101000100100011011000001010
00111110000000100101010000111001
00111100110000101010011010010010
00111101011011101110101010011011
00111101110010000110000011110100
10111101000001110101000000011000
10111101111110101011111000111101
10111101100010111011000110111100
10111011011111111111111001011100
00111101001011111010111011111100
10111101100000011111010111111001
10111101111010110000001101100100
10111101101100001100101000111110
10111110000101111011101001101010
10111011100111110111011101000011
10111101100111100110000111111001
00111101111101111010111100001000
00111101001110110101001001101110
00111101100110000101011101001101
00111101101100010001011011000100
00111101001000010100000111001011
00111100010010001011001111010101
00111101110111111101011011110000
00111110000110101101110011011100
00111110001100010101011010111111
00111011101100010111100010111110
10111110000100011100011001111100
00111101011101100001111010100101
00111110010100100000111011110011
00111110100001111101011100101000
10111010011010011010111111011011
10111100100110110111010001010100
10111101111110000000110010101110
00111011101000100101110111010111
10111100110000010001010010010001
00111101000011001110011101100000
10111110000010011110101011111110
10111100111110000100011111011010
00111101101100000001011001010011
10111100000010111010010111000000
10111101110110010111011111100110
00111101100110010111011001001111
00111100001100101111111011000100
00111101100011100101101110110101
10111101110100001010001001110001
10111100011111100111111111100101
00000000000000000000000000000000
00000000000000000000000000000000
00000000000000000000000000000000
00000000000000000000000000000000
00000000000000000000000000000000
00000000000000000000000000000000
00000000000000000000000000000000
00000000000000000000000000000000
00000000000000000000000000000000
00000000000000000000000000000000
00000000000000000000000000000000
00000000000000000000000000000000
00000000000000000000000000000000
00000000000000000000000000000000
00000000000000000000000000000000
00000000000000000000000000000000
00000000000000000000000000000000
00000000000000000000000000000000
00000000000000000000000000000000
00000000000000000000000000000000
00000000000000000000000000000000
00000000000000000000000000000000
00000000000000000000000000000000
00000000000000000000000000000000
00000000000000000000000000000000
