10111110000001011100011010100000
00111110000001101101010100011001
10111101100000000100111000101001
00111101101110010011101001101000
10111110000101010110111111001100
10111101101100010111011000010000
10111110001010101111110100101011
00111100101111011101101011110110
10111100110110010010000100100101
10111110000100010011011111110000
10111100010110111111111111110000
00111101011000110100000001011001
00111101000100111110000111110110
10111101001001000000110100011101
10111110001110111000110110001110
10111110000111101010111100000101
00111110000100000011101000011101
10111101111111101111011010010110
10111101100101110011110111000110
00111101010101011101000011110011
00111110000100101011100100000111
00111101100001011100110001010100
10111110001000000101111011010011
00111110001001110100110001000110
10111100000011101101110110001001
00111110001010000111001010001000
00111101011100101011100011110111
10111101101111010111111100100101
10111101101010011001000010011010
10111101100011011110001101110001
10111100101011001000001000101000
00111101110001100000000001011100
00111101011001011010111100110001
00111110000010101100011111000111
00111110001011101000101000001101
00111101101101001110111101110111
10111110001001010100100100011010
00111101101001010001010110100101
10111110001101000100001011111110
00111101010011101011110111111011
00111100111011111101100000101000
10111110000110010010110000000101
00111110000101010111011110101000
10111100111111110100111111011010
10111110000001000111101100100111
00111110010001001110001101110011
10111101111110101000100101000001
10111101010011100001011001111111
00111110001000101000000010001000
00111101101110111011011011101000
00111101001110111010011010011010
10111110010001000111111110110001
10111110001011000010011100001001
10111110000100111101111001001110
00111100001010101010101010000111
10111101110110001100110111101110
10111101100101010011100000001010
10111101101101110110011000111000
10111100011100111101001101000100
10111101101110110011110000011111
00111101011010011010110111010110
10111110000101011101100111011001
10111101001000111101111010101000
10111101000011000110001111011111
10111101100000101101100111001100
10111101101010011111110001000100
10111101101010010101111000100101
00111101101010000000101111010101
00111101111100101100111011010010
10111110000001101011101100000110
00111101010011001111000010001110
00111101110000010100101111100010
00111101110110111010010011111010
00111011000111100111010010100111
00111110000100000111101110010000
10111100001100001101100000010111
00111101011100010100000110001010
00111110001011101000001001111111
00111100111111110101000100110111
10111110010000001110111110111011
10111110001010101111101011001111
00111101100011000001110011100000
10111100101101111101110001001111
00111101100101011001001001110010
00111101000000101000101110010100
00111100111010011001001100111010
00111110000101010100111001000000
00111101100101001010111101001100
00111101100000101111010011100001
00111110000010110111010001001100
00111101101100011011101110110010
00111101010011100001001011010000
10111101100000111011010110010100
10111110000101011000101011111011
00111110000101100010100011001110
10111110000010100111000111011101
10111101100011001110101101111010
10111101001010111101000010111011
10111110000110000110111101111001
10111101100011011011110000111111
00111101101111000100011011000000
10111100110011010110000100110111
00111101110111111110100011001000
00111101101010010011100010000000
10111110000010110011110000010111
00111100101010111100100100100000
00111110000111000100001111011011
10111110001000000010001011110001
00111110010000100110001110110011
10111110010011001101010101010011
00111101000110001111100011011101
00111110000000100000111101000011
00111110000110111000011101111101
10111100011001001110110010010110
10111101110010100001111100000001
00111110000110100100101111001011
10111101111000101100000001000101
00111110000101110100110101101011
00111100111010100111000111110100
10111110000011111010010100010100
