00111101110000011111111111101010
10111101110110100000101001001100
10111101100010010100101011111110
00111101111101110010010011110010
00111100111001010110011011111110
10111101000100011100100100000001
00111101010000101101100001111101
00111011111010100101010011000011
10111101101011010011001101010001
00111101010011100001010001011000
00111110000010000000001101010000
00111101010011000100010101010001
00111110001101111111110001001000
10111101011001001001010100000111
10111110000110100001010101010000
00111101100001100101000110010110
00111110000111100011011001001110
10111101100101110011100011111101
10111011101100000000110000111001
00111100001110010010110101101111
10111110000011111011010001001110
00111011110111100001010100100010
10111101111100011000111001001111
00111100000110110111100110101011
00111100110101111010010000001001
00111100100100000100000100101001
00111110001101101111010111111011
00111100001111001100100001111111
10111010101100101001011101111000
00111101101100000000100010010101
00111101110000100000111110001100
00111101010111110001001011001001
10111110001010001101110111100110
10111101010011011111010100111110
10111101100101100110011111010101
00111101111011000100000000101101
00111101111111000000010100100001
10111101111110100110000010100010
00111101110101101001010011001101
00111110001010111101011110101000
10111110001000110000010011110010
10111101100011010101110001010101
00111101011011011000100011010011
10111101110010100100000110000110
10111110001111001101001110010001
00111101100000100000100001001000
00111100000011111000001011001100
00111110001110011010110111110101
00111110000111000000100011011101
00111100111101001000110011111010
00111101100001110000011011100001
00111101101111000011110010010011
00111101100100101001001100101101
10111110000100001101000011101100
10111110001010100000111011000100
00111110000101111111000100011011
00111110001100010101111101001001
10111101101110001101000001110110
10111110000100100111011011010101
10111110000101100110011110111001
10111110000000011100111010001110
10111110000100101101010000101010
10111101011110100000111000101000
00111101000001100111101100110110
00111101100110101010011010101000
00111110001011010110111010010011
10111101100001011101110011100001
10111101011001110110011111101010
00111101111101001110100100100001
10111101111110000001001101101111
00111100101011101010000000011111
00111101111011110100101001100110
00111100010110001111000111100011
10111110000000111000100101110110
00111101100110111011111000011101
10111100011001010110110110000110
00111110000100111000110001110101
00111110001100111101001110101101
10111101011001011000111010000001
00111011101111001000011101101001
00111110000110110100100101010001
10111100000011011100011000110110
00111101110111101110110011100101
00111110000010011101101010110011
00111100100010100101010100101110
10111101101110111001000111101001
10111010110010001110100010111011
00111110000011001010111010001011
00111101101000100100011100110010
10111110001010101110001100101011
00111101101011001101001001101011
10111110000011101110101010110110
10111101110110111111101001010100
10111101001101000100101110001011
10111110000100001111111011111101
00111101011001110110011111010001
10111101100000100110010101010010
00111101101010011010100100111000
10111101100110100100001110110010
10111101110110011110000001001001
10111100101100100010100011010010
10111110001100011101100110111101
10111110001011111101110011101101
00111001101010110101110110011000
00111100111001100100000101111000
00111110000001001001101000110011
00111101111000001000010011101100
00111100011110101010100000110000
10111110001001111001101100111100
10111101000101111011100000010100
00111110000001000111111111101110
00111101110101111111100001100010
10111101101011000100111101001000
00111100000111110011110110010100
00111110000111000000111001001100
10111110001011001000000110001001
10111101100001101011000111011010
10111101100010011110010000000001
00111101101110111101100100000101
00111011110100111101000100010010
