10111101110001011101000100001111
10111101100100110011101001111010
00111110001000111111100101100011
00111101001011010001011100010011
10111101101001001000100001101001
00111100001011000101110000001010
00111101101100000000100010001010
10111100111000100110001111110000
10111101011001100100001001111000
10111101010111110001010011000011
00111110000110000000100110001010
10111101111111010111100000010110
00111101000001001110111110000110
10111100110111000100100010101001
00111101111101111011110001111011
00111101001011110111011110111001
10111011101100001111100001011001
00111101001001100011111101001100
00111100100101101011000100101110
00111101000101110011101100001100
00111100110010110111000110010100
00111100111010001010000010110101
10111101110111100110001000001111
10111100000011101011101111010010
10111110001001010000110010000001
00111101101011000110000011001111
00111100011110101011011101110001
00111110001100100101000100110000
10111101100110001010101000110100
00111101100100100011010111001110
00111101010000010000110000011100
00111101110110011101101011111110
10111101110110011000011011000010
00111100101010000000100010011101
10111110000001100010100111000110
10111110000101001000111110000000
10111101101000101111110100110000
10111101101100011101100110111000
10111101101100111000001011000110
10111110000000011111010001000010
10111101011101000010110111100100
00111110001100101011010101100011
10111101100110010100011010010110
00111101101111111010011001000010
10111100100010111101010101001010
10111101100000101011100100111110
00111110001001011110010010110011
10111101101010011000110011100110
00111101101101100001011001101101
10111101110011101111101001000011
10111110000011110110100110010011
10111100111000000001111011000111
00111110001011000101110101000010
10111101111100000101001100111001
10111101101011011101001011010110
10111110000010010111100101110110
00111101111011101000010111010110
10111101110001101110000111100001
00111101000011010101101101110100
10111101101010010000100000000010
10111011111011111010010100010110
00111110000101010011101000011100
10111110000100100100111011101010
10111110000100011011001100000010
10111101111111110010111100100100
10111101000000111110010011011000
00111110000100001010000110001010
10111101101101000001010010011110
00111110000101001100000001110100
10111101111010011100100011001100
10111101100100000100101101101111
00111100011101110011001011001000
00111110000100101001011010110011
00111110010000011001111101101111
00111101011100111100110011011110
00111100111001010110011000100011
10111101011000110000101101100101
10111101111011000111110000100001
00111101101010110001011101101111
10111110000101011100101010110100
10111101010110110101011111011111
00111101100111010001110010100010
10111101111111011000101000010000
10111101111101001011101111001011
00111101000111000001011011100011
00111101100100110111001010011011
10111100011100101011011011010011
00111101000000000111001111100001
10111101001000110100000101101110
00111101110110110001111001000000
00111110001110110011111110010101
10111101011111010011000011110110
10111110000010111011110011000110
10111101100101101111001110011010
10111101110000101001100111001011
00111110000000101010111010010100
00111101101101010100001001111100
00111101100011001100011100001011
00111101111011101000110011110000
00111100101110101110111011101001
00111100100011001000101111011000
10111100011100000010110001011001
00111101110000110100000011001101
00111101100000011101111011100000
00111110000011000000110101100011
10111110010001001000000100010111
10111101100000101111110011001100
10111100001101010011001101111111
10111101101010010001001011010000
10111101100010111010110000100010
10111110001011000010110011010111
10111100111100111111110100000011
00111100111011110110011000011110
10111101101101101100111001011001
10111110000011011000101100010001
00111110000001011110011111010000
00111110001010001110000000011000
00111101111100001001111110101000
10111101110010010010000010000010
00111101101110100000010110001111
