00111101011001010010111001010111
10111101000101111010101011001000
00111110000101111111011110111010
00111100000100000010110011100001
00111101100010010111101101000010
10111100001111110100001100001011
00111101111001001000100101011011
10111101110111001111001000111100
10111101111001110010110110011101
10111101110001010010000101101010
10111100111011010111100111011110
00111110000110011101001001110011
10111101001101011111000010011110
00111101001000010101010011110000
00111100011101110000000110011000
10111100010111100110001000100011
00111101111111000111100001010101
10111110000111000111101001100010
00111101001111111010011001011000
00111100001100000101111000011010
10111101000010001010001011010010
10111101001000011010010010011001
00111110001001100001100000000001
00111110000000100101011100001001
10111110001100100111001010001111
10111101101011011100111111001101
10111110010000101011001110101100
10111101101011001001011100100110
00111110000010010000100000001001
10111110000010100110100111100100
00111101111001000010111001111101
10111101111101110100010000111001
00111101100010111101110010000100
10111100010101011011000101100001
10111101011010010001100001111111
10111100101001101110010001100111
10111110000001111101111100111001
00111101010011010111001010001001
00111101011011000011000001111111
00111110001000011000010000111000
10111101111000010010101001101000
00111110001100101000111000110100
00111101100001010000000100011101
10111101001000100001001111111101
10111101110100010011011000111111
00111101011110101011010100011100
00111100110001100011001100111101
10111101111000110001101110100101
10111100111001011110111111010001
00111110010101001011001111100011
00111110000001100001000011100100
10111101011110110101001110001011
00111110000011010111000100110010
10111100000101100100110011000101
00111101100110101111100010001011
00111110000100011000111110000110
10111101000100110111010011111111
10111101011010100101000010001110
10111100101001000000111100000001
00111011011000110110110011010111
10111101110010111111110011011111
10111100101101000010010111011011
10111101001001101000111011110011
00111110000011111011100010011100
00111101101011111100010100100011
10111101100010101001110011011011
10111110001101000100001111111111
00111101000000011101100111011011
00111101000111111110010001000000
10111110001011101010100111100001
00111110001001110000011010011110
10111101101001001000010111010010
00111110001011011101101110001001
10111110000111010011011001001001
00111101000111000010011101011010
00111100101001010001111000100001
00111101001100100111100100000110
00111101100011001011110101010101
10111110001001010001100011011111
10111101100111011000111011010111
00111100111111001001111011011000
10111110010100011011000000101111
10111101010001011101001001101101
00111011100010110111001010100000
10111100100100011100001111110000
10111100110010001111000010100011
00111110000100100000001011111100
10111101110110111000111100010100
10111110001000001101010010111111
00111110000010100101011100100010
00111101010100010000110001111110
00111101111101101111110100101101
10111101110101111100100110100001
10111101011100001000100001110000
00111101111111101001110000001100
00111101110111100110101110011101
10111100010101011001101010110000
10111101100100101110001000101010
00111101010100010000111011110000
00111100100001000101001100001000
10111101100110111111010100011101
00111110010000001001111011000110
10111101101010011010010001000001
10111101100011110111100100101101
00111101011111100100000010100011
10111110000101111110101000000000
10111101000100001001100111101111
00111101101111110101100010010011
10111101111111000100011010101110
00111011101101110000101010001101
00111110001000010100010001011001
00111101111101110100001101101101
10111101010100111101010100011101
00111110001000000110111110100010
10111110001010000010101010000111
00111110001001110101000110100010
10111110001111110101001011111010
10111110001000001110011001001001
10111110000011111101111010101100
10111110000010101010001110100101
