10111110000111010011111100100011
00111101111001111110101110101010
10111101111010010001000101101011
10111101110110110101001111100010
00111101101010111000111100110101
00111011010011010111111111001100
10111101010000101110110101110111
10111101100000010001110000001110
10111100101100101101011000000101
10111110000110101000111100100010
10111101100001011010000101111000
10111101000010001011100000000011
00111100011101001101100110111101
00111110000111011001110000001001
00111101110010010110110111111100
10111101001100001001101001110011
00111100001100010010111010010011
00111101001001100000110101101110
10111101110001110011110001100101
00111110000011101111111111000011
00111110001010100111110111000011
00111110001011100100100101110111
10111101001011101001100010110010
10111101000001111001011000011110
00111100100111000001100001000100
10111100101001101011101000111110
00111101001010000111111001100010
00111101000101110110010100010111
10111100101110100111001010001000
10111110000010110010110011011111
10111110001000111110000011011010
10111110000110101000011000001111
10111101011001100011011110101101
10111110001000000111010110000110
10111110001001000010001001000010
00111110001001011101101111100010
00111101100111110000100110100011
00111101011011110010001011000101
00111110000001001101011101010010
10111100111111000111001010010101
10111110001011011111000010011011
00111101011111101100101001010011
00111110001000110010111010110001
10111110000110001111010110000101
00111101100001010101110100101100
10111101111010110100001100111000
10111110000111010000000111010101
00111101000011011100011101011010
10111011101000110000111110110010
10111110000110101110101010110001
10111101010111101101011111111001
10111100110111001111011111010100
10111101011011100101111011111111
10111101010000000100001010110100
00111110001011110000000100011001
10111101011100111110011010010100
10111110001001011011101010111100
10111101001011110111110001001011
00111101101100000011000101001010
10111101111101010010110001100111
00111101011111011100100001110011
00111011100010101001001101101001
00111110000100110001110010110001
10111110001010010100011010011111
10111100111101101001101110100000
00111101011110100000101011110110
10111101110010100010100001011111
00111101101110111011011101010010
00111101000110101110001111111010
00111101111001001111100101100010
00111101010101000001111110110010
10111101110011000110101100000010
10111100101011111000111011011001
10111101011010001010001111011010
10111110000100101111111111110001
10111101011101010010001010100001
10111101110001010011110010000111
10111101011001000001000010001110
10111100101110100100000011001010
10111100100010101010001000011010
10111100110010110011101100100111
00111011100010101110101111100100
00111100110101111010010100001010
10111101110111011111001110001001
10111101010011111011001011000001
10111101100001110000011010110011
00111100010100111000011000001111
00111110000100000101000001111011
10111101101111011011100010001010
10111101101100101100110011001100
10111101111100111011000111110111
10111101100101001001111000100011
10111101101011111111111010000000
00111100111000010100011110011101
10111101100000101001100111001011
00111110000011110011011011111111
00111101011010100001110100100000
10111101110111110000110100100100
00111110001000101100001000000100
00111101001011111100001001001111
00111110001000010111001100110111
00111110000110100000110100101100
10111101111111111001011001111110
10111101110010010001100101011101
10111101101110100111010111001010
00111011110000000011001110111001
10111110000111110011101101110011
10111110001000000000110001010100
10111101010100100011000111010000
10111100110100011111111010010001
10111101000110100101001010011101
10111101101100110001110001100110
00111101001011100000011100001011
00111110001000100010001000000011
10111101101010011010111001110111
10111101000111100000111011011101
00111110000011010110110001111001
00111100010011010000111111011010
10111100110100010000000111000101
10111100011001001011110000110101
