10111101111101011100110100001100
10111101001100101011100110101101
10111101101001111110111110100000
00111101010001111110100111011001
10111101010111000010010110101110
10111110000010000101001010000100
10111110000001111110101111110111
10111101110010010110010000010001
10111101101110110110011011100010
10111101101010011111101010000101
10111101000110110100110011111011
10111110001010100110110101000100
00111110000101000100110011100010
00111110000010110110000111000000
00111110001110101010010010010011
10111101110101110010010000011010
10111110000011100000001000101110
00111101000001111011100010000000
10111101100011010101010010110010
10111101101100000011101110110011
10111101100110001101000111100101
00111100110001011000110011011011
10111110000001100010101101101101
10111010101110000011011011110000
00111011111110011001111101000100
00111101111110011111100001110100
00111110000100101010100110111111
10111110000001110000111010011010
00111101000000111110000010001100
00111110001100100110110000000100
00111110001110101000101011011110
10111101101111110000110011100100
00111110000100100010101010101011
10111101010010000011111101010010
00111101101001111011010101011011
00111100011111011111011101110100
10111100110101010001111001011010
10111110000111111010101000100111
00111100100111101100110100010101
00111101010101010000101101011101
10111110001011000111010001101100
10111101111110011101111000010111
00111110001100110010111011000011
10111101000111010001011100111001
00111110000110110000101000011101
10111110000111110011111100110001
10111110001010001000101001110111
00111100101100110001010001001110
00111110000100011001100010101101
00111100110001010100101001101000
00111101000010011011110100110001
00111101111101100111010011001010
00111110001001001100001000010010
10111101101110111111111100000010
00111110000101011111100101110011
00111100011111001110110101010111
00111101111001111100111000100001
00111101011001000001001000110000
00111100110101101110110011010000
10111101101100111100110001110000
10111101111000001101111101101101
00111101110010000111110011001011
00111110001101111101001001111111
10111100000100011101000010001000
10111110000010010111001111100100
00111011011000101010100111111110
00111101111011011010011111111101
10111100001100100111010001000011
00111110001000001100011000100001
00111100000001000011011111001101
00111101110000001011111011101001
00111101111110101100000100001000
00111101111010100111101110001011
00111110010101011011101111111011
00111110000111011001010000011101
00111110000001011001011100100010
00111110000110000010001001110001
10111110001000000110001100010001
10111100010110011011001111011101
10111011100100101001111101110001
00111100101111110001100101101011
10111101100101101101000000100011
00111100001100110101100100011101
10111101110110011111010101010011
10111101001001100111010110100011
10111110000101100010010110111101
10111011101011100000100000101111
00111110000001011000101010111000
10111101111011100011100111000100
10111100000010001000010000001010
00111110000001001111101011011001
00111100111111110011100011111011
10111101010111100111011110011100
10111101100100010100111001110110
10111101101001000011111000111110
00111110000001011011110010010001
10111101101100111000101100101000
10111101001010111001000010100101
10111101111110111010100001100000
10111110001001111101001100111000
10111110001000010111100001111110
10111101110101000100010011000100
10111110000001100010111011001001
10111101100010101111000001110011
00111101100011011000111100100010
00111101001011010101100010011011
00111101100001101110011111001011
10111101101010001010001010100011
10111110000000010001000101001100
00111101010111100100100100101001
00111110001011101101011001111000
10111110000010101010111111101000
10111101110111100000000001011100
00111110000011011010001111011011
10111101111001011100110011100010
10111110001101000000010010010100
10111100010001010000110011000011
00111110001100111110111111000101
10111101011000011101001011101101
00111101111000101100000010111000
