00111110010101100000111101101000
10111100100000000111111111100011
00111101101100001001001001001100
10111101101101010000001111100010
00111110000010011101110011111111
00111101110101011100000111101100
00111101010000000010001111001000
00111110000101001111000100100101
10111101111010101110111011000110
10111101010011101001101100101101
10111101010010011000000000011111
10111101101111110101001000100111
00111110000100001111101000111100
10111101001100100000111001000011
10111101101111101001000001010011
10111101010000011110111001011010
10111110000110100011001100111000
00111101111100011010111010010000
10111101101001010100011100011010
10111101101000000001000111101101
00111101111001100011100000001010
10111101000000111001110001100111
10111110000101100011111001011011
00111110000111110110110010001001
10111101101010000110101110011000
00111101111001110110010010001111
10111101101110001110110101010111
10111101000110100000101110010100
00111101101011001011100100011011
10111100100011011110101001011111
00111101111100100100101000011010
10111101100011001111101100100000
10111110000010011000001100110110
10111010010100111010101111000001
10111101101010010010010111000111
10111101110001000100010100001110
00111101001000111111101111100111
10111100100101110010101111011111
10111100111110101001101011111110
10111101101001111001110111011111
10111101110011100101100010001101
00111101010000110010011011001010
00111110000001001000001001001011
00111101000011001000001001100101
00111100110010111101011100101011
10111101111000000011110000110001
10111101111011000101110010011011
10111101001010010010001100110001
10111110000010000001101110001101
00111110000110010001001011110111
00111101111001110010110001100000
00111110001011001001101010111001
10111011111111101110110010100111
10111101101010001100101001110111
10111110000100101111100101000111
00111101111100110010110111010011
00111110010000000011110100101100
10111101000011101000110000101110
00111101111001111011101001010010
10111101110110011000001010001100
00111010110011110100000000111111
10111101110111101010101101000001
00111101101101010110110000100100
10111101010101001011011011101000
10111110000010101110101100101011
10111011101011110111000100100100
00111100101111000001111101010011
10111101101111100110111100111110
10111101100010000011010000100000
10111101101010110000010010001100
10111101000000111010000111001001
00111101111100101010011111011011
00111110001100011110100111010111
10111100100101100101000101111101
00111110000011100001100110111101
00111101000011011001101001100110
10111101110110001001000010010010
00111101011011101010100101000011
10111110001110110000000010010010
00111101100100101100000011111010
10111101101100000111101000110111
10111101111110100101110010101011
10111110000100010100011111111001
10111100111111111101101110111111
10111110001110111011110010001110
10111110000000001110010010101010
00111011001111011111100001100110
10111100110110000010111000101110
10111101011101101100010000101001
00111101010101110110110001010110
00111101011101101011101001011111
10111110000001101000111011001000
00111100100001110111111000000111
10111110000000011101101110111010
10111110000001010110111110111111
10111101010111001011101001000111
00111101101010010010100011010010
10111101110110011001011010111110
00111101010101100001111101101100
10111110001010011001101011010101
00111101100000110100011010011011
10111101010110011110100101001101
00111110000011101011101100100000
00111110000101010101101101010110
00111110000001100101111101011110
10111101011111011011110110011011
00111100010011011101010101010000
00111100110011110111101011001101
00111100101000100000001000101100
10111110000110001111100001111100
10111100110001010101001010011100
00111101001000011001010100011100
10111101001010010111111001110111
00111101110100010101010111100000
10111100001010111111011101001110
00111110000011100011011100000101
00111100000010000010111000110001
10111110001011000000110110000111
10111110000000000100000100011001
10111101101010010110011010110010
