10111101101001111001111101100111
10111110000000111110111011101000
10111101100101110110011110100110
10111101111110111000011110011011
00111101110100011010110100100101
10111110001100111110001111110011
00111101101111100001100101000010
10111101011101110010010111100110
10111101101100010100110100101100
10111110001000011010100010000110
00111101000110111101001110000101
10111101101000100001110101101011
10111101000000100001110001111010
10111101111110110000011101001110
10111110001011111111101100100010
10111110001010111111111011011110
10111101101100100110001101010001
00111101111011101100100001100101
00111110000011010100100100100001
10111101110000111100010100110010
10111110000001011010000001110101
00111100011000110000000011010101
10111100101101011110001100010001
00111110000110000111100001010001
10111100110001100100111000111001
10111100100100111011000101111111
00111110000001111101011100011110
10111110000001000011000011010011
10111100000001010000110001101101
10111101100111111100011101011010
10111100111111110011011100111100
00111101110100110000111101011000
10111101110001111101000101010110
00111100101110011101111100100110
00111110000111111100011001000010
00111110010000010001010000010000
00111101111010100101000111110010
10111110000000110011001011001100
10111101101101101100111000101100
10111101111011001111110001011110
00111110001011000010101001100010
00111101011010101110100111011001
10111101001100001000101000111011
00111101111100000011101001101111
00111110001001011110000011110011
10111101010101110111101001100101
00111101100111111100011110010110
10111110000110001011110011101010
00111110000010100111001111001111
00111110001101010011010111000010
10111101110110100101100111000010
00111110001110100111111111110000
10111101010101110111001000100111
00111101111010110110111111010111
00111110001101001100100000011111
00111101101110100100111101011111
00111101111101100111111111110101
00111101000100110110011000101111
00111100010110110000110111101100
10111101101000100001100001110101
10111101011101100110000111100110
00111101111000110110100010011001
00111110000101100100110100001110
00111100110101110100001011101111
00111101100100111001010000100110
10111101100111011000000110011100
00111100111111101101001100111111
00111110000000011100110101111110
00111110001010100011010011000100
00111101111010000111101100110001
10111101111100001001110101110000
00111101111100100111101100000101
10111101100111010010110111101011
10111100101000110000001110111100
00111110000000010101000111011100
00111110001001001110000111110101
00111110000111001100100110111110
00111101000101110000011110111011
00111110001110010010110010010001
10111101011111100100010001101111
00111110001101000011001011000100
00111110001001011001110110100000
00111110000010111001110111011110
00111110000001101111100011100010
10111110000110101011101010111001
10111101001001011101011010101111
10111101101100001010100101110101
10111101100100001011000111000001
00111101010111001101010111001010
10111101111111010111011101001001
10111110000110100011111101001000
10111101100011100010110110000111
10111101000100111001110101111001
10111110001110011101000101111111
00111110001100101110101110010001
00111101000100010010111000000101
10111101101001100111011110101001
10111110001000011010100111011011
10111101011010101001001111000001
10111101111110111010001011100101
10111101011100110110111111010000
00111100110100001000001100011111
00111101110000001001111000010101
10111101000110010100101011101001
00111101011010101010000100111010
10111100111100101100000001001110
10111101001101111011010010011100
00111101110100100110010101101011
00111101100111101011110000010010
00111100000111000010110100011110
10111100000001101100111000001100
00111110000110001011101100001111
00111101100110111011111011011111
10111100001100111010010101111001
00111101111010001010001101010111
10111100000110110011110110101010
10111110000101111110010100000110
00111110000100001011011111101011
10111101000110011110001011110011
00111101000000110110001100101011
