10111101110000000101001100101101
00111110000000100011101100110111
10111101111111000100111001111000
00111101110011001010101001001111
00111100111011110100011000110010
10111011001000110111011101111011
00111101111110101000111000100011
10111100000111101100110101011011
00111110000011101110001011110111
10111101100110000010000111000000
00111101001001011010001000001110
10111110000100100011101100101111
00111100110100101011110000110000
00111110000000101101101001011111
00111101011110011011000010110111
00111110001010011000010100011101
10111101001000001000110001001001
00111110000001111111001111001111
10111101100010001010111100011010
10111101100000100110111001110100
00111110000100001010010011000001
10111101101111110011010001010101
00111101110010101011110110001001
10111110000100000010111011111101
10111101111010011101000011011101
10111011010101111010000010000100
10111100101000110010001001110010
10111110000000110100010110001100
10111101111010000010000101010000
00111110000010101000100110011101
00111101001000110001101001000110
00111101110101001110010110011001
10111101010110101001110111010101
10111101111111100100010001011010
10111100011111101111101101000100
10111101101000001001010110011110
00111100100101011010010011111001
00111110001110000100001111010100
00111101111010011011110000001010
10111101000011100110100010111100
00111101111010010101000110010110
10111101110111001000011011101001
00111101000000001101111111000010
00111101110100010000010101100010
00111101011110100011011110010111
10111101100110100011011010111001
00111110001000001111111111011111
00111101000010010110010010100010
00111101011011001000010000111010
00111011001100110010010001100011
00111110001101100001110111101001
10111101101111101011000101111010
10111110001111011001110111010000
10111110000101011011010001001111
00111100001011001101011100110011
00111101100111101000010000111010
00111101010100111110111001101101
10111101010100010000001000111001
10111110000000101110110001000000
00111101111110111010001111100101
10111100100001000000001100101110
10111101110101111101101001110110
00111100001111011000000101000101
00111101001000010010111000010101
10111101110011111010001101001111
10111110001110101000110100110100
10111100111011110110110101110111
00111110000100110111110111110111
00111101001001100101011111011010
00111110000011110011111011100000
00111100111110100111111110010111
00111110001000100111101001100101
00111110000000110101111011101000
00111110001010100010010001011101
10111110010001000000000100100000
10111101100001001101001100100110
00111101101000000010000100110111
00111110000011011000011001000010
00111110001011111011010010010001
00111101000110101001100011101110
00111101111111000111111100011010
00111110000101111011111001110110
10111100111000000111001110100111
00111101110011010101011011111000
00111101100011100111100000001111
00111101111100100011010110000110
00111011111011110001010101000010
10111101001101101100001000101100
00111101001010001010100010110100
00111101110110101011000010001010
00111101010110000001110011001011
00111100101010001001000010001000
00111101100010001011111110011010
00111101000110001100010001111111
10111110001000101110111001101001
10111101110000001100101111001011
00111101111011011011100010100110
10111101001011110010100000110001
00111101011011001001001100101000
10111100100011001001001010111101
00111110001010110011101100010110
00111110001110000101011011101110
10111101111011110001010100101110
00111110010011110100111001101010
10111101111100100100011110110000
00111101110101111011111101110000
00111100011010000010000110111000
10111011111101010100001000110101
10111101100011010100010011110010
10111110000110111011010101011001
10111100101011010101000010001111
00111101110011110001111001100011
10111110000111000111001111011011
00111110001000010100110101101010
10111101100010101100000111010011
00111101011101011011000010100001
10111101101111101101010010100011
00111101100010101110111111011010
00111100011010000110110011001000
10111110000111011110011101000001
