00111101001100110000101010110111
10111110001010010000011011111001
00111110010000111011111100001010
00111110000100111110000011110111
10111101001101110110100011010101
10111110100111001110011011000101
00111101000011101110111010010110
00111101100010111000011101101101
10111110100000001110101101011101
00111110001010010010011100001100
10111101111111011001111001000110
10111110001011011111001000000111
10111110001010100010011010001111
00111101011101101111001011111010
00111110010111110001111000001101
10111110100010100111100110000000
00111110000010110100101110100110
10111110001111000100011110000110
10111011000101101110011111000111
00111110011100111010011001001111
10111101101000110000000100100000
10111110110001101000001101011111
10111110000011100000110101011110
00111110000111101111011011011011
00111110101000000101001010001000
00111110011101101101110010100100
10111101100011100011100010010110
10111101100010100100011100100010
10111110000110111010100101010010
00111101010011110001011101100100
10111110010000110010101010110011
00111101110001000101101101001111
00111101110100110101010000010000
00111110100001011010111001000001
00111101111001010111000110001011
10111110010101110100010110001000
00111100100010000011011011001100
00111101101011010101010111001011
10111110010011011011010110001000
10111110001101001110100010001111
10111110010111000010011010101001
00111110001000111011100001011100
10111101010101111010011101110010
00111101111000111101000001010111
10111110001001100100010011000100
00111110001001110111001000111011
10111110011001111001101111000011
10111101010110010011100001111101
00111110010101100111011100101111
10111110100011010100001101101001
10111110010010110100110110011111
00111110010000000000101011000001
00111110000000010011101010011011
00111110001100001101101001010101
00111101111001001101001001001000
10111110000111000100101100100101
10111110000101110001101000000101
10111101110101011101101111010111
00111110011100111100110001010111
00111101101000000000010010000010
00111101100011000100111101001111
10111110011100101000001001110011
00111100010101000100011100110001
10111101111110101110110111001100
10111110001101001100111101001100
00111110001000110100100011001000
00111110011101011010100000010111
00111110011011110100001011110000
10111101111011111111000001110001
00111101111000110100111110000001
00111101111001100101100010110010
00111110011001101000100101110011
00111110011001001001111011110101
00111110011100011101011100001101
00111110011110000101111110001100
10111011111001111100000110110010
10111101100010001110001010110100
00111110010001110100101101101100
00111110001110111101010000111111
10111110010001000010111010001010
10111110010101111011001001000100
10111100110100101110110010111011
10111110010111110110001101111000
10111110101100011011111100110001
