10111101011110101010100000100000
10111110010101111111101001101010
00111101111101011000110100110110
00111101100100111010001110100010
00111101101110000100000110110001
10111100100111011101010100100101
00111101011001111010010001001110
10111110000111010000000001110011
00111110001110111000011010011010
10111100000010000011101110010111
10111101101100101001001011010011
10111101001111011111101011100101
10111101000101000100100010110011
00111101101010111100111101000010
10111110000001000111000000010100
00111101110111000010001011011011
00111100101100111000000100000001
00111101011001010101110101001110
00111110001100010001111011100110
10111101101011101010110011000100
10111101110110101101010111011101
10111101110001011011010100000101
10111101001011100010010101000001
00111101011000001101110111101110
10111101100000011001011110011100
00111011111101000100110100100111
00111101001001010010110101011110
10111110001100101111000100010000
00111101111101110110101100111010
10111101111010010011101010011101
00111100001001010011111001111100
10111101011011111001001011110100
00111100101001101001001011100001
10111101100011011101011011000011
00111110000111100000110001001101
10111101110010100101111100100010
00111110000110101100100101011101
00111100110101101001000100111100
10111110000010010110011111110101
10111101000001000101000110110110
00111110001111111000010101001100
10111101100010101100010101010110
10111101111110101001001011000110
10111110000100100111011110110000
10111110000110001011011100001011
10111101100110011111111011101100
00111101000000010011011010111101
10111101101000011101100001101110
10111110001000001011011010011011
00111101110010101111101011010010
10111100111100011100100100000101
00111100101011100000111111010010
10111110000000010011011101011000
10111101100000111101001101111000
10111101000111101001000011010111
10111110000000001010110000101010
10111100100000001010000111011101
00111110000001000011001110100011
10111101010100001110110010100000
00111101011110110110001111001010
10111101011001000111011010011100
10111101110000000110111011011100
00111101110000111111101101101011
00111101001001101010001110000001
10111101010001111001001100001101
10111110001110110111111110101111
10111110000111100100100101001110
00111101111000111111010101000000
00111110010001101110111101011000
00111110000100101000010011011110
00111101111000111100110000111010
10111101010110110101010010110010
00111110001100001001101010001110
00111100110100110000110110010001
00111101001011111011111010001101
00111101000011010010111010001001
10111100111101101100011110100101
10111110010000001011000111110000
10111100101101000111111011001010
10111110001110101001010100111111
10111101111010101011001001001100
00111110000000010011000111100001
10111101011111001111000110111111
10111101100111010011111100010001
00111101101111101101111011001100
10111101001001010110010011111110
10111101011000111000001010001110
00111110000100110011100010100000
00111100001000001010100010010100
00111101100101111000100110111000
00111110010001011001001000110111
00111101011011001111110010000111
00111101001011010001001111100010
10111101001000010110001101010100
10111110000000001111011101001101
10111110001001011001010011100101
00111110000000101100001001001010
10111010100111011011110110100001
00111101001100001100000100111111
10111101111010001010100100111110
10111101100110000110100111110001
10111101101100010011010000001101
00111101110110110010100001011101
00111101101011011010011111101000
10111101001100101001101010110111
10111101001010001000110111110001
00111101110000001110101011000100
00111101010111011010110111110111
10111110001001100010111011001111
00111100000010011101001010010101
10111100000010000011000011000000
00111100101010001110100011110100
00111101111111000110100101100001
10111100010000110110101101011111
10111101100011100100101011001001
10111101010010111110101011100011
00111100111000010101110101110010
00111110001010111101100001000000
00111100110110100011101101011100
00111110001101100100011001001111
