10111110000001100101010111110011
10111110000000000010000000101010
00111100110000011111100010111100
10111110001111011001001111001101
00111100000111110001011010001000
00111110000001111100011000100111
00111101100010110101100001000010
10111110000101101111010011101111
10111101110010101000110111110100
00111100101011101000011000000011
10111010110100001111110111100101
00111101100101001011001001101000
10111101110010011111101110001100
10111110000010001001100001100100
10111100001110010100010001100000
10111110010001011110111000011110
00111110000001010011001101010010
00111110001111100011110111010000
10111101010100101100110010101001
10111110000111011010101110011111
10111100000111100000110100100100
00111101010000000100010101100010
00111110001011011110001000110111
00111011111111100000100001001111
10111101100111000000110000010110
00111101111110100111101101100111
00111101010101110011110101010000
00111101111100111100110000111111
00111010111101111000110110100111
00111110001101001000100111110110
00111101101001110110001110011010
00111100000011011100100111110100
00111110000111111010010001111001
10111110001110010111010100011001
00111101110001011110000100100000
10111101011110000110010100111011
00111110000010100101111110110010
10111100111110011001000001010111
10111110001010000011010101011000
10111101010100001001011110110001
10111110000110010001111100111111
10111100010001101001101101010011
00111101100101010110011011000000
10111101101001110110101111010110
00111110000101110001110101110101
00111100110101101000010100000101
00111101110001101010000000000110
10111101101111001001000111101001
00111100011010110100110000101000
00111101111010000100000101000001
00111110001011001100111011000111
00111110001010000001110111000011
00111101100111110010010111110100
00111110000010000011110101111101
00111110000011110110000010100000
00111110001110000101000100010001
10111011111010110001011010111010
00111110001011110010000110100011
00111110000101011101010100100001
10111110001011110111010100010111
10111101111001101111111100000001
10111101111000110110001110001110
00111100101100101111111100000111
10111101111110011111111100101000
10111100110100110011110000110010
10111101100110011000011000100111
10111101111010111101001010100101
00111101011100110100100001010001
00111110010010000101100111101111
10111101010111000100011001101110
10111101110011001100110101001110
00111101101011101001011111000011
00111110001001000010010010110000
00111110001100000011001010101011
00111101100000000010010001011111
00111110001111001111000011100010
00111101001111000010101010001101
10111110000100101000000101011111
00111101100111101110111010010101
10111101011001001000100100010010
10111101100001010010110011011010
10111110000010001110001110000111
00111110000101000000010001011111
00111110000010001000111111001110
00111110000101011010010011111001
00111101111110001001100111000100
00111101110111011000110001000010
00111101111100100101010001100111
10111100111110011010001100101000
00111101100001101001110111001010
10111101110100110000000001101001
10111100110010000001111000011001
00111101010011011010101110001100
10111101100001111001001111001101
10111110000001001110011111001111
00111101111000101001111110110101
00111101101001011010101100100000
10111110000001100010010100101000
10111110001110000111111001100111
00111110000100010111111110110110
10111110000101111101111101000001
00111110000111101100001010101110
00111101110011110101000101101111
00111101100111101000110110111000
10111100101101111101001011010110
00111110000000111011111110111100
00111100101000001100011111111111
00111101111010000100000101001100
10111011000110111010000101100100
00111101000111100001010110101000
10111001010001000010001000111001
00111110000111111111011101110110
00111110001010001101001111100101
00111110000010000000111001101010
00111110000011011011101100101110
00111110001000111010000010010111
10111101011101101000111000111001
00111101011110000011000110011111
10111110000111011011101111101011
00111100100110101010100111011011
