00111101110010010010001100001111
10111101000110111110000010110100
00111100111100011111010011011111
10111110001000111001011001111010
10111101101100001011100010110011
10111100001001100000101101111011
00111101100110001000011001011001
00111101100110100101110111011101
00111110001010111101101111100001
00111011010010010100011011000010
10111010010110000000110111011010
10111110001101010011111001011100
00111101010000101100110101110100
10111101000101001011111111011000
00111011101111110100111011001000
00111101011101111110011010111101
10111100111100011010110110000111
10111101010000100011101111011010
10111110001110101011111011110110
10111110001000001111100011111011
10111110001010111011000110110011
10111101011011110011101001000100
00111100100000001010010101001101
00111110001101111111010011100111
00111101101110111010000111100100
00111010100011111001000110000100
00111100000010111011111011111100
10111110000000110000100001010011
10111101100011111100111001101000
10111110000101000101110111001000
10111101111100001001011111010011
00111100110011010011111010010010
10111110001000000110100101111110
10111110010011001000010010110000
10111101100110110000111100010110
10111101110011011100010110110011
00111110000100011000111100111000
10111010001111010100011011001001
00111101110111001111101010101110
10111100100110010010111111101011
10111101101101110010000001010001
10111011011111101001011000111001
00111101110011010011100000111001
00111101101001101011110011100011
00111101111000011001111110010110
00111101110110011111111110000011
00111101001110011100110000001100
10111101100010000101011010001010
00111110000010011101010100110101
00111101100001011100000000110001
10111101101101110001011101100100
00111101010111100000110001001001
00111101011001101110000101110110
10111101100011111111001001101011
00111001111111001110101000100111
10111110000110000011001111011100
10111101111000111101000001100000
00111101111111111000111110011000
10111110000011001100111101000111
10111110001001001011100000001111
00111110001110000001110011100010
00111110000010000000001100101100
10111101110011000101110111000001
00111011100110101000110100010100
10111101001110010101000010101000
00111101111101100000001010001000
00111101111001000001100101101011
10111110000100010000011111001100
10111101100010011011101010011000
00111011101101011110110000101011
10111110000011100101011111000010
00111101001111010000010011100100
00111101001101100100111001000101
00111110000000101010111011000100
00111101101010110010100000001010
10111110001110110011000001000110
10111110000011110011000001000101
00111101101010100001101100101110
10111110001100010101000010110010
10111101100110001101111000101011
00111101110001110010100100001011
10111100001000110001110101110101
00111101111101101101110101000111
10111100101010111000000101101101
00111101111111010110101011011011
10111110000010111011011101100001
10111110000100010011101010010010
10111101110011011110000100100000
00111101111011011100100100111000
00111101011000001100111010101111
00111110011010100101010010111010
00111101111100101010010000110111
10111101000100011100111100010011
00111110000001110110111100110001
00111101101110011110010000010011
00111101100101011000110000110111
00111101101100111011100100011011
00111101101001101010100111001010
10111101100000110111101101001110
00111110000100000100101100010001
10111101101100100001000000000001
00111011101110010011111100000101
10111110001011000001011001011000
10111110000110001101100010110101
10111110000111010111001010011000
10111100111100100011100101011010
10111101110001010001100110011111
00111101100111110111011000010000
00111100001000101101111001000110
10111101001111101100100100110000
10111100101111100011100110001111
00111101110111100010110101100001
00111101100100100001111110000010
10111110001001001010111000010011
10111110000101010010111011101101
10111101100111010000001100101100
10111101000101111110010100111101
00111101110001111101101110011100
10111101100010000000100000001101
10111110001000111010000100011110
