10111101101000011111001011110111
00111110000010101000111110000000
10111011001011111001110001000011
00111100101001011000011110100010
10111101110111100001100101111010
10111101101110111101111010001110
00111101111101010101001101100110
00111110000101000001011000011011
10111101101111111001010100000010
00111110000101000101001101011011
10111110001011011000001000101101
10111110000111001011110001111010
10111110000000001101011000101110
00111101111101001110100011101000
00111100010110001110100110011110
10111011101100101000010110001001
10111101111110110101100010010110
10111110000001010100100100110001
00111100000111011000100001110100
10111101110110101000110111110100
10111100001011010110011110100000
10111101000111100100011011001011
10111101110000110001011011110010
10111101010010100000001110011010
00111101110010101100100000010010
00111101001100000010011100010111
00111110001010011000110011000001
10111101100110111000111100000011
00111101110101110111100110111101
10111101110101111000011000110101
10111101101101111000101110101111
00111101010001010001001111010111
10111110001000110000011001011101
00111100101011001011011000110011
10111110001000001011100001000010
10111101010001111100000001101111
00111110001000010101100010101110
00111101111011111111110101100101
10111110000010101101001110110001
00111101100000010100000110101100
10111101101010110001001111011001
00111101010010011100011011100010
10111110001011001111010100011010
00111010001001010000110101100010
10111100110001101010100010000110
10111101100000011101111100111100
10111101100001010010010000000001
10111110000100011011100010100010
00111010111101111000001011100110
10111101110100000000101011000100
10111110000100110111101101000000
00111100100011111000110101101001
00111110000111001010000101101000
10111101111101001010010111110011
10111011110111111111100000100111
00111101010001101011101011011001
00111101110010000110000101100111
00111110000101000000101110101100
10111101110010100011010101111101
10111100100011000100000001010011
10111101001101111001000100111010
00111100111010010111110100001001
00111110001010001001100110110010
10111110000000100011100100001001
10111101010011001010101001110101
10111101100110111001010100001001
00111101101110111101111110011010
10111101101101000011000101111111
10111100001001110110111010110110
00111101110010100001100110111000
10111101110001101010100100111101
10111110000011100100001110110001
00111101011000101000100101100010
10111101101100000100011111100001
00111101110111010001111101111011
00111101111011101011100111111001
00111110001001101011101011011010
10111110000011010011110000100001
00111101100001110100001110111000
10111101011110000001000001001101
00111101100100111100001010000010
10111101100010100101111100111010
10111101101101111011100010101100
10111110000001100100110010001001
00111101000111101100100010001011
00111101100111101110110000011111
10111101100001100011100000100111
00111100111110011110110001000101
10111101101111000011110100000000
10111011110000010111100011100011
00111101111101001110111101111101
10111110000101110000100000001100
00111110000010111101110010100110
00111100111001110000011001101100
00111100110001111000001001001110
00111101100011100011010000101000
10111101010010010010100111011111
00111110000000100111101100101000
10111100101110111011000111100111
10111110000010100100000000010000
00111110000011101011100101101000
00111101000001000101010111111100
00111101111101100011000010010111
00111101001011001011101010100000
00111101001001000100011001111000
00111100110011000010001011001000
10111110000111111000010111110110
00111110000010010011111101110111
10111110001010011011100110101010
10111100000111000111001001000111
00111110000011000000110000111111
10111100001110101001001110001100
10111101001010001110011110101111
00111110000011000100111101010000
10111101111111001011111000110111
10111101001000110111011010000111
10111101011011111011100011101000
10111101100100100100000100011000
10111100110111000100100010010110
10111110001001001100000001111000
