10111001110111111000110010000100
00111101001111101010101101000111
10111101001111000001011100011000
10111110000011100100011001000000
10111100110111001001110111111000
10111110000110111010100100101010
10111101000110011010101011011101
10111110000000100111000100100111
10111100011010110010101110011011
00111110000011110101000000011011
10111101011101011010101110101110
00111110000111101110110100011100
10111101001110100101111010000101
00111101110010111001101110100000
00111101101100001100010100111011
10111101100001010101111101111110
10111110000111001011001110010001
10111011011100101100111001101111
10111110000100001010101001101111
00111100000111110000010101011101
00111101100000101011111011000001
10111110000101101100101000001101
00111110001100101101000010100101
00111110001100010101010100010100
00111101000010010110001101101101
00111101010010000000111100110110
10111101100110111000110110000111
10111100100010110000100010011011
00111110000001100011110001011110
10111101100100001101100110100101
00111101001110011000001110111000
10111101101001010000110101001111
00111110001010000011101100100000
00111101111101011100111000001010
00111010101101011000100000001110
00111011001000111101010010110101
00111110000110111000000010101010
00111101000100101101000110110001
10111010111101100000011010110001
00111101011010101110001100100000
10111101101110110001100001110110
00111101000011101110111010111010
00111101000100011111010100100100
10111011101000001010001110001111
10111101010011011100011111011001
00111110000000100100100100001000
10111101110000011010000010111011
10111110001000000110011011101110
00111110001010000010111011001001
00111100000100111011110111011011
10111110000011000101010011101000
10111101001001111010100010011101
00111010011110010110001110110001
10111110010010001110100010111110
00111100101001001100010010100111
00111110001101001010111000100001
10111110001010101100111011000110
10111101110100000110011000110000
10111101010101001010111001011101
00111101111111101101001111010011
10111101111001011010101110001010
10111101000000111000110011000110
10111110000001101000100110010010
00111110000101011011001100000100
00111110001001111000000010000100
10111110000011110101111011110001
00111110001011011011101001010001
10111110000010111111010001110000
00111101010101100011010110010100
00111101001110101011111010001011
00111110000001000010111010000100
00111011110110110001101000100110
00111101011010101010001111101111
10111100010010001001001001110110
10111110001111101101010001111111
10111101001000100000001101011010
00111100010001000100101011101010
00111101110000110110110011100101
00111100111010101110001001000100
10111110001001100000011000101001
10111101111100001000110101010010
00111101001101111001111111100001
00111101100000000111100001001011
00111101101110001101111011000110
00111101111101100011110111010110
10111101111101101110001111000111
10111110001110101010100100010100
00111101110110000110110101110111
00111101001100010011101101000010
00111101111111000000111010001111
10111110001101010011100101011000
00111101011100110100111000010101
00111101110001010111000100111111
10111101001010111100001110000011
10111101000000101001110100011101
00111100101011011010000110101010
00111110000001111000111100010011
10111101101100111010100000001100
00111110000101000001001111110110
00111101110100010010011001011010
00111110001100000110100000011100
00111101110001101100101100100111
00111110000011011000111000100100
00111101000001100110011000001101
00111101110111101001101101110110
00111101000000110101100111100000
10111101101011100011110000101111
00111011000000000011111000010111
00111100110101111100000100111100
10111101010110010100011111001011
00111101101011000000100110111110
10111101110111000101101100010100
00111101111010000000110000110010
00111101110010101010001010111101
00111101101001000000010011010001
10111100101100000000001011001000
00111101011010111101110010111000
00111110000001001100111101010101
10111101110011101011111001011110
00111101101101111100001101111111
