10111110000010110111111111111111
10111101000100100000110001110110
10111100101000100101000000010010
00111011111111110000010101000010
00111101110000011101100110010100
00111110001011010101110111001010
00111101110100010111000110010100
00111101110101000110010100010001
00111110000000110011000100110001
00111100100001000101101110001110
00111101101100101101001010001011
10111100101001000011101101110011
10111101100101001001100110011101
00111110000001001111011111100011
00111101010011010010001011010100
10111101100000010010011011011101
10111100110010111001111011010100
10111011111010101010010010111000
00111101010001110111111000110000
10111110000110110000000010000100
10111101110110100110110101110011
00111101110101111110011000011000
10111101111110011001011100001101
10111100111111001010011001010011
00111110000100010111101111100011
10111101100110010110011110010101
00111110000111111110001000101110
10111101111010011000000110000010
10111101011110100000000100111011
00111101100010001110100001000001
00111101100110111100010011111001
00111101100000001111111100011100
10111100111110010011100100011111
00111100110011000010010001011110
10111110000011000110010100001011
10111100111001010000010001110010
10111101101111011100001100101001
00111100011000010011010101101000
10111101101000001001001110011101
10111110000010011100101110100011
00111100100010110101110000000000
10111101101011100101101100010011
10111100101011100111001100110110
10111101000100110101110101100010
10111110001100000111011110011001
00111101010100111011001011101011
00111110001100011101111011001000
10111101111110101010000011010000
00111100101010101000101010001101
00111110000001000100101001101011
00111110000011100101010000011100
00111101001001101010111000110001
10111101001111010001110111110100
10111101100011101110001011110001
00111100101110000011100111101110
00111101111100001100111011110100
00111110000101011011111111000011
00111110001010011010110011000000
00111101101100101111101000110111
00111110000111110100001110000111
00111101000010101110011110010111
10111101111110110110010100111101
00111101101001001111101010100001
10111100111101100011011110100000
10111101001110000110010101100001
10111101011011001010110001001111
00111101010110101010010100001110
00111110000000100110010100011100
00111110001110010011011100011011
10111110001000011111110010010010
00111101110101010110111110001000
00111101110010100101110011000110
00111110001000110001111110111101
10111110000100000000100111111000
00111101001010110100110111010101
00111110000111000110010111101100
10111101011111100100111011101101
10111101101001110001001010110100
10111101001100101010110010001000
10111011111000111000011010110110
00111100110111111010100110101001
00111101110010001010100100000100
10111101111001111101111101001110
00111110000001000011101010000000
00111101101001000101001011101001
00111101101011111011000001001110
10111101110111101100111000001111
10111101100111110000001011000100
00111110000100011101111111011101
00111110000110111000110101111010
00111110001111100101111110010111
00111101010100011110111000001111
00111101101011010110101111010111
10111110000110101001100011101000
10111110000010101011000011110010
10111110001001011010011001001110
10111110000011010011110011001100
00111110000100010010010010111111
10111101100001101111101111100110
10111110000111111011011010000111
00111110000010010100100011101101
00111110000001111110000110111010
10111110000011001001111011101000
10111101011101100001010101101001
10111101111110010011101101010000
00111100010100100000100110000000
00111101011110101111101111000100
00111110000111110100100000110011
00111101110000110010011110000101
10111010100101111111100000110101
00111101010110000110001011101111
00111101101011101001010000111111
10111110001100011011101001001011
10111101111001011001011110101000
00111100110000001010011110001110
00111110000111010100111011111110
10111101100100111001011110111011
10111101101100100111011111000111
10111101100011100101110000001001
00111101101100111100110011010000
