00111110011110100011000101001110
10111110010001101010001100011011
00111110011110010010000000011100
00111110100110001110111011101101
10111101011011101010010001100000
00111101000101111010011011100100
00111110010110011110001110100100
00111110001100100110111111011000
00111110011000000111010010111100
10111100100011011100000010011001
00111101110110000100010010001101
00111110100001110001110011101110
00111101101101111101011000001111
10111110011001001001010001000101
10111101011010111101011100101111
10111110001100000100000101110100
00111110101100010111001001010010
00111011011110010100000001000000
00111110010001100010000010100000
00111110001000110101001000000100
10111100100101010001101110110000
10111110010111001000001110101010
00111101100011100011011001000011
00111101101101000110101001000000
10111100111011001110001011111111
00111101111010101100101010110000
10111101100101110010001001011111
10111101100000101010111101000010
00111110100000001001110001111010
10111110010111110110111101110010
10111101001001101000011011101101
00111101100010101110010100110000
10111101000111011100001100101100
00111101101001000111010011000011
10111101110111100100110010000010
10111101001011100010010100100000
10111110001001011011010111101011
10111101100001101011010110101000
10111101000000011010100100000101
10111110010101110001110001010111
10111110001011110001000111100100
00111110001000001001001111001110
00111110001101101110111110011111
10111110100110000110001010101011
00111100110111000100011110111011
10111110010101111011101001100101
00111011010110000000100110001000
10111101101010110010001110110000
10111101101101110110101001110101
10111100100000001111110011100110
10111110011000010110101000010010
00111101000100111100000111010110
00111101101001011011000001101010
10111110000001111101000101000110
10111110001011000011000001010101
10111110010010101100101111010110
10111101110010011111010011110010
00111101011010001111001101100001
10111110000100011100100110111010
10111101001000010000010101000001
10111110100100101010000100010010
00111100101001001110010100010000
10111100111001011011001100001010
00111110010111001100011100010000
10111110000110000000100110110001
00111101011100011000001110111001
00111101100010010111110011100010
10111110000100011001010101010111
10111110001100110011001100101101
10111101100111011110101111011011
00111110100110111110111111101101
10111110011011111101001001110110
00111110011010101010000011100010
00111110100001000101101100101010
00111101000000100101000101000100
00111101001111010001111000000000
10111101100100001001100010010000
10111110010110000110010101000110
00111101100110111000101111110000
00111101110000101101100100110010
10111101001011110111100110101000
00111101101111110010010110100111
00111110101100111111101001111001
10111101101010111100010000111011
