00111101001100010110100100010011
00111110000001100001110101111010
10111110001010100011100011001000
10111101000101000000101101010001
10111101001011010010111111111000
10111011001001001000110011100101
00111101100111000111010011000000
00111110000001110110101010001111
00111101100011011010101110110011
00111101001011100001101100000001
00111010010000111101011010101000
00111101111111000110010100111001
00111101000010001100110000110111
10111101101010111100000000101000
10111110000111000001000100010111
00111110001111100110100101100110
10111110001100101101010101011101
00111101101101001000101100110110
00111011111001000000110100000111
10111101110111000001100000111101
00111100110101011100101111111011
00111101101010011101000011010001
10111110001001000010011001010100
00111100000101011111101100010100
00111110000110110010111110101001
00111101100111011000011011110100
00111101101101001011110010100110
00111101000110010110000101110100
00111101111110000100101100100000
00111100011110001111111111010101
00111110001100001000011101010010
00111101100010011100010000011110
10111110000110010100100101010011
00111100001111110000100110000111
00111100111100011001110100111110
00111110001011010001001100000111
10111100101101111111001011100000
00111110010100111111100101010000
10111100011001001110101010010010
10111110000101010110111010100101
10111101111110111110100010010011
10111101100100001001010110110010
00111101010001010101000001010111
10111110000111011100000011000101
00111110010000101100011010000010
00111101001110010111000110000110
00111110001001011001100111001100
10111110000111111111000001000000
00111110000010101110010000001100
00111110001000100100101110010110
10111101110100110101001011000100
10111101010100010011000011111001
10111101110001110111111000001110
10111110001011100010110101010001
10111110000000101000111001001101
00111101000101111010101011001100
10111100100110011111101010100001
10111101000100010101101011101100
00111011000100100011110011110001
00111101001010110100001110100101
00111110000001101100011000101100
10111110001001100001010000010011
10111110000111000000110011011110
10111101001000111110001101001010
10111011010100010100010011101000
10111101001010100011000111100101
00111110000001100111000100010001
00111110000011110000101001001010
10111110001010111001110110010100
00111110001000001010110110111001
00111101010000001001001101011111
00111110001010010110111100010111
00111110000110011010111111010001
10111110001000000100010010110110
10111101100101111000110010100010
00111101100011110101111111101011
10111100111000100100110111111011
10111101100011000010011010000111
10111110000010000110110010010001
00111101100101011011011011100000
00111110010100101010000110111000
10111101001001011000011101000000
10111011100010100100010000101110
00111101100101110111011111000011
00111110000100011001101001010111
10111011110000000000101101000110
10111011101000011111100100111001
00111101101000110000111101100100
10111110010000100111000101110111
10111100000101010100110011010101
00111101101111111000100010000100
10111101101000110010000111110011
00111110001011110011001001110001
10111110010000000100010011010110
10111110000101000101101101111001
10111101110100110011010001100100
00111100101111100110110100011011
00111100111001110100011001001110
00111101011111100110011101101001
10111101111001010110001100101100
00111101110010110111101101101111
10111110000110110100011011011110
00111101101100111111011010111100
10111100100110111000011001010101
00111100110001110010011010000011
00111101000010011011010110011010
00111101000000001011101101110011
10111101101111010000100011010010
10111110000010000101110110101111
10111110000100001110111101010010
00111101110111000001001111001110
00111101101111100101010111010000
00111101010001001010100000111100
00111110000101110010111100000000
10111110000101001011111010111010
00111101000100110111101101111011
10111101001111011110101011001111
10111101101000111101011011000001
10111101100001100110000101111100
00111110001110000101001110101000
