00111110000000010011100100000010
00111101010011010001100010110110
10111100111100110101101011100011
00111101011000010001000111111010
00111101011101100111101000001011
10111110001010100010100001010001
10111101100111001111100101101110
10111110000110000000010111000110
10111101101011110100001110000101
00111101000101100001010111000111
00111100010100100011110011011010
10111101111100101101000011110001
10111110001001000101111010001111
00111101111010001110010001100110
10111110000101001100010100001000
00111101010100011000110101000010
00111100001111000100111010101111
00111011111010101011011001100010
10111101001111001011100111101111
10111101000100101001111100000010
10111100101100110000101010010100
00111101100101001110010111111010
10111110000010001001010101010100
10111101011011111110000110000111
10111101010111101010110100000111
10111100111010001110100011101111
10111110000111010011101000100111
10111101101011101111001000011110
10111100100110110011100010110011
00111110001000111011111110011101
00111101001101001101010011011111
10111110000001010011110100110010
10111101000100001110000001010101
00111101100010100000000001100001
10111101001101110100011000001001
00111101101111010010011011101110
10111101110011110101010110101000
10111101101111111100111010111110
00111101111110111001111101110011
00111101111111111001101110111110
10111100110001011101100001101011
10111101110000100010100101001110
00111101010001100110011101011110
00111101100110110001010010010111
00111011110100001001001101110110
10111011111101011110010100111101
10111010011010010000000100101101
10111101110001011011001011100010
00111110000011101111110001001111
00111101110100000111001010100101
10111101100101110001010011010100
00111011101100011001000101101001
10111110000011101010011010100001
10111100100111000000110100000101
00111011110011111100010000001110
10111100000100101001100010000000
10111110000001011001011111011011
10111101101010100100101010010010
10111101101101111000010001000100
10111110001011011000010101110111
10111101110010100000000111011100
00111101110111100000010100011001
00111011101001111000001100000110
00111100111100101110110001100111
10111100000111101110110100100000
00111101111000101001001111110001
00111101101011110110010110000001
00111101000011111010000010010111
10111101100101011110111111000100
00111110001011111001011110100111
10111101110011001100111111010100
00111110001010101010011110011111
00111101100010000110001110010101
00111101001110100110001011111110
00111110000100100011000111011100
10111100001010010000111100000001
10111110001010001010010101100011
10111110000111001111001111001011
10111100111110010111101011110011
10111011010101011111010100011101
10111110000011000101000000101001
10111101010011100110001011111110
00111100100111101101011010111000
00111101111010111001011011101111
00111100011100100011101010100010
10111011000100010010100011011111
00111101111010110011010010110100
10111100111110100101100010000111
00111101011110111111001010001000
00111011101101010111010100001111
00111101111010111001010101000101
10111101111011110111010111111101
10111100101001110001001111011110
00111110001010100101100110001001
10111101110111001110010011011010
00111100000010101101100111010100
10111110000100110011110001110010
10111101101011011100101000011011
10111101111101100110111100101110
00111011101111101100101011001000
10111101111111100001010010011010
10111110000100000001111000101001
10111101100100011110111111111011
00111101111000011111110000100111
00111101100111000101000100000111
00111100001000100110110110101100
10111110000001100010111110010100
00111100101011100101011001101111
10111110001010110110001100101110
00111101101110000010100000101111
10111101000010011001101000111001
00111101110100100101110001101011
10111011111100111001000000100001
10111101001110100001111001010001
10111101110100111110001001001110
10111101100010101010101011011111
10111101000011110100110110101100
10111101110111111010010000011100
10111110000101000100111101110101
00111110001001001010001101110110
