00111101111011101000011111110010
10111101101001011111111001111011
10111110000001110000001101110010
00111101100111010110001100111100
00111110001000111110111001010010
10111110010001000000010001001001
00111101000010111000001000100101
00111110000111100000000011111110
00111101001101110101011100111011
10111101000101110100001011001000
00111101110011110101110000110011
10111101110100100101010001001110
00111110000010000011100110110000
00111101110100010111111010010101
00111101010010101101010100111010
10111110010001010010010011001010
10111100110111101001010100100101
00111101011011100101101101000010
10111110000001000011101100101111
10111100000010101101100010000010
10111101111101001101111111011001
00111110000000110010001111111100
10111101001111101100001011011000
10111110001101011100010000000100
10111101111111010101010101111100
10111101111001011110110000000101
10111101111011010001111011101100
00111110001010010110101011110100
10111110000000110001011010111011
10111100101010111001010001101110
10111101101111100101111100101011
10111101100010001110000000100011
10111110000000111010000011001000
00111100110100010011111111001111
00111101100110101000111111100101
10111101101011101101010000110010
00111101011000011100111001110001
00111101111000110100110001011000
00111100010111011101010111100110
10111110000001100111001111110111
00111011100010010001110101011100
10111101101001001110100101011110
10111101110101000110111100010100
10111100010010110000101110101100
10111011110110011011001111100000
00111110000010111010000010010101
00111101110111011011100011101001
00111101000001111001010000000110
10111110001111110111111001100001
00111101101001011010010010101101
00111101100110111110100101000001
10111110000010101000001101100011
10111101001001000001101101010100
00111101000101110000011000111011
10111110001011110111111110101010
00111110000011011101011100011010
10111100101110001100110110111000
00111101101000011101001001001101
00111110000110010111110011110000
00111100001000110100011010101110
00111101010000100101000111001000
00111101101000110000111110011001
00111110000010110110101100101110
00111101100000000111101101000100
00111110000110101101011110001011
10111110001001110111110100111001
10111110001011000010010111111001
10111110000011010110011111001011
10111101010001111000000111110000
00111100100000010100101000101011
00111101101110000101100001000010
10111101001011010110011001110101
00111101101011101000010011110011
00111101001111001111111100000110
10111110000010100101101100101100
00111100111110111010010001000100
10111101110111110000100011011001
00111011101011011010100010110101
00111101110001011110011110001100
00111110001100101011100010001110
10111110000011110000000010101001
10111101000100000001110011000111
10111101001001011011110100101000
10111101000110101100111010111011
00111101101000010000011101000101
10111110000001000100111111010010
00111100101101110011010000100011
10111101110101010001010100101011
00111110010110111111110010010010
10111110001011000101110101101011
10111100101111101110010011011100
00111100100001000000001110001100
10111101010101111111101101010000
00111110000100101110001010000101
10111100100111100111010110010001
10111100000111100011101000111011
00111110001100110101100000010010
10111110000001010110110010100001
10111101100101100110111101110010
00111100110011000111010010111010
10111100110110001111001100101001
00111101100010101000000001101010
00111100001010000010001111000010
00111110000000001111110101010101
00111100010100011000101101101100
10111101011110100010000111110001
00111101000001000010011010110001
00111110000111111001100111100010
00111110001110011001101111010011
10111101011111111101011100000000
00111100001111010110011111000000
10111110000001011101111000000100
10111101000011000001011010101100
10111100010000101101000001111111
00111011001010110110101011001011
00111100001001100101100011101111
00111101011111101001000000100011
10111101100000001100011110001101
00111101001100011111111100010101
00111100101000010100101000001011
