10111110000000000101010011101000
10111101110100001001001100111001
00111100100011000101101111101000
00111110000110101100010000101011
10111101101110111000110110111110
10111110000011100010011000001111
10111100000010100011000000111001
00111101111110000011010111001111
00111110000101000001101011100100
10111101100011010001011011001110
00111110000100001011000100000001
10111110000001111010010110001010
10111101111001110100011000011001
10111100000111111101000001001110
10111101111111101111001000010110
00111101111011001011110010001010
10111101010100100100100110011001
00111101100111011101110011110010
10111110000111101101101001111110
00111101001011101000000010001101
00111110000110000110011010000001
00111110001001100101101001100000
10111101100001110111011100110001
10111101111000100001110001010010
10111101100110001100110111111100
10111101001010010011001011000110
10111101100010111101010100010001
00111101111100011100001101101100
10111101010011101001000001110000
10111100110111101100111001111001
00111100000100101111100010101000
00111110000100010010110000010001
00111110000001000010010011100101
00111110001001110000001010111101
00111101011101101001111011111100
00111101011001000001000110001010
10111101110100001111011010101000
00111110001011001110101010011000
00111101110010101000101111001001
10111101001101000010011101001001
10111100011101110001110110111110
00111110001010010001100011001100
10111110000010000111000111001010
10111101111100110010011100110010
10111101001010001101011101101111
00111100000101111000001111101000
00111101100100000011101001110011
10111101111011111110000110110000
00111100011101111101110111000000
10111100000010011101110111001110
10111101111000010010000110100011
00111110000100010110111101111100
00111110000011011101011001100111
00111101110000101110100110110010
10111101010101001110101101001001
10111100110001011001011001111110
00111110001110101001100001000011
10111100111000100010110000111011
00111100100111001101110110100110
10111100100100011111011001001011
00111101111010011001100000110010
00111100111011101110111000000110
00111101101001110100001001110100
10111100110100000011111000100001
10111110000001111001001001110010
00111101101011101101101000101011
00111101100101111011010100000110
00111101100010011111101111100110
00111110000101111010111010001000
00111101110000001111101000001111
00111110000011101111111010000100
10111100000101000011110100100011
00111100100100100110100111111111
10111110001000001010001100100011
00111110000011000001110111110000
10111110000100101001100110001101
10111101100111111110100010000110
00111101101100111100001110010001
10111101101010110110001001011010
10111011001100000111111011110001
00111110001101111000000000001011
10111101100000001001101000001110
10111110001000100000011110100101
00111110001011110101001111011000
10111110010101100111000110110010
00111101111001110111010101010001
00111101111111010111110011100010
10111110001001110100100000100100
10111101101100111101111101010001
00111110000011110111000001111010
00111101101100100110110100010110
00111101100100010100110101011110
00111101111111100100000100010000
10111101101110001011011100000000
00111101100010100110011000000000
10111101110001001010111111010110
10111110001101111110101111100000
10111110001011110111110011010101
10111110000001011011110001101011
10111110001010110011110100001110
00111110001101101110010001111110
00111101011001100011111010110000
10111101011111110011001110000011
00111101000000011011110010111001
10111100010001111011111110111100
00111110000100101000110100011111
00111110001010000010111100100100
10111101111110001000100110100101
00111101000011100010001000000001
00111110000010101010111110000111
10111101101000100001001011001101
00111101101001111110111000100111
10111100010011011011110010000010
00111100101110011001110111110001
00111101100111110111011111000001
00111101111011000111001100001111
10111110001000001101010011101000
00111101000000011100000111110001
10111101100001111110110011100100
10111101100101000100101100100011
