10111110000100000001010000100011
10111100111000111000100100101000
10111110000100011101000111101100
00111100111111111011000100010101
00111110001011011110000001001000
10111101111000000011100010111011
00111110001001000011101010000110
00111101101100011100111010000110
00111101100001111001111101101000
10111101111100101111111011110011
00111110000010110000010110010000
10111101110010011010010010101011
00111101011001001100001101011011
00111101101110110010011100111000
10111110001111010000011010011101
10111011001011000011010110101111
10111100101011101101010110100111
00111100101011011110100001110111
10111101011011111101100011000101
10111101111010001100000110101110
10111110000010100000110101100011
10111101101100100010100010000100
00111100101110011001011001100101
00111101110001101000111111010010
00111110000110001101101010000111
10111110000010011100110001011111
00111010010100000111010010010100
00111110000110100011111111000100
10111101100000011110010110011100
10111110001000100010101011100111
10111001111111111111000010111111
00111110001010011111101001101110
10111100110011110001000101111011
00111101000101110111111101000011
00111101101000011000101101010111
00111101101001010011111101000101
00111101101001100001111000011001
10111110000111101111010001101011
00111011110100101111100100100011
00111101110001111010000001100100
10111100100001100010010111011111
00111101110101001001100001001011
00111100000100010001100000111010
00111110000000100010000110000000
10111101000011001100010111000110
10111110000111010100010001100110
00111110001010110100101101101101
10111100110001000100000000111011
10111101101100101010100110100010
10111101100011111100111110000000
00111101110010111100101110100111
00111101111110100100101010011011
00111110001100011010000111101000
00111101010010111111100000101100
10111101000000011100100110110111
00111110000100001100000100101110
10111101011000101100110100000000
10111100101000111111110110001010
00111101110111111100000001100010
00111101010010110010110010100000
10111101001101100101100000011000
10111100100011001110010100010010
00111101011100101000110100110100
10111101111110101011110111010101
00111101111010110111111001000010
10111110000001010100000000101011
00111110010000110101110001100110
10111110001001110110101110100000
10111101011101000111010110100010
10111101100000110010011100011101
00111101110101010011011101000001
00111101111011101000111101110010
10111101010100010010010110110100
10111110000101001100010110010101
10111101011101011101001011010111
00111100111001111001010101001101
10111101101110000010011111000010
00111101101011011010111010001110
00111100100011001011011001010001
00111101010011101000010000100001
10111100110110000001010101100111
00111100101100001100010100111110
00111110000010000110100000101101
10111100010011011010000111110010
10111110000010110111101110100000
10111101011000100111110110010111
00111110010000001100001111100010
00111100011000111101111001111110
10111101101110000001001110111101
10111101101110000101110010001011
10111110000000011100001001011001
10111100100000110101101101010100
10111110001000011000101011111110
10111110001011011011011010100100
10111110000001010001111101111100
00111110001101111101111010001111
00111101101110111011101000001000
00111100001011100110011111010101
00111110001100110100111001111010
10111011101011001001110011000111
10111101011111011100111011011111
10111101110110011100010011110110
00111110001011111011100000100101
00111011011011000110100101000111
10111101110011111010111110110110
10111101010010001110010110001101
00111110000010100010111101100101
00111101111011010010011111011111
10111101111010000110101001101010
00111100010010110110110110100110
00111101100111011011011000100111
00111011110000111100010110010111
10111101110010110110010011001110
00111100101000000011010100100110
10111101011111001111001111110000
10111101111001011000111001110101
00111101110110011111000011111110
10111110001111100110000100110010
10111101111111000010010010111101
10111101100010001000000111001011
