10111101100001010001001010111111
10111110001010001101011011011100
10111101111100010110101000010111
10111101100100110111000110011110
10111110000001111101111010110101
10111101010100000101001100110101
10111101011011101011010010111011
10111101100010100111010100111001
00111101101111100010000101000111
10111101110110000100111110110101
00111110000110101111000011111100
00111110001001010010100100000101
00111110000011110101101101001110
00111101100110010111110101100101
10111110010000001111110010110010
00111110001101101011000110001001
00111110001000110001000001010111
10111101011110101011001001000000
00111101111111110011011010011100
10111110000011000101001110100110
00111101110010110010110110011010
10111100010011110111101010001000
10111101100100110011001111100111
00111011001011110000011110001101
00111101111100110001010100011001
00111101110110010111001000100100
10111100001011000010101100110001
10111101100100001110101100000111
10111101001101001010101010111010
10111100101101111111110001000010
10111101100100011111010101101000
10111101111110011110100110001010
10111101101010010001011001011110
00111110000010001111001001111110
00111101111111100111110000101001
00111101111010111010011010110011
10111000000011100000011001011011
10111110000101100111011010110100
10111100001110110100010101001111
10111101001110010101100100011101
10111101101101000000001001010111
10111110000111010101100110010001
10111110001001010011111010110111
10111101111111010110010000000100
10111101001110110001111011101101
10111110000100001101011001000001
00111101110111101111100100010110
10111101110110101100110111000000
10111101000100000100101010101101
00111110001011001011010111001101
00111101110110010111100100101111
00111101010111111010011101001000
00111101110101101101000111111011
10111101101110110100000011001011
10111110001001001101011001110110
10111101000100110001000010110111
10111101110110010110000110001111
00111110000010000111101000101100
10111100000110100011110111110011
00111101001001000001101000101000
00111110001000001011110110111111
10111101110111111101010101010100
00111101110011101101101001010011
10111100001000111011100011110110
10111110000100111100001000001101
00111100111100100101000011100001
00111101101001110100001100000000
00111110001000011110111010011110
00111110000111001100010100001000
00111101001000110111000000010001
00111101011111001001010110000100
00111110000001111101010000001000
00111101100101010001110101010110
00111101100110110100111110001111
10111101111011110000000000010010
10111101110110100101111101011010
10111101100100101001010111100101
00111101100110101101010011101100
10111101010111011100111101111010
10111110000111111000100101011001
00111100000011010000110011010010
00111101010001111001001011011111
10111101111110111101011111100011
00111101100110101011001010111000
10111101100100100111011100111111
00111101100001000011011011101101
00111110000100000100110110011100
00111101110001111101011000001010
10111101111010001111000101010000
00111110000111100110110110011101
10111101101001100100010101001010
00111100110010001101100101001100
10111110001100011100101011110101
10111101000101100111100010000101
10111010101001001000000111011111
10111110000111110101100111110001
00111101100010001011111100111111
10111110001110101100011110100001
00111101110011011100001001111110
00111101100001000010101001101110
00111110000010110110011010111000
10111101001110011011000101100011
00111110000001100111001100011101
10111101101111001000001001111111
00111100111011111100001000100000
00111101111011001110100101010001
10111101100011101010011011000110
00111101001010110011010100110001
00111101110111101001111111011010
10111110000100101001000001101111
10111101101111111000000100011111
00111101111111110110001101100000
10111101110111110101010100110101
10111101010111010111100001011110
00111110000010010101000011100011
00111110001100111001001110011010
10111110001011111111111001010111
10111101001011011100001011111000
00111101010000001100000100000100
10111101101110010011001100111111
