10111110000100011111101100000000
00111101101111001001101001000011
00111101100101011011100101011110
00111101100110101101000011110001
00111101000011101010101001001111
10111101111001000000101001011000
10111110000010111101110100111000
00111101000000111110010010011100
10111110001110000101101000001111
00111101100001001101000001000101
00111010101110110010001000110011
10111101110100100111100011001111
10111110001001001111110010100001
10111110001010010011110110001011
10111100110000011100000001110000
00111101100110010101011010010010
10111100100100111101000111111001
10111110000010100101101101110101
10111100101100111101111001110010
00111100100101101001100100110111
00111101110001100110111000110000
00111110000001111000011100001011
00111101011100110100011011011001
00111110001000100101100000001110
00111101101100001011010110101010
00111100100000001001110001010010
10111110001110110111110000110110
00111100110111110110100001101000
00111101111111101101100001110101
10111100101000111111010000111011
00111101100000010101010000100111
00111101001010011110110011011101
10111101001101010011111011001100
00111101111100011010000001101011
00111101111011011011010011000001
10111101111110010101001000111111
00111101111000110100000000101110
00111110000000000000100001010100
10111110001100000011001011100101
00111101000010111001101000110111
10111101000111000100011110100110
00111100111010100000011101111001
10111110001011010110101111101001
00111110000010000010000011001100
00111101001111100110011100111001
00111101101010011100111110010110
00111101111100001011010110100001
00111101111010010001001101101100
10111110000010111000101100101101
10111101011100011101110010001101
10111110001001000100111001110001
00111110000101101001101110011011
10111110000000111111011000000000
00111110001100100111111000001100
00111101001110111010010001010101
10111110001100011100010100011011
10111110000111010100010100101101
10111101010000011100110111100101
10111110000010101000101010111110
00111101110000001101101101101010
10111101000110001000100110101001
00111101100011011111011011000010
00111110000000111010000110001001
10111110000111011001011011100100
00111100001100001000001101000000
10111101010001101001010101011111
00111101100010101110110111000101
10111100001001111100000010101101
10111110000111110100010010110011
10111110001001100000011010000111
00111101110111000010101110010011
10111101000011011100100001011000
10111101111101010110100011101100
10111101100110100101010111000110
00111110000011010011101110110100
10111101100100101110111010110001
10111101110101100111111100101010
00111101110111011011011010010001
00111101110111100000001101001100
10111101010101011101101010101011
10111110000011000001100011101100
10111110000001101011010011000111
00111101111001111010111111101110
00111101100010011110011011101001
00111110000011001001010100101001
10111101110111010101001011001100
00111101111101111011111100110101
00111101110101101110010000101001
00111110000111010100000101000000
10111110010011111011001110010011
00111101100110100011101001111000
00111110001101011011011001011011
00111101111111101011011000011000
00111110000010001100111010111001
00111110000000001001100111100100
00111110001110010010111001100001
00111101100100000111011010011001
00111101001011011011001011010010
10111101000100111001100101111101
00111101000011110010010101101110
00111101110000001111101001110101
00111110000101111011001111010111
00111101000100010001110001101010
00111110000000101111010110010110
00111110010000011101100110010111
10111100000101110011010111001110
00111101101010100101011000101011
10111110000000111001111011000001
10111101111011000101010011000011
10111100100101101001011011000101
00111110000110111001101100011100
00111101100101010101100011101100
00111100010011101001110111110101
00111101110001101001110001000010
00111101110101101100110011100001
00111101011111001101000001111000
00111110000101101011001101010011
10111110000111100101101001000101
10111110000111100110001000010101
00111101110100011101111110110010
