10111100000101001101000011010001
00111101100100111011111101000110
10111101111101110001101101100111
10111110001001011001001111001110
00111101111101100001010011000111
00111100110110011001000100000010
10111110001010101010010110100100
00111110000111011000010101001100
10111101110101011001000111110110
00111100110011101000010000000100
00111101100101010100001100001011
00111101000011001001110001111010
10111100001000010111011011100100
00111110001000000111111110011100
00111100000110101011001110011110
10111101100110010000011001011001
00111101101100101101101111010000
00111110001000010101010010011010
10111101001100011100010101001000
00111100000001100100110101010000
00111101110011110101101110010010
10111101110101001010100001011110
10111110000100000000001011010000
00111101100101010011111010101100
00111101100000101010001110000000
00111101100110111100001100110000
00111000100010000111011110111110
00111100011101100111110111100100
00111101110100101011111011111100
10111110000000011100110100000000
00111101110110101010001111110101
00111110001000000001011001010001
10111100011111100000111101010010
10111100100111001001000011101000
00111011101010011111110000011110
10111101001100001100000100110011
10111101100011000001010000110000
00111100101000001000001101001100
00111101101001011110110011000010
00111101110101000101010010111111
10111101111011011101001000111111
10111101000010110101011000110100
10111110000010111110011011001001
00111101011001000100110001100110
10111101101101111101010000011101
10111101001000001110010011110011
10111101111101010111101001101010
10111101001100011000010010001110
00111110000101010101101010000101
10111101010010110111000101001001
10111100111111111001100111001110
10111101011010010011111101111101
00111110000001010110010111110110
10111100101101101110111111111010
00111101001110010000100011100110
00111101100011001101111011001101
10111100100100001111001110100011
10111100100111010000010111111100
10111110000100101010110100010101
00111100111111010010110000010010
10111101111110011111011001000001
00111101101101011010111000101101
00111101101010101010100110001100
10111101111001101001111110100101
00111110001000110011100111111000
10111110000011110101100001110100
00111100100110010110011100000101
00111110000010100010100010111100
00111100101000111010000010001001
00111100101010111101111010000010
00111101110000010101010101100001
00111110000001110100000101110110
00111110000000111111010010010111
10111110000010001101010100010110
10111100110000110100101111100001
10111101100010010101001011101010
00111101110010000101101110110100
10111101101100101100101011000100
00111110001100001011001101000000
00111110000110000011111011011011
10111110001000010101010011110101
00111110000110100111000100110011
00111100101001111010000010011010
00111101111010001100100101010101
10111101101100000110100100011110
10111101000100100001000011111001
10111110000111111011111100110111
00111101000111110111010111101100
10111010101010110001100111101010
00111110010001010111110111101111
10111010111101111111100110101111
00111101100111101111110001010100
00111101010110110101111101001011
10111110000000101101011111101100
10111101011001001001111001000100
10111101101101110000011101100111
00111101101111111000000110100100
10111110000111011001010110101010
10111101111011000011000000011110
10111101001011011111000011100101
10111011001110111100110010111001
00111101110110000101010010001100
00111110000010111010010010001011
00111110001000111011010011001100
10111110000111110010110100001000
10111100110001110111100011111000
00111101101101011111101100010000
00111101100110010000110010010111
00111100010011110100010111100101
10111101011111101110110110110011
00111101100101011001100100000001
00111101101110100110111011101000
10111101101011000001010101100010
00111101110001011111100100110111
00111101110010111101101111100011
00111101111110010010101000001111
10111101111100110101111000000001
10111100101111110011100000001110
00111101101010001101010110100001
00111100000011111101110101011110
