00111101110001010010011011101100
10111101101101101101001001111001
10111110000000011100011101101101
00111100011111011110000100101100
00111110000111010110001010001101
00111100110111110111100100100010
10111101100100001000011011011001
00111101100100000001101100110111
10111101111011001110000010011111
10111101100101011011100001101101
00111110000100100010001011110101
10111110000011011011001011001010
10111110000000100100010110011110
10111101100111000010110001000011
10111100111110101110010010001011
10111101110010000101000001001111
00111110000011011100010110000100
10111110000110000011000011111011
00111101001000100111111011011100
00111110000011000001100101000100
00111101100100101110101110110011
10111101111100111100111000100010
10111110000100111010101111101011
00111110000010110100010011010110
00111101101110111001010101010101
00111110000111110110111100100101
10111100001110110100001101010101
10111101001011111111001011011110
10111110000000111101011010101001
10111110000010000011010011110010
00111100100101100010111100101010
10111110000010111101011111101110
10111101111100110100111010010100
10111101011011111001111010100010
00111101111101100100010011111000
10111100110011001001010111101001
10111011010011001101110000010010
00111100101000100101000000110110
00111110001000010100110110001001
10111110001001100111000110001001
10111110000010000011110110110000
10111110000000000101011001100001
10111110001010101100011101101000
00111101010110010000001100011100
00111100100111001101110001110001
10111011000100111111111100110110
10111100101101011101100000011101
10111101101011101011111010000110
10111110001010000000000111111011
10111110000001101011110001011100
00111110000000010001010010100111
00111110001000011011001100011010
10111110001010000110010111110110
00111101110000110010010000000000
00111101000100100101000000001101
00111101110111010110001000100010
10111100011110101110011110100100
10111110000100000010010101111111
10111100010010010011010100011011
10111100111001111000101010000000
10111110000000000010110110011000
00111100111000000011011000001010
10111110000001110110110111001010
00111101010101001100111101000100
00111110000101100011111000110101
10111101110111111000111001100001
10111110000011110111010000000111
10111110000111101111000010110101
10111110000101101011111100011100
00111110000110011110111011101101
10111101100010011000001100000111
00111101100101101100110001101010
00111110000101011010001110110011
10111101000000111111011101110101
10111110001101100111010110001000
10111101001100111111001011000101
00111101110100111110111001100000
10111100101001010101101100001001
00111101010000111101101111011001
00111101111110111000000100011001
10111110000110000010111011010010
00111101111000110110111011110000
00111101011001110001000111000000
10111110000000100110100100001100
10111100111111011100101011100110
00111101101011010101010001101100
00111101111111010000100101001001
10111101001101101001011111000101
10111100000101001011000001000111
10111110001011101100001001011001
00111101010100110101000001111110
10111101010001110010101010111011
10111110000000001001111010000100
10111011111110111011101011010010
00111101101111010000001100011110
00111101101111111010011010001000
00111101011101011010111111001010
10111101111001001000101101100001
10111110000010011011000110100110
10111101110011000100110110111100
00111101101011011010011000011011
00111101111101010000010010111001
10111101111001111010100110100001
00111101010101101110100010001100
00111100111000100011001100101110
10111101111011111111011010111000
00111101110011101100101010110001
10111110000110110110001000111000
10111101110101001101111101010110
10111110000101100000100000110011
00111110001011100110000000100110
10111101010011010000111001110001
10111110000000010000011010110110
00111101101101010000110011011000
10111101111000000011110111010011
10111101110111110110101110100010
00111101111101001110011100101010
00111101011000001010110011100110
00111100010100001110000010000101
00111100001001101000100000010111
