00111101100001011000110111000110
00111101110101011010100010010000
10111101100000010010000001010011
00111101111011000111100111010001
10111100100010101001011010001001
10111101000000100001101110010100
10111101110110001011111010010000
00111110000111001011101001011010
10111101101000100000011001011010
10111101110111010001100001110100
00111100110111100101000001000001
10111100101010111011000011111010
10111100001011011010010011110010
10111101000011100110011111110001
00111101101111010000011011011111
00111110001000011000100100101100
00111011001100101001101111010101
10111110000111100000011110110110
10111110000111110001000001111001
10111101011011001010101010011001
10111110000100110100100010111010
10111010011001100110101101000101
10111110000100010011001110111010
00111101100111101100111100001011
10111110000000110100101100111010
10111110000000010001111000001110
10110111101011100011001101100111
00111101111110100111111100011101
10111100101001110110111000000110
00111110000001110110101010011000
10111101100100000100100101110111
10111100110101110011001101000111
10111110001010000111000110111001
10111110001000010111110010001001
00111110000000110110110000011011
10111101111000110101110001110101
00111101001001101111101001101110
00111101100110110111100010011011
10111011111010010000011011010011
00111011001110010101011000101001
00111011010000100110000111010000
00111100100001100100000100000111
00111101110010110100010111100000
10111110000000100010100001111110
10111101101001101100010110110111
00111110000011101100101001101110
00111101110110100000000011011010
00111110000100010010110100000101
00111101110110101111000010000001
10111110001010000001010010111111
10111110000100111000001111001001
00111011100100011111100101110100
10111110000111001110000111100001
00111101001110110001000101000101
00111101101001100000110110010101
00111110000011000101100000000101
00111110000100010011010100001010
10111101110000010001110100110000
00111110001001001110110000011001
00111101100010001001001110001001
00111100100100110000111100000100
00111110001001011110010001111001
10111101100011100100101101010001
00111110001001111111100000100110
10111101011001100100010010011011
10111110000111110010011010000100
10111110000000100110001001100001
10111110000010010010100010110111
00111100110000000111011011100101
10111101110001011000010110110001
00111100011010111101101110101001
10111101001011101110111010001001
00111101111100111101000101001000
10111101111011111000010000000001
10111101000100011001010011000000
00111100100101000101001011001001
10111101111100000011001010011101
10111101110001111111001110010010
10111100110111100001111001000010
10111110001001001110111011100001
00111101100010000010101011110110
00111101101011110111101100110101
00111100101001001010101111110001
10111101111111100110000101111100
00111101001111011111001000101011
00111101110100101111000000111110
00111101101011001110100011001101
10111101011010000000111011001110
00111101101011011110010010111001
10111110000110111000000101110010
00111101011110111001010010001010
10111101101100110011101001111111
10111101100010101010001101111111
00111100000100110000101110001111
10111101001111000010010001001001
10111101100100111110011100011110
00111100111100010110110101110011
00111110000110111101100001001011
10111100101101100010100110001110
00111101000011001101001011011111
00111100111111100101110011101000
10111110000110001000010011001101
10111110000010100010010110011001
10111101011011110001001101001100
10111101101101101111011010110111
00111110000001001000100111010100
10111100111100001011011100111010
00111101110011010110011111010101
10111101000011101100111000110101
00111110001011001110001101110100
10111101010101000110110111101001
10111110000110011000100010110001
10111100010110010001000100010001
00111101001001101111101110010011
00111101000001101011000001111000
00111101001110100100111110001110
10111110001000101100100011110110
10111101000001101100101001010100
10111101000100101001111111111001
10111011111111111000010110010100
