10111101011101000011110100100110
10111101100110110110001111110010
00111101100100000111100011100100
00111110000011110111100100100000
00111101111011111110110001010101
00111110000100100001101011111001
10111110001011010001100001001101
10111101100100011011001010110011
00111101110101101000000001111000
00111101101010010001011100010110
10111110001000101000001101110111
00111100010011010111110101001000
00111101000001101100011010000101
00111101001010010111001010101000
00111110000110001010011001010001
10111100111100000000111100110001
00111101001010011110101100110100
10111101110111011000100101101010
10111100101101011111111101010010
00111110001010000101000111011101
10111101111101101001101001110000
10111011010001010011110011101110
10111101111010001001111010111000
10111101011101011000110001001011
00111110001000001000011011010100
00111101010111111011000111001000
00111110000101000110100111010000
10111101110101000001010011001000
00111110000011001010000000100011
10111101010110100101011101100000
00111101010001001110100100110101
00111110000100000000110000110101
10111101110000011010100101111101
10111101000110100100101011000010
00111101001111010001101010111000
10111101011010111101010011100001
00111110001000101100100011100110
10111110000001010100000011011111
10111101000011100000010101111100
00111101000000010101000110110011
10111101111101011000110101100110
10111100110000000111101111100011
10111110001000101101111000001011
10111101111111111011001100010101
00111101100111001001100010101001
00111101100111110011111101101110
00111011100110111110000011100111
10111101000001110100101011000101
10111100100011101001011000011100
00111101000111101100011011011100
00111100011110111001111011000110
00111101100110011000001111111010
10111100110000001101110010110011
10111101011110001001110100100010
10111101010011111000001100110111
10111101111101010001010110111111
10111101101010010110100001010101
00111100110100111111001000110100
00111101110100011111100111000000
10111100111010011100110101100011
10111101101010100000100010110111
00111101011010101110000101101000
10111101010110101011010011101011
00111100100010000000101001101111
00111101011100011001011011111110
00111100100010010010100101110110
00111101100110011000101110011001
00111101110100000001101001001011
10111110001100100100000101000101
00111101001100110010001011011000
10111100000000110001111010010111
00111101001010100110110110001000
00111101100100010101100000001101
10111101111101111110001011011101
10111101111100101111000010011011
00111011110001010011101011100001
10111100101010110111101101101011
10111100010101101000010000111010
10111101100010100001000101000000
10111110001100101000100010110100
10111101100110100010101100110000
00111101010000001001011011000101
10111100100000000100110111101010
00111100111100101110100010010000
00111110000101111100100000100100
00111011010001000000000101011110
00111110000110100010111001011101
10111101001101011101100000001101
10111101100010010101011001000110
10111110000110001111011100101000
10111110001100100110011111010110
00111101100101001111101111101110
00111101100101111101110111101001
00111101101111111110000011110000
10111101001001010111101111010100
00111101110010110110000010001010
00111101001111111101010110001101
10111110001000111110100100011101
00111101100000110111101101111010
10111101111010101011010111110010
00111100101010110110000010000010
00111110000001100000111000010111
10111110000110001101110100011110
10111110000000111000101100001001
10111101000000011011001110100011
00111101000111110001000111100101
00111110001000100110001011100001
00111101001000100110101100110101
10111100111100110001001011111010
00111110001011001101111100101111
00111100100000110100011011001100
00111101111110000101000001010001
00111101110000000100110111110111
10111011100011110110111100100000
00111110000100011000000100101000
00111101110100011001111110000101
10111100100101001110010100111111
00111101101010011010001011111110
00111101100010111000110001011111
10111110000101111110101000011101
