10111101100101001011010000101110
10111100000100100111001111111111
10111100000010110111110001101101
10111101111010011011110011101001
10111101000010011101010101101101
00111100000011001001101101011100
10111101000110011110000000111001
00111110000101011101010001111001
00111101011110011110001011011001
00111101110000100010110100011001
00111101101110010001001101110101
10111101001101100001100110110111
00111100100100100011001110100100
00111110000010001011111010010100
10111101010010110100101101110110
10111101000100101100010011011011
10111101111110110001000101000001
00111101111101010001101101000000
00111101111001101101001110101001
00111101110101011011100100110010
10111110000000101000010111010110
10111101111011000010001000111011
00111101110000111000101001110101
10111101101000000011011010011100
10111110000011010111010011001100
00111100000011001111001001110111
00111110000111101010101011000001
10111110000100011110011000101010
10111100000110101011000001000000
00111110000100110111001011001000
00111101000001100111001100110010
10111101100110010111001101000110
10111101010011111011001011111010
00111101000011011100101100111111
00111110000010011011000111010010
10111100101101011011001111010000
10111101000110000000111001011101
10111101101001101000001010000101
00111101111010000100101010110101
00111101101001011101011111100110
10111101110110001111000010111110
10111110000110110101001011011001
10111011000001110110000110100000
10111101011110100101101000010110
00111101000001001000010111001111
00111110000001001010010110110000
00111110001100010000111001010001
00111110000001110101101001010100
10111101101001110011100101001011
00111101001101011100100100100110
10111100111101001010100010101011
00111100111100111111001011000010
10111101100111100101110110001110
10111011111110101011110001111011
10111101010101011000110101010011
10111101110001100100101111100100
00111100000100001100101001101011
00111100000011011111011011011011
10111101011011011100011000011000
00111110001000100100000101101100
00111110000110111111010110000111
00111110000001100010001100110100
00111100111001010000000111000001
00111101111011111111101100001011
10111110000111000010110101010011
10111110000010010101111110000001
10111101111011000011011001010000
10111101100110011111011101000010
00111110000011001111001001000101
00111110001011100101111010000110
10111101111111110011000101100010
10111101000110010101001001100000
00111110000001101010011001111100
10111101110010100101111011010101
00111110001000111111001110110001
00111101011100010110011110101001
10111101111011010010000001111011
10111101100001100101111100110010
10111101000111010101010010110101
10111101111110001110010010011011
10111101010000100110010100010010
10111101111001110111100110000111
10111011111000110011001101000010
00111101011101101011101111110101
00111101111001001000111000100110
00111011111011010110001010110100
00111101010101111111101001001101
10111101101111110001101100000011
10111011111100011110011101001011
10111110000100000111111011110111
10111110000010011101011110101001
00111101111011010100101001111000
10111101110111011010010100001001
10111110000010001110010001101001
00111101100010000001001110011111
10111101100110011001110111100111
00111101001001100101101000011101
00111110000000111111011111100001
00111101101111011011000101100111
10111101110100001101110110100000
00111110000101001110111011101000
00111110000100101010110001110010
00111011011111110000111101110010
10111110000100111000101110111101
10111110001000011111010110001011
10111101101111101110001111001000
00111100111001101000111011111000
10111101100101110100000100001110
10111101110001010011011100010100
10111101101100001101100000011101
10111110000111011010101010011111
10111110000011011011101100100001
00111100101100101010100011110001
00111101110101010011001001010110
10111101101111011110101101110001
00111101100011101111001111100101
00111101001101010100001011111111
10111110000000010000000101001011
00111110001010001011010110010110
10111110001011111101111111010101
