0000000001010100
1111111101010011
0000000001100000
0000000000110000
0000000001110000
1111111101010001
0000000000110111
1111111110000000
0000000001011110
1111111111110101
0000000010001110
1111111111100001
1111111110010011
1111111111011100
0000000000111011
0000000000000000
1111111111101011
0000000010010011
1111111110001000
1111111110111000
1111111111111000
1111111111111101
1111111111100100
0000000001110111
0000000000000010
0000000010111101
0000000000001111
1111111111111010
1111111101111100
1111111110110100
1111111111110100
1111111110010010
0000000010100001
0000000010100011
1111111111110111
1111111100100001
0000000000100000
0000000000000101
1111111101111111
0000000001110111
1111111111100110
1111111111010100
0000000010100001
1111111110011111
1111111110101110
0000000001010000
0000000001101110
0000000010110011
1111111110011101
0000000001001110
0000000001011000
0000000001110001
1111111101100011
1111111111011111
1111111111010001
1111111101111100
0000000001011011
0000000000000110
1111111111100111
1111111110110111
0000000000001000
1111111111010000
1111111101101101
0000000010011110
1111111111100101
0000000010001011
0000000001010001
0000000010001011
0000000000110101
1111111111001110
0000000001010010
1111111101101001
0000000001111010
0000000000000100
0000000010010111
1111111111101100
1111111111101110
1111111111010000
0000000010100110
1111111101010111
0000000000001111
0000000000101010
1111111101111001
1111111111001010
1111111110010100
1111111110111000
1111111110010001
0000000001111001
0000000011011101
0000000001000111
1111111110011110
1111111110001010
0000000001001101
0000000000101001
0000000010101010
0000000010100110
0000000000110010
1111111111000001
0000000010101110
0000000001110110
1111111111011000
1111111101011010
1111111101101100
0000000000010011
1111111110110111
0000000001110101
1111111111000001
0000000010010000
0000000000100111
1111111100111001
0000000001101011
1111111111000001
1111111101010010
1111111101010101
1111111111101011
1111111111000001
0000000010011100
1111111111111011
0000000001001011
1111111111011100
