0000000011011011
0000000001111101
0000000001101001
0000000100110110
1111111110000101
0000000001000101
1111111101110111
1111111110110000
0000000100111111
1111111110000101
0000000001110000
1111111100111111
0000000000111001
1111111111111110
0000000001001111
0000000011100011
1111111110000001
1111111101001110
1111111100100010
1111111110011100
0000000011011010
1111111101011100
1111111100010000
0000000000001010
1111111111101001
1111111101011101
0000000000001101
0000000001010111
0000000011001111
1111111010011101
0000000000110011
0000000010100011
0000000001001000
0000000010010111
0000000001000100
1111111110100011
0000000000110100
1111111111111111
1111111111110101
0000000000011010
0000000011101001
1111111111111111
0000000000011010
1111111111100001
1111111111001000
1111111110100001
1111111101011111
1111111100011011
0000000011110011
0000000011011101
0000000000000011
1111111100110101
1111111111011011
1111111111100101
1111111100111110
1111111100011000
1111111011000001
1111111010000110
0000000011010100
1111111101101010
0000000101001010
0000000001010100
0000000000110000
0000000010010101
1111111101011110
0000000011010001
1111111111111111
1111111110110101
1111111111011000
1111111101011001
0000000001010110
0000000000001001
0000000001111110
1111111110100100
0000000101010101
0000000100000001
0000000011010010
1111111010100011
1111111101011110
0000000000000111
0000000001110011
1111111101000010
0000000001100000
0000000100001111
