0000000001001100
1111111111100100
0000000010100000
1111111111011100
0000000001010000
1111111110011100
0000000000111100
0000000000000100
0000000010011010
1111111101010010
1111111101011100
0000000000010110
1111111110000001
0000000000101110
1111111110100000
0000000000111110
0000000001011110
0000000000000001
1111111101010000
0000000001001000
0000000010011111
0000000001110100
1111111101111011
0000000010010011
0000000000010111
1111111101111111
0000000010100011
0000000001100010
0000000010000011
0000000001101110
0000000010101001
0000000001001101
1111111100110001
1111111110100011
0000000000101111
1111111110001011
0000000010101111
0000000010001001
0000000010001000
0000000010010000
1111111101111001
0000000000111000
0000000000010001
0000000000100010
0000000000000101
1111111101111000
1111111110011110
1111111101001101
1111111110000101
1111111110010100
1111111110011001
1111111101110011
0000000000000100
1111111110100100
0000000001100111
1111111110101001
0000000001001000
1111111110011000
0000000010101110
1111111110110001
1111111110000101
0000000001100001
0000000010011110
0000000010100110
0000000001010100
0000000001101110
0000000001000001
0000000000000110
1111111110001001
0000000000000000
0000000001010101
1111111111001010
1111111111101111
0000000010001110
0000000001110110
1111111110000100
1111111111101010
0000000010001101
1111111101010011
1111111110110110
0000000010100010
1111111101101101
1111111110101100
1111111110111100
0000000010101011
0000000000000010
0000000000011101
1111111110001101
1111111101101011
0000000010000110
0000000001000000
0000000001111100
0000000010011010
0000000001111011
1111111101110110
0000000001000111
0000000001110110
1111111101101010
1111111110011110
0000000000011010
1111111111011100
1111111111100110
1111111110001000
1111111111101100
1111111110100011
1111111111000010
0000000000101010
0000000010100101
0000000001011001
0000000001000111
0000000010010001
0000000000111010
1111111111011001
0000000001110001
0000000000100000
1111111111110010
0000000010101001
1111111111110111
1111111110010111
0000000001000111
