1111111111010001
1111111101011110
1111111110001010
0000000000001000
0000000001000100
0000000001001001
1111111111111011
0000000000010100
1111111101111110
0000000000000000
0000000001101111
1111111111110111
1111111110111010
1111111101010111
1111111110111011
1111111101101011
1111111101110111
1111111110100101
0000000010001011
1111111111100101
0000000000100111
0000000001111011
1111111110110001
0000000001001011
1111111110010111
1111111110010110
0000000010010000
1111111101110001
0000000000110110
0000000001000111
1111111111001010
1111111111011111
1111111111111011
0000000000001001
1111111101101110
0000000001101011
1111111101111100
0000000010010001
1111111110010011
0000000010111010
0000000001000010
0000000000101011
0000000001110111
0000000001101011
1111111101111101
0000000000001100
0000000001101101
1111111111010101
0000000000010011
0000000011000010
0000000000000111
1111111110111011
1111111111110111
1111111101110111
1111111111000100
0000000001001001
0000000010100001
0000000010101100
0000000010000110
0000000000000000
0000000000110111
1111111101111110
0000000010100010
0000000010101010
1111111111101101
1111111110101100
0000000001001001
1111111110110111
0000000010110010
1111111110000100
0000000001010110
0000000000011101
1111111101101100
1111111111001110
1111111101010011
1111111101100010
1111111111100110
0000000010111010
0000000010010000
0000000000111100
0000000000110100
0000000001010111
1111111110011011
1111111101011110
1111111101101010
1111111110001010
1111111101101100
1111111111101111
0000000011001101
0000000001001001
0000000010010001
1111111110000001
1111111111001010
0000000001011101
1111111111011101
1111111110100110
1111111101101100
1111111110011110
0000000000101001
0000000000000001
0000000011000110
1111111111101100
0000000001101110
0000000000010000
0000000000010101
0000000010010000
0000000000000000
1111111110011100
1111111101011100
1111111111010010
1111111111110111
1111111101010011
0000000001111001
1111111110011001
1111111111110011
1111111110010110
1111111111001100
0000000001111101
0000000000110000
1111111111001111
