0000000001000100
0000000001101010
1111111111010001
1111111111001001
1111111111111011
0000000010001110
0000000010011001
1111111101110000
0000000010011111
1111111111011100
1111111111010100
1111111101111011
1111111111011011
0000000000100101
0000000011000101
0000000010010000
1111111101110101
0000000010011110
0000000010110101
1111111110010010
1111111111111111
0000000000111101
1111111111010111
1111111111110111
0000000001000110
1111111111011110
0000000001001100
0000000000101110
1111111111000000
1111111110110100
0000000010100000
0000000010100011
1111111111001100
0000000000000010
1111111101101011
1111111101111111
0000000000110111
1111111111011011
0000000001110000
0000000001101100
1111111111111101
0000000000111000
1111111110111111
0000000000111011
1111111111001101
0000000010100100
1111111111100100
1111111101111000
1111111110100101
0000000001000000
0000000010110011
1111111111000100
1111111101011110
1111111110101000
0000000000100100
1111111111010111
0000000000011100
0000000001011000
0000000010001101
1111111111000110
0000000001010000
0000000000010110
1111111101101110
1111111101100101
0000000001000010
1111111110100001
0000000000011100
0000000000100001
1111111110001101
0000000001011111
0000000000000000
1111111111011100
0000000010000000
0000000010100011
0000000001010110
0000000001110000
0000000000101011
1111111100110011
0000000001001101
1111111100111001
1111111110001110
1111111110000001
1111111111111010
1111111111010100
0000000010001001
1111111101111111
1111111110010100
1111111110110000
0000000010100001
1111111110000011
0000000001011011
1111111110010111
1111111110010000
0000000001010101
0000000010011010
1111111110011111
0000000001100111
1111111111100011
1111111111110010
1111111110110110
1111111110000010
0000000000110000
1111111101010101
1111111111110110
0000000010100000
1111111110111101
0000000010000100
1111111110000111
1111111110000111
1111111111110011
1111111111101111
1111111110101110
1111111111111101
1111111110100001
1111111111010100
0000000000001101
1111111111101011
1111111110011010
0000000000011111
0000000010100001
