0000000010001100
1111111110100010
0000000000000101
0000000000000011
0000000001101100
1111111110100111
0000000000001101
0000000010001100
0000000000111011
1111111110110011
0000000010101011
1111111110110010
1111111110100100
0000000011010001
0000000000100011
0000000001110000
0000000010011010
1111111110000100
1111111101000000
0000000001011111
0000000001100001
1111111111011000
0000000010001100
0000000000010111
1111111101110011
1111111111101100
0000000000111111
0000000000100110
1111111111000101
1111111110100000
0000000010100110
0000000001000100
0000000000101001
1111111111000100
0000000011000010
1111111100100110
1111111101101111
0000000010110011
1111111110010100
1111111110101110
0000000000101011
1111111101110110
1111111101101100
1111111111000000
1111111110111000
0000000011001101
1111111111111111
0000000010000000
1111111110100001
0000000001101010
1111111101001001
0000000000100100
1111111101101000
1111111111000110
1111111101001000
1111111101011111
1111111110010100
1111111110011110
0000000001101011
0000000001110000
0000000011001110
1111111111001010
0000000001111001
0000000010100000
0000000001000111
1111111110010010
0000000000111110
1111111111000101
0000000010100010
1111111111011111
1111111110111111
1111111111100011
1111111110011101
0000000001011010
0000000010101100
1111111111001110
1111111111110000
0000000010011110
0000000001001001
1111111111101001
1111111111101110
0000000010000110
0000000010110011
1111111111001110
1111111111110000
0000000011010100
1111111111100101
0000000001011100
1111111101111010
0000000010011101
0000000010010111
0000000001000001
1111111101111101
1111111110111001
0000000000110111
0000000010010010
0000000010001010
0000000000101111
1111111101111111
0000000001110100
1111111111111100
1111111110100010
1111111111011011
1111111110101110
1111111111010101
1111111110111111
1111111101100110
0000000000100101
0000000010011000
1111111110110001
0000000000111011
1111111101000010
0000000010100001
0000000001100000
0000000010011001
1111111101011000
1111111110110101
1111111110000000
1111111101101111
1111111101010010
