0000000001100000
1111111110010011
1111111110111100
0000000001111011
0000000000011100
1111111111011100
0000000000110000
0000000000000111
1111111110101010
0000000000110011
0000000010001000
0000000000110011
0000000010110111
1111111111000111
1111111101100110
0000000001000011
0000000010011110
1111111110110101
1111111111111011
0000000000001011
1111111101110001
0000000000000110
1111111110001000
0000000000001001
0000000000011010
0000000000010010
0000000010110110
0000000000001011
1111111111111111
0000000001011000
0000000001100001
0000000000110111
1111111101011000
1111111111001101
1111111110110101
0000000001110110
0000000001111110
1111111110000011
0000000001101011
0000000010101011
1111111101011101
1111111110111010
0000000000111011
1111111110011011
1111111101000100
0000000001000001
0000000000001000
0000000010111001
0000000010011100
0000000000011110
0000000001000011
0000000001011110
0000000001001001
1111111101110000
1111111101010110
0000000010010111
0000000010110001
1111111110100100
1111111101101110
1111111101101010
1111111101111111
1111111101101110
1111111111000010
0000000000100001
0000000001001101
0000000010101101
1111111110111110
1111111111000111
0000000001111010
1111111110000100
0000000000010101
0000000001110111
0000000000001101
1111111101111101
0000000001001101
1111111111110010
0000000010010011
0000000010110011
1111111111000111
0000000000000101
0000000010011011
1111111111111000
0000000001101111
0000000010001001
0000000000010001
1111111110100011
1111111111111111
0000000010001100
0000000001010001
1111111101010110
0000000001010110
1111111101110010
1111111110010011
1111111111010011
1111111101110000
0000000000111001
1111111110111111
0000000001010100
1111111110110011
1111111110010100
1111111111101010
1111111101001111
1111111101010001
0000000000000000
0000000000011100
0000000010000100
0000000001110000
0000000000001111
1111111101011001
1111111111011011
0000000010000100
0000000001101011
1111111110101010
0000000000001001
0000000010011100
1111111101010100
1111111110111101
1111111110111100
0000000001011101
0000000000000110
