1111111110000101
0000000010010010
0000000000100110
0000000010010001
1111111101100000
1111111110100000
0000000000110000
0000000001100100
0000000010011000
1111111101100100
1111111110101101
0000000010101101
0000000000111011
0000000000000110
1111111101110100
1111111110001111
1111111101110111
0000000001111101
1111111111100100
0000000000001100
1111111110001101
0000000001000111
0000000001011001
1111111110010010
1111111101100100
0000000010010001
1111111111010100
0000000000001011
1111111101110001
0000000001100000
0000000001100110
1111111110100010
0000000001011111
1111111111001010
1111111111111010
1111111110001111
1111111111110011
0000000011000001
1111111110000000
0000000001100101
0000000000011111
0000000010001011
0000000000110001
0000000000010011
0000000000100110
0000000010001010
1111111110110000
0000000010100000
0000000000111101
0000000001010111
1111111111111011
1111111111001111
1111111111011010
0000000001000110
1111111110100111
0000000001110000
0000000001100011
1111111111011010
0000000010100111
1111111111111011
0000000010100110
1111111110010111
0000000000110110
0000000000000000
1111111110100000
0000000000101100
1111111101000011
0000000010001100
0000000010101000
0000000001100101
0000000000011000
0000000001000011
1111111110000111
1111111110011011
0000000000000000
1111111110010010
1111111111101100
0000000010001000
0000000001001001
1111111111010001
0000000001111001
0000000001000110
1111111101010011
0000000001010000
1111111101110001
1111111111011000
1111111110100100
1111111111100001
1111111111100100
0000000010010111
0000000010010011
0000000000011110
1111111101100000
0000000010100101
1111111101011100
0000000000010010
0000000000101101
0000000000111100
0000000000000101
0000000000111011
0000000000000011
1111111111011011
1111111111000101
0000000001000110
1111111111001001
1111111110011001
0000000000100111
0000000001010100
1111111101100101
0000000000010111
1111111101011000
0000000010101000
0000000000111111
1111111110110011
1111111111010111
0000000010011100
0000000010101000
1111111101101100
0000000001101001
0000000001011010
