0000000000100010
1111111111000111
0000000000111011
1111111110100010
0000000001001000
1111111110101111
0000000000001101
0000000000000010
0000000000010100
1111111101010101
1111111110111101
1111111111001000
0000000001111010
0000000010101011
1111111110011011
1111111111000000
0000000001111100
1111111110010011
1111111111100100
1111111110001100
1111111110011110
0000000000101001
0000000001101110
1111111111101100
1111111111011011
0000000001111110
1111111111101000
1111111110010100
0000000001110111
1111111101101000
1111111110001011
1111111110011001
0000000001000110
0000000001100101
0000000001011011
0000000000111001
1111111110000001
0000000010100011
1111111111011001
0000000001101111
0000000000101111
0000000000001000
0000000010000101
1111111110011100
0000000000110001
0000000000110111
0000000000010101
1111111101010111
1111111101010100
0000000001110110
1111111111110100
1111111111110101
1111111101110111
0000000010010000
1111111111011100
0000000001011010
1111111111110110
1111111111000001
0000000010100100
0000000000110000
1111111110111010
1111111110100000
0000000010000001
1111111101111011
1111111111110001
1111111101101000
1111111111110111
1111111111011010
1111111101001000
1111111110000111
0000000010011110
1111111110010101
0000000010010111
0000000000110010
0000000001111000
0000000001010110
1111111101101011
1111111111111110
1111111111011010
0000000010100000
1111111111000110
0000000001001101
1111111110011001
0000000001100100
0000000000110000
1111111101100111
1111111111110000
0000000001100101
0000000000101001
0000000001000101
1111111111011010
0000000000000101
1111111111100000
1111111111111111
0000000001111101
1111111111111001
0000000010010100
0000000000111111
0000000000000001
1111111101111010
0000000010010000
1111111101111000
1111111111110001
1111111101100110
0000000010001011
1111111111100101
0000000010111111
1111111111001011
1111111111111001
0000000000110011
1111111110110011
1111111110010101
1111111101100000
0000000010000011
0000000000101101
1111111111010011
0000000001101100
0000000000001110
1111111110111110
0000000000100100
