1111111110100111
0000000011001100
1111111101111100
0000000000111011
0000000000101010
1111111110110010
0000000010100111
1111111110100000
0000000010010011
0000000010101001
1111111101100110
1111111111011011
0000000001011111
0000000011001101
0000000001101101
1111111110101111
0000000011001011
0000000000101011
1111111111010100
0000000010000001
1111111110100001
0000000000101000
0000000001011101
1111111111110000
1111111110110010
1111111101100101
1111111110100001
0000000000001111
1111111111000000
1111111101111110
0000000001001011
1111111110001010
1111111101011110
1111111101010110
1111111110001100
1111111110011010
1111111101110110
0000000010110111
0000000000111001
0000000010011011
1111111111100001
1111111101001010
1111111111011101
0000000001011111
1111111110001001
0000000001100001
0000000010111110
1111111101110000
1111111111001011
1111111110110001
0000000010000000
1111111110001110
0000000010010001
1111111111010100
0000000010001001
0000000010011000
1111111111111011
0000000000111000
0000000000010110
0000000010000111
0000000000011100
1111111110001011
0000000001011100
0000000000110100
0000000001100010
1111111110011010
1111111110010101
0000000000000000
1111111110100001
0000000001010111
1111111110111110
1111111101000010
0000000010101011
1111111110110011
0000000001000110
0000000001111010
1111111110001111
0000000001111011
0000000000001101
0000000010100110
1111111110010100
0000000001000100
1111111111000111
0000000010000011
0000000001010001
0000000010011110
1111111110010110
0000000001111111
0000000011001111
1111111110011010
0000000000111100
1111111111000101
0000000001110100
0000000010011100
0000000010001100
0000000001000111
1111111101100110
1111111110111111
1111111101101010
1111111111011111
0000000001010111
1111111111111111
0000000001111011
1111111101000101
0000000000100110
0000000000100100
0000000001010001
1111111111011101
0000000001110110
1111111101101011
0000000001000001
0000000000111000
1111111111000100
1111111111111001
1111111110011000
1111111101110011
1111111111010110
1111111111100111
1111111111111000
1111111111010000
