1111111111101010
0000000001110001
1111111101111110
0000000001110011
0000000000110111
0000000000111110
0000000010010000
1111111110111100
0000000000100010
1111111101100001
1111111110010110
0000000010010011
1111111111100101
1111111110101100
0000000000100101
1111111111001100
1111111111101100
1111111101000011
0000000001100111
0000000000011100
0000000010010000
1111111110110101
0000000000011011
0000000010011100
1111111111000001
0000000000101001
0000000001101101
1111111110110101
0000000001111110
0000000010001100
0000000001010110
1111111110110100
1111111110010010
1111111111001110
1111111101010100
0000000000001010
1111111110111110
1111111110001001
1111111101100010
0000000010110011
0000000000010011
1111111110111001
0000000001110001
1111111110000101
0000000000011000
0000000000101111
0000000011001110
1111111110011001
1111111101101011
1111111110101011
1111111110010001
0000000000101110
0000000001010111
0000000010011000
1111111101100111
1111111111111101
0000000001101111
0000000001101000
1111111110111010
0000000001000101
0000000000000001
0000000000001111
1111111111110100
1111111111001011
0000000010011001
0000000010000011
0000000000100000
1111111110010010
0000000000001111
0000000000110000
0000000000111111
0000000000011000
0000000000000000
1111111110110101
1111111111001110
1111111101011110
0000000000100010
0000000010000011
0000000000011001
1111111111010101
0000000000000111
0000000001010110
0000000001111110
1111111101010111
0000000011000001
1111111110000001
0000000010000100
0000000010010001
1111111111010000
0000000010101101
0000000000010010
0000000001010011
0000000001110011
0000000000000100
0000000001001001
0000000001000001
1111111111111110
1111111111010100
0000000001101010
1111111110011110
1111111110110001
0000000000100101
0000000001110100
1111111100110110
0000000001011110
0000000000000000
0000000001110111
1111111101011010
0000000000110100
1111111101001110
1111111101010010
1111111111101101
1111111101101100
0000000001000111
0000000001110101
1111111110000111
0000000001110011
1111111111101111
1111111110001001
0000000000000110
