0000000001100010
1111111110010110
1111111111100111
1111111101011011
0000000010100110
1111111100110110
1111111101011001
0000000000110100
1111111101001100
1111111110110010
0000000000001111
0000000000010001
0000000010010100
1111111100110001
0000000011010111
1111111101101000
1111111111101111
0000000000011111
1111111111110010
1111111101111001
1111111111001000
0000000010010110
0000000010100111
0000000001100011
0000000001010000
1111111111111111
1111111110000100
1111111110111001
0000000001101101
1111111110100001
1111111101101110
0000000001010000
0000000000001000
1111111101110101
1111111101111111
1111111110100111
0000000010100101
1111111101001101
1111111101011111
0000000001000011
1111111110100010
0000000000111100
0000000001101000
1111111110011000
1111111111110111
1111111111110101
1111111110110101
0000000000101010
0000000001110011
0000000011011111
0000000010000000
0000000001101111
0000000010100011
1111111101100011
0000000000101011
1111111110101000
0000000000100101
0000000000001111
0000000001010010
1111111111011001
0000000001110100
0000000011001000
1111111110111000
1111111101011011
1111111111111000
1111111111011011
0000000000101010
0000000001111100
0000000010110001
0000000010101110
1111111111100111
1111111110011000
1111111110100011
0000000000111101
0000000010000000
0000000001010100
1111111101100011
0000000001110100
0000000010011100
1111111101011001
1111111101001001
0000000010001010
0000000010110000
1111111111000110
0000000001111010
1111111110111101
0000000001011100
1111111111000011
0000000000101000
1111111110000000
0000000010000010
1111111101111110
1111111110010011
1111111110111110
0000000000001010
1111111110001000
1111111110101111
0000000000110110
1111111111001011
0000000001010101
1111111110000000
0000000001100010
0000000001011000
1111111110111010
0000000001101000
1111111110111100
0000000001111111
0000000010011010
1111111101111000
0000000001010110
1111111110101101
0000000010101011
0000000001100010
0000000001110101
1111111110100001
1111111101011110
1111111110001001
1111111111101011
1111111110001011
0000000010010110
