0000000001111000
0000000010010000
1111111111010101
1111111110101011
0000000010001000
1111111111110001
0000000000100101
1111111110011100
1111111111101111
1111111110010000
0000000010101000
1111111101100011
1111111101111100
0000000010010000
1111111111111111
1111111111111110
1111111110000010
1111111101110010
1111111110010000
1111111110010000
0000000000110001
0000000001011010
1111111101100101
1111111101100111
1111111110011110
1111111111000100
1111111111010000
1111111110010001
0000000001001100
0000000001110110
1111111110010011
0000000010101000
1111111101111101
0000000001010111
1111111111000110
0000000001111010
0000000001110111
0000000010000011
0000000010001101
1111111110110011
0000000000000101
0000000000010001
1111111111000111
0000000001010100
0000000001111011
1111111111010011
0000000001110000
1111111110010011
1111111110011101
1111111111001101
1111111110001101
1111111101011111
1111111110011110
1111111111010011
1111111110011000
1111111111001100
1111111101011101
1111111101010110
0000000010101110
0000000010100111
1111111111001110
1111111111010001
1111111111011111
1111111111101011
0000000001011101
1111111110100101
0000000010100101
1111111111110101
1111111111100001
1111111110100100
0000000001101010
1111111110110110
1111111110010110
1111111101110001
1111111110111101
1111111110110100
1111111110111111
1111111111011101
1111111111011011
1111111110001110
1111111101011001
0000000000111111
0000000000000111
0000000000110010
1111111110011110
0000000001110111
0000000010001101
1111111101010101
1111111110100011
0000000000100011
1111111110001010
1111111111101110
0000000010001101
0000000001111011
1111111101101110
0000000001000011
1111111101011001
0000000001010110
1111111111110000
1111111110001011
1111111101011000
0000000001010000
1111111111000110
1111111110000010
0000000000001010
0000000001001010
0000000010011011
1111111101010101
1111111101110101
0000000001110011
1111111101111011
1111111111101100
0000000001011010
0000000001011110
1111111110101010
1111111110101101
0000000000110010
0000000000100000
1111111110100110
1111111101111001
