0000000000101100
1111111101010111
0000000011000011
0000000010010011
1111111111010011
1111111011000111
0000000000100011
0000000001000101
1111111011111111
0000000010101001
1111111110000010
1111111101010011
1111111101010110
0000000000111101
0000000011011111
1111111011101100
0000000010001011
1111111101000100
1111111111111110
0000000011110011
1111111110101111
1111111001110011
1111111101110010
0000000010011110
0000000101000000
0000000011110110
1111111110111001
1111111110111011
1111111101100101
0000000000110011
1111111100111101
0000000001100010
0000000001101001
0000000100001011
0000000001110010
1111111100101001
0000000000010001
0000000001010110
1111111100110011
1111111101001100
1111111100100100
0000000010100011
1111111111001011
0000000001110001
1111111101011010
0000000010100111
1111111100011001
1111111111001010
0000000011010110
1111111011100110
1111111100110101
0000000011000000
0000000010000001
0000000010110000
0000000001110010
1111111101100100
1111111101101001
1111111110010110
0000000011110011
0000000001010000
0000000001000110
1111111100001110
0000000000001101
1111111110000011
1111111101001100
0000000010100011
0000000011110101
0000000011101111
1111111110001001
0000000001110001
0000000001110011
0000000011100110
0000000011100100
0000000011110001
0000000011111000
1111111111111001
1111111110111100
0000000011000111
0000000010111011
1111111100111100
1111111100101001
1111111111100110
1111111100100001
1111111010011101
