0000000000000100
1111111110100001
0000000001111001
0000000000010100
1111111101101111
0000000011000010
0000000010101100
1111111111000101
0000000001101110
1111111110011011
0000000010010011
0000000000110110
1111111101011011
0000000000010100
1111111110000010
1111111111100001
0000000000101001
1111111101001010
1111111101111000
0000000001001111
0000000000011000
1111111111000110
1111111111111011
1111111111010111
1111111111011011
1111111101000101
0000000000001010
1111111101101110
0000000010100101
0000000001011000
0000000010011110
0000000000011010
1111111110101111
0000000000001000
0000000000100000
0000000001010010
0000000000101101
0000000010111110
0000000000111101
0000000001010000
1111111110101011
0000000001111110
0000000001011100
1111111110011110
1111111110101100
0000000001001010
1111111110100100
1111111111110010
1111111110010000
0000000000100110
0000000010010111
1111111101110010
0000000010010110
1111111110001001
0000000001000011
1111111111010011
0000000001000101
0000000001111011
0000000000100100
1111111111000100
0000000000101011
1111111110011111
0000000010110011
0000000000100001
0000000001100001
1111111110100111
0000000000000101
1111111111000000
1111111110100110
0000000001101111
0000000000001101
0000000000101101
1111111110111001
0000000000101100
1111111111100000
0000000001000101
0000000001001000
0000000000011100
1111111111111100
1111111110111100
0000000010100111
1111111101111100
1111111101010111
0000000010101000
1111111110010100
1111111110010001
1111111110100000
1111111110000000
1111111110110101
1111111111111001
1111111111000110
0000000001111101
0000000001000001
0000000001110000
1111111110111100
1111111111111111
0000000000010011
1111111111110000
0000000000001100
0000000001000000
0000000000100101
1111111110111110
0000000010111000
0000000001001010
0000000001011111
1111111111010100
1111111101101011
0000000000001000
0000000001111111
0000000001100001
1111111101011100
1111111111001011
1111111111001101
1111111101111111
1111111111011101
0000000001010010
0000000010000011
1111111101111110
1111111111011000
1111111110101010
