1111111111101010
1111111111100111
0000000010100000
0000000000110001
0000000000011100
0000000001010001
1111111111100011
1111111101101100
1111111101111100
1111111110100101
1111111111000110
0000000000000101
0000000000100111
1111111101011110
1111111101101110
1111111110110110
1111111101111100
1111111101101100
1111111111101000
1111111110100000
0000000000010000
0000000001001101
1111111110001001
1111111111111011
0000000010010011
0000000010010000
1111111101101101
1111111101011110
0000000000010010
0000000010001100
0000000010110000
1111111101110100
1111111111111110
0000000011000011
0000000010010001
1111111111110100
1111111111000000
1111111111001101
0000000010000101
0000000010001111
0000000011000001
0000000010110010
1111111110101001
0000000010000101
0000000001111101
0000000010010011
0000000001110100
0000000001000111
1111111110010101
1111111110100100
0000000010100111
0000000010001100
1111111111001001
1111111101000100
1111111111110011
1111111110001100
1111111111111001
0000000001100010
0000000001010011
1111111101101100
0000000000010100
1111111111100111
0000000001110000
1111111111001011
1111111111000011
0000000010100101
1111111111011011
0000000000000000
1111111101101000
1111111110101110
1111111110100100
0000000000101101
1111111101110111
0000000001111100
0000000010100001
1111111111110001
0000000010011100
0000000000100111
1111111111111001
0000000001110010
0000000010101010
1111111110010111
0000000010000111
1111111111110010
0000000000011010
1111111111001111
1111111101010110
0000000000100100
0000000000010000
0000000010101001
0000000001000111
1111111111011110
1111111111101010
1111111111000100
0000000000010110
0000000001001011
1111111111000111
1111111101011000
0000000001001001
0000000000100001
1111111111111000
1111111111010000
0000000001000000
0000000011000010
1111111111100100
1111111111111111
1111111100110111
0000000000011001
1111111111000110
1111111110100101
1111111110000010
0000000001110010
1111111111010001
0000000000101001
0000000011001001
0000000001000000
0000000001111001
1111111111001000
0000000000010111
0000000010100010
