0000000010000001
0000000000110011
1111111111100010
0000000000111000
0000000000111101
1111111101010110
1111111110110010
1111111101101000
1111111110101001
0000000000100101
0000000000001101
1111111110000111
1111111101011100
0000000001110100
1111111101101100
0000000000110100
0000000000001011
0000000000000111
1111111111010001
1111111111011100
1111111111101010
0000000001001010
1111111101111000
1111111111000101
1111111111001001
1111111111100011
1111111101100011
1111111110101001
1111111111101101
0000000010100011
0000000000101101
1111111101111011
1111111111011100
0000000001000101
1111111111010011
0000000001011110
1111111110011001
1111111110100001
0000000001111101
0000000001111111
1111111111101000
1111111110011111
0000000000110001
0000000001001101
0000000000000110
1111111111111001
0000000000000000
1111111110011110
0000000010001110
0000000001101000
1111111110110101
0000000000000101
1111111101110010
1111111111101101
0000000000000110
1111111111110111
1111111101111011
1111111110101011
1111111110100101
1111111101010011
1111111110011011
0000000001101111
0000000000000101
0000000000011110
1111111111110111
0000000001110001
0000000001010111
0000000000100011
1111111110110110
0000000010101111
1111111110011010
0000000010101010
0000000001000100
0000000000101110
0000000010010010
1111111111110110
1111111101011000
1111111101100100
1111111111100001
1111111111111101
1111111101110100
1111111111001101
0000000000010011
0000000001110101
0000000000001111
1111111111111110
0000000001110101
1111111111100001
0000000000111110
0000000000000101
0000000001110101
1111111110001001
1111111111101100
0000000010101010
1111111110010010
0000000000001000
1111111101101101
1111111110101010
1111111110000101
0000000000000101
1111111110000001
1111111101110000
1111111110111000
0000000001110000
0000000001001110
0000000000001010
1111111101111010
0000000000010101
1111111101010101
0000000001011100
1111111111011110
0000000001101001
1111111111111001
1111111111010010
1111111110010111
1111111110111011
1111111111011101
1111111110010001
1111111101101100
0000000010100100
