0000000011010110
1111111111110000
0000000001011000
1111111110100110
0000000010001001
0000000001101010
0000000000110000
0000000010010100
1111111110001011
1111111111001101
1111111111001110
1111111110100001
0000000010010000
1111111111010100
1111111110100001
1111111111010000
1111111101100110
0000000001111000
1111111110101110
1111111110110000
0000000001110011
1111111111100000
1111111101101010
0000000010011111
1111111110101100
0000000001110011
1111111110100100
1111111111011010
0000000001010110
1111111111101111
0000000001111001
1111111110111010
1111111101110111
0000000000000000
1111111110101100
1111111110011110
0000000000101000
1111111111101110
1111111111100001
1111111110101101
1111111110011001
0000000000110000
0000000010000100
0000000000100011
0000000000011001
1111111110010000
1111111110001010
1111111111010110
1111111101111000
0000000010011001
0000000001110011
0000000010101100
1111111111111001
1111111110101100
1111111101101110
0000000001111001
0000000011000000
1111111111011101
0000000001110011
1111111110010100
0000000000000001
1111111110010001
0000000001011010
1111111111001011
1111111101110110
1111111111111011
0000000000010111
1111111110100001
1111111110111100
1111111110101011
1111111111100000
0000000001111001
0000000010110001
1111111111101110
0000000010001110
0000000000100011
1111111110010100
0000000000111011
1111111101000101
0000000001001001
1111111110101000
1111111110000011
1111111101101111
1111111111100001
1111111101000101
1111111110000000
0000000000000010
1111111111100101
1111111111000011
0000000000110101
0000000000111101
1111111101111010
0000000000010000
1111111101111111
1111111101111011
1111111111001001
0000000001010100
1111111110010100
0000000000110101
1111111101010111
0000000001000001
1111111111001010
0000000010001110
0000000010010101
0000000010000110
1111111111000001
0000000000001100
0000000000011001
0000000000010100
1111111101101000
1111111111101000
0000000000101000
1111111111010110
0000000001101000
1111111111110110
0000000010001110
0000000000001000
1111111101010100
1111111110000000
1111111110101100
