1111111110010111
0000000001000011
0000000010101110
1111111101100010
0000000001110010
1111111101011000
0000000010100110
0000000010100010
0000000001001001
0000000001010110
1111111101001110
0000000001010011
1111111111100000
1111111101100000
0000000001000001
0000000001001110
0000000001010110
0000000000111000
0000000000111000
0000000001101001
1111111101010011
0000000001101101
0000000000001011
1111111111000101
0000000000101110
1111111111111011
0000000000011111
0000000000011110
1111111111110011
0000000001110010
0000000000000011
1111111111111011
0000000010110000
1111111101011010
0000000001110011
1111111110011111
1111111101011101
1111111110110111
0000000001110111
0000000001000111
1111111101101010
0000000000010010
1111111111101110
0000000000011110
1111111110101100
0000000010100001
1111111110101010
0000000000011011
1111111111111010
1111111111111011
1111111111101110
1111111101100010
0000000010000101
1111111101110101
1111111110011001
0000000010001100
1111111111111010
1111111110011111
1111111110001011
1111111110000110
0000000010011101
1111111111101010
0000000010000100
1111111101110100
1111111110010000
0000000000111111
1111111101110010
1111111110111010
1111111110010100
0000000001011001
0000000001100101
0000000010100111
1111111101110101
1111111101010111
0000000000100110
0000000000110111
0000000001010111
1111111111011010
1111111111100100
1111111111000001
0000000000010001
1111111101011110
1111111111010111
1111111111101001
0000000000101111
0000000001000111
0000000010101000
1111111111000010
1111111111110101
0000000010010111
1111111101101111
0000000000010000
0000000000111001
0000000001101001
1111111101110110
0000000001111101
1111111110110101
0000000001011110
0000000000001010
1111111110100010
0000000000101001
1111111110001110
0000000001011100
0000000000100001
0000000001101011
1111111111010001
0000000010100111
0000000000000110
1111111101000110
0000000000000100
1111111111101100
0000000001101000
1111111110011010
0000000000010111
0000000000101100
0000000010011101
1111111110011101
1111111101101101
0000000001010101
1111111111101010
