0000000001010100
1111111101001110
0000000001101000
0000000001010111
1111111110110001
1111111111001100
1111111101011100
0000000000010000
0000000001110010
1111111110100001
0000000010100010
0000000001111111
1111111110001100
1111111101010001
1111111110111111
1111111101010010
0000000000010010
1111111101110101
1111111100111011
0000000001101101
0000000001000101
0000000000000111
1111111110001110
1111111101000101
0000000000011001
0000000000111100
1111111101110110
1111111111110001
1111111110101111
1111111110111101
0000000001000100
0000000010000111
0000000001100101
0000000000001101
1111111101010111
1111111110100101
1111111101011000
1111111101001101
1111111110110111
0000000001100000
0000000001010011
0000000001111101
1111111110110100
1111111110100110
0000000010010010
0000000000000011
0000000000110101
1111111110000100
1111111110110100
0000000001111001
1111111111001001
0000000001010110
1111111101000110
0000000010001111
1111111101011101
0000000010100011
1111111111000011
0000000000010000
0000000000100101
0000000010111011
1111111111010111
1111111110110000
1111111100110111
1111111110001001
1111111110110110
0000000000001111
1111111110110010
0000000010010100
0000000001100000
0000000001100111
0000000010001000
0000000010101110
0000000001011111
0000000001100101
0000000010101001
1111111111110001
1111111111000001
1111111110011101
0000000001010100
1111111111101101
0000000010100111
0000000000110000
0000000010101011
1111111110100101
0000000000101011
0000000010100100
0000000000001110
0000000000100111
0000000001011001
0000000010011101
1111111101110110
1111111101111010
0000000000011010
0000000000011100
0000000001001001
1111111101101101
0000000001010101
0000000011000011
0000000001000001
1111111110100100
0000000000001001
0000000010001000
0000000000111010
0000000010001111
1111111101111011
0000000001000011
0000000001111111
0000000010001111
0000000010110101
0000000001100000
0000000000111110
0000000011000111
1111111111001011
1111111110001100
0000000001001000
1111111110110110
0000000000111000
0000000000101000
1111111110000111
0000000010110100
