1111111101100011
0000000001110011
1111111110001100
1111111110010011
0000000001010101
0000000000000011
1111111111010000
1111111111000000
1111111111101010
1111111101100110
1111111110111110
1111111111011110
0000000000001111
0000000010011101
0000000001100100
1111111111010100
0000000000001011
0000000000101001
1111111110011101
0000000010001110
0000000010101010
0000000010101110
1111111111010101
1111111111011111
0000000000010011
1111111111101100
0000000000101010
0000000000100101
1111111111101001
1111111101110101
1111111101011101
1111111101100110
1111111111000111
1111111101100000
1111111101011100
0000000010100101
0000000001001111
0000000000111011
0000000010000100
1111111111100001
1111111101010011
0000000000111111
0000000010100011
1111111101101000
0000000001000010
1111111110001011
1111111101100011
0000000000100011
1111111111111011
1111111101100110
1111111111001001
1111111111100101
1111111111000101
1111111111010000
0000000010101111
1111111111000100
1111111101011011
1111111111010101
0000000001011000
1111111110000110
0000000000111111
0000000000000100
0000000010010011
1111111101010111
1111111111100010
0000000000111110
1111111110011011
0000000001011101
0000000000100110
0000000001110010
0000000000110101
1111111110011010
1111111111101011
1111111111000110
1111111101101110
1111111111000011
1111111110011110
1111111111000111
1111111111101001
1111111111101111
1111111111100111
0000000000000100
0000000000011010
1111111110010010
1111111111001101
1111111110111101
0000000000001101
0000000010010000
1111111110100010
1111111110100111
1111111110000111
1111111110110110
1111111110101001
0000000000011100
1111111110111111
0000000010001111
0000000000111010
1111111110010001
0000000010100010
0000000000101011
0000000010100001
0000000010011010
1111111110000001
1111111110011100
1111111110100011
0000000000000110
1111111101100001
1111111101100000
1111111111001100
1111111111100110
1111111111011010
1111111110100111
0000000000101011
0000000010100010
1111111110101100
1111111111011001
0000000010001101
0000000000001100
1111111111100110
1111111111110010
