1111111110000110
1111111111010100
1111111110101101
0000000000110001
1111111111001001
1111111101111000
1111111101111001
1111111110011100
1111111110100011
1111111110101100
1111111111011010
1111111101010110
0000000010010100
0000000010001011
0000000010111010
1111111110010101
1111111101110010
0000000000100001
1111111110111010
1111111110101000
1111111110110100
0000000000011000
1111111101111010
1111111111111111
0000000000000111
0000000001111100
0000000010010010
1111111101111001
0000000000100000
0000000010110010
0000000010111010
1111111110100001
0000000010010010
1111111111001110
0000000001010011
0000000000001111
1111111111100110
1111111101100001
0000000000010011
0000000000110101
1111111101010100
1111111110000100
0000000010110011
1111111111011001
0000000010011011
1111111101100001
1111111101011000
0000000000010110
0000000010010001
0000000000011000
0000000000100010
0000000001111011
0000000010100100
1111111110100011
0000000010010101
0000000000001111
0000000001110011
0000000000111001
0000000000011010
1111111110100111
1111111110010000
0000000001100100
0000000010110111
1111111111110111
1111111101110111
0000000000000011
0000000001110110
1111111111110101
0000000010100000
0000000000001000
0000000001100000
0000000001111101
0000000001110101
0000000011010101
0000000010011101
0000000010000101
0000000010011000
1111111101100000
1111111111110011
1111111111111100
0000000000010111
1111111110110101
0000000000001011
1111111110010100
1111111111010111
1111111101101010
1111111111111011
0000000010000101
1111111110001001
1111111111111000
0000000010000100
0000000000011111
1111111111001001
1111111110111000
1111111110101110
0000000010000101
1111111110100111
1111111111010110
1111111110000011
1111111101011001
1111111101011111
1111111110010110
1111111101111010
1111111110111011
0000000001000110
0000000000101011
0000000001000011
1111111110101100
1111111101111111
0000000000110111
0000000010101110
1111111101110110
1111111110010001
0000000010001101
1111111110001110
1111111101001100
1111111111110100
0000000010110011
1111111111001000
0000000001110001
