1111111111100001
1111111111010011
1111111101110001
0000000001011101
0000000001101111
0000000010001111
0000000000111001
0000000001110100
0000000010000001
0000000001000010
1111111111101011
1111111110000110
0000000010001101
0000000010111111
1111111110001111
1111111111101010
0000000011000110
0000000010100001
0000000010010111
1111111110011111
1111111101101100
0000000000111011
1111111101110100
1111111101111001
0000000010010010
1111111110000000
0000000010011110
0000000001111000
0000000001010111
1111111110011111
1111111101111000
1111111111000111
1111111111011111
0000000000011001
0000000001110101
0000000010110110
1111111110000001
1111111101110010
0000000001010001
1111111100111111
0000000001100010
0000000001100000
0000000000001010
1111111111101001
0000000000010001
0000000000000110
0000000000011010
1111111110011111
0000000000110010
0000000000110001
0000000001100100
1111111110011011
0000000001101001
1111111111110110
0000000011011000
0000000000110110
0000000001011100
1111111110001101
1111111111010001
0000000001101010
0000000010110100
0000000000000001
1111111110001011
1111111101001101
0000000001010111
0000000000010001
0000000010111001
1111111111001101
0000000001011011
0000000010100000
0000000001101100
0000000001001100
1111111110100010
0000000010110111
0000000000010100
0000000010010010
1111111110010111
1111111100111110
0000000001001011
1111111110010010
1111111111001110
1111111101100011
1111111111010011
1111111101111011
0000000001100001
1111111101000101
1111111110001110
1111111111100011
0000000000010101
0000000001001011
1111111111000010
1111111111101111
0000000010100010
0000000010111011
1111111111000000
1111111111111001
1111111110011000
0000000000101010
0000000000110000
1111111110101111
0000000000101110
0000000001000001
0000000000101001
0000000001001010
0000000011001001
0000000001100100
0000000010110111
0000000000001110
0000000000110010
1111111111110101
1111111111010011
0000000000010111
1111111101111011
1111111110011101
0000000001001010
0000000001010110
0000000000001000
0000000000011011
1111111111111001
0000000000001101
