1111111111000010
1111111100101001
0000000001111010
0000000001001001
0000000001011100
1111111111101101
0000000000111001
1111111101100011
0000000010111011
1111111111111000
1111111110100111
1111111111010001
1111111111011011
0000000001010101
1111111101111100
0000000001101110
0000000000010110
0000000000111001
0000000010110001
1111111110101001
1111111110010011
1111111110011110
1111111111010101
0000000000111000
1111111111000000
0000000000000111
0000000000101001
1111111101001110
0000000001111011
1111111110001100
0000000000001010
1111111111000101
0000000000010100
1111111110111010
0000000010011110
1111111110011011
0000000010011010
0000000000011010
1111111101110111
1111111111011111
0000000010111111
1111111110111011
1111111110000011
1111111101101110
1111111101101000
1111111110110100
0000000000100000
1111111110110000
1111111101100000
0000000001100101
1111111111100010
0000000000010101
1111111101111111
1111111110111111
1111111111011001
1111111110000000
1111111111110000
0000000010000100
1111111111001100
0000000000111110
1111111111000111
1111111110100000
0000000001100001
0000000000101001
1111111111001111
1111111101000101
1111111101100010
0000000001110001
0000000011000110
0000000010010010
0000000001110001
1111111111001010
0000000010110000
0000000000011010
0000000000101011
0000000000100011
1111111111100010
1111111101000000
1111111111101010
1111111101000110
1111111110001011
0000000010000001
1111111111000001
1111111110110010
0000000001011111
1111111111010111
1111111111001000
0000000010010011
0000000000001010
0000000001001011
0000000011000101
0000000000111011
0000000000101011
1111111111011000
1111111110000000
1111111101011011
0000000010000010
1111111111111111
0000000000101100
1111111110001100
1111111110110100
1111111110101000
0000000001101101
0000000001010110
1111111111010100
1111111111010110
0000000001100000
0000000000110111
1111111101011010
0000000000001000
1111111111111000
0000000000010101
0000000001111110
1111111111110100
1111111110111001
1111111111001110
0000000000011100
0000000010101011
0000000000011011
0000000010110110
