1111111101100110
0000000001101001
0000000001000110
0000000001110110
1111111111110111
0000000001010111
1111111101001010
1111111101110111
1111111111110100
1111111111000101
1111111111100000
0000000001110001
1111111111111111
0000000001011000
1111111111001111
1111111111001000
0000000010001000
1111111111010100
0000000001010011
0000000010011000
1111111111000101
1111111111000010
0000000001111101
1111111110110101
1111111111111001
1111111101101010
0000000001000101
1111111111010101
1111111101110011
0000000001001011
1111111110110110
0000000010101100
0000000001011000
0000000001001111
0000000000110111
1111111110111110
0000000001011101
1111111110000010
0000000000001001
0000000001100001
0000000010000001
1111111111000100
1111111110110110
1111111110011101
1111111110111100
1111111111100100
1111111110011100
0000000010000110
0000000001100000
1111111110101110
0000000010011011
0000000001110110
0000000000000110
0000000001001001
0000000001111111
1111111101100100
0000000000111111
0000000000000110
1111111101101010
0000000001000001
1111111110101110
0000000001001011
1111111101110000
0000000000100110
1111111101100001
0000000001010100
1111111101010011
0000000010010111
1111111110001111
0000000010011011
1111111110101111
0000000000111100
1111111111100000
1111111110001010
0000000001100110
0000000001101110
0000000010000110
1111111110101011
0000000000111111
0000000010101100
1111111111000011
0000000001101000
1111111111101000
0000000010000011
1111111101111100
1111111111011000
1111111111000101
1111111111000110
1111111110110010
1111111110111101
0000000000010000
1111111111101000
1111111110001111
0000000000100011
0000000001001111
0000000000000100
1111111110101000
0000000000001011
1111111101010010
1111111101100110
0000000001101111
1111111111011111
0000000000101100
0000000001010101
0000000001011101
1111111111010111
0000000001101010
1111111111000001
0000000001011011
1111111101010111
1111111110010010
0000000000000010
1111111110110101
0000000010000001
0000000010010011
1111111101011100
0000000010011001
0000000000011110
0000000001011000
0000000001010011
