0000000000110111
0000000010001101
0000000001001100
0000000010101001
0000000001010010
0000000001110101
0000000010100001
0000000001000000
1111111101110100
1111111111101110
1111111111110010
0000000010110010
0000000001000001
1111111110011100
1111111111111010
0000000000110100
1111111100111100
1111111111011011
0000000011001000
0000000010100100
0000000000001100
1111111110110111
0000000000110001
0000000001111100
0000000000100110
0000000001000110
0000000000101001
1111111101110011
0000000010100011
1111111111100100
1111111110110100
0000000000011111
0000000000010011
1111111111010000
1111111101001110
0000000001010100
0000000001011010
0000000010000000
1111111110001100
0000000001111001
1111111111011000
1111111110001010
0000000010011110
1111111110011101
1111111111011001
1111111111000010
1111111111000101
0000000000100011
0000000010110111
0000000010100010
1111111111010011
0000000000010000
1111111111001111
0000000010011100
1111111110010111
0000000010011001
0000000010100000
0000000010100000
0000000000001110
1111111111100011
1111111100110001
1111111111000010
0000000010100100
0000000000001010
1111111101011100
1111111101101011
1111111110011001
0000000001101000
0000000001001111
1111111110011000
0000000010100110
0000000000110010
0000000000100011
1111111101100101
1111111100111010
0000000000001011
1111111111111010
1111111101100010
0000000001100110
0000000010010111
0000000001100000
1111111101000000
1111111111110010
1111111110010110
1111111110011110
0000000001010101
1111111101100000
1111111101000111
1111111101011111
1111111111011000
0000000010000111
1111111101000001
0000000010011001
0000000000011001
0000000001100011
1111111111110010
1111111110011101
0000000000111010
0000000010010101
0000000000001000
1111111110010010
1111111110111111
0000000000001100
0000000010100000
0000000000001000
1111111110111001
0000000010011011
1111111101100011
0000000001111100
1111111111000111
0000000001110000
1111111101011100
1111111110011000
0000000000000001
0000000001101011
0000000001111011
1111111111001110
1111111110010100
0000000001101101
0000000001111110
