0000000010100001
0000000010011011
1111111110010010
0000000001010000
0000000010100110
1111111110000110
0000000000111010
1111111111100001
0000000000011001
0000000000001001
0000000000101001
0000000001110001
1111111101100111
0000000010010001
0000000001010110
0000000010110111
0000000001010100
0000000011010010
1111111110100000
0000000010011010
1111111110100101
1111111110000001
1111111101010111
0000000000010010
0000000001011110
0000000010101111
1111111101000100
0000000011010000
0000000000011110
0000000000001000
1111111111011100
0000000000001001
1111111111010111
0000000001000001
1111111101100101
0000000000010010
1111111110111110
0000000001101011
1111111110000110
0000000010001000
1111111111110100
1111111110001010
1111111110110000
0000000000011101
0000000010011110
0000000000101000
1111111111011001
1111111110101011
0000000010010011
1111111101100011
0000000001000010
0000000000101010
0000000010111111
0000000001100001
0000000000111110
1111111101001011
0000000000000101
0000000000100100
1111111101011101
0000000001011001
1111111101101011
0000000010010001
1111111110011101
1111111101101100
1111111110101000
1111111101011000
0000000010010011
0000000001010000
0000000000110100
0000000000010100
0000000010010100
1111111111101110
0000000000001110
1111111110011000
0000000000011110
0000000001000011
0000000010010110
0000000001011100
0000000010111011
1111111111011111
1111111111010011
0000000000001111
0000000010100010
1111111111000111
0000000000100110
1111111110101101
1111111110011010
0000000001110010
0000000001110000
0000000000100110
0000000010000011
1111111101001010
0000000010110011
1111111110110000
1111111101000011
0000000000110010
1111111111011100
0000000000101000
1111111111101111
1111111111101101
1111111110001001
1111111110011010
0000000000101010
0000000010110110
0000000001011110
0000000001011100
1111111111010011
0000000000000110
1111111110010001
0000000000001001
1111111110011011
0000000000011110
0000000000010011
0000000000100011
1111111100111111
1111111111010000
1111111101101101
0000000001111010
0000000000101101
1111111101101000
