1111111101110010
1111111111100011
1111111110111000
1111111110101000
1111111111011101
1111111110001111
1111111111001111
1111111111101000
1111111110001111
0000000010010100
1111111111110010
1111111101010000
0000000001110100
0000000000001010
0000000000011001
1111111110001010
0000000001110101
0000000010011011
1111111110011011
1111111111110101
1111111111111011
0000000000110110
0000000000000111
0000000000000010
1111111111111110
0000000001111110
1111111111111111
1111111111010101
1111111111110101
1111111111101101
1111111110000001
0000000000101010
1111111111101100
1111111110110111
1111111111011100
1111111110100101
0000000010101010
0000000010100011
1111111101101011
0000000010101010
1111111111111100
1111111110111001
0000000010001101
1111111111001000
1111111101110011
0000000010000011
1111111110111101
1111111110100011
0000000001000010
0000000000111000
0000000000111011
0000000000111001
0000000001101001
1111111101100111
1111111111010000
0000000001110110
0000000010010111
0000000001100000
1111111101110000
1111111111100101
0000000010001011
1111111110011011
0000000001111000
1111111111010001
0000000010110100
0000000001101111
1111111111110001
0000000001011011
1111111111000011
1111111111111100
1111111101111110
0000000001110101
0000000010010101
0000000001001011
1111111111011000
1111111101101011
0000000001010110
1111111110110000
0000000000000000
1111111111100101
0000000000111100
0000000001001100
0000000000100001
1111111110100101
0000000010010101
0000000001111000
1111111111001100
1111111110010100
1111111101111010
0000000001100010
0000000010011111
1111111110010110
1111111101101111
0000000000111000
1111111101101000
0000000010110111
1111111111010110
1111111110011011
0000000010100000
1111111101011100
0000000010101101
0000000000110111
1111111111110101
1111111101111011
1111111101100011
1111111110111011
1111111110100101
1111111101111011
0000000001001110
1111111111000011
1111111111010001
1111111110100011
1111111111110111
0000000000010011
1111111101101001
0000000010101111
1111111110100110
0000000000110000
0000000010101100
0000000010001110
