0000000001100100
1111111111011010
0000000000011110
1111111101011101
1111111110101000
1111111111110110
0000000001001100
0000000001001101
0000000010101011
0000000000000011
0000000000000000
1111111101001011
0000000000110000
1111111111011011
0000000000000101
0000000000111101
1111111111100010
1111111111010000
1111111101000110
1111111101100000
1111111101010101
1111111111000101
0000000000010000
0000000010110111
0000000001011101
0000000000000001
0000000000001000
1111111101111101
1111111110111001
1111111101101100
1111111110001000
0000000000011001
1111111101100000
1111111100110100
1111111110110011
1111111110011010
0000000010010001
0000000000000000
0000000001101110
1111111111101101
1111111110100101
1111111111111101
0000000001100110
0000000001010011
0000000001110000
0000000001101100
0000000000101110
1111111110111100
0000000010001001
0000000001000010
1111111110100101
0000000000110111
0000000000111001
1111111110111001
0000000000000000
1111111101101000
1111111110001111
0000000001111111
1111111101110100
1111111101011100
0000000010111000
0000000010001000
1111111110011010
0000000000000100
1111111111010010
0000000001111011
0000000001110010
1111111101101111
1111111110111100
0000000000000101
1111111101110010
0000000000101111
0000000000101101
0000000010000010
0000000001010101
1111111101000101
1111111101110001
0000000001010101
1111111101001111
1111111110110100
0000000001100011
1111111111110110
0000000001111011
1111111111101011
0000000001111110
1111111101110101
1111111101101111
1111111110011010
0000000001110110
0000000000111000
0000000011101010
0000000001111001
1111111111011100
0000000010000111
0000000001011100
0000000001001010
0000000001011001
0000000001010011
1111111110111111
0000000010010000
1111111110100111
0000000000000101
1111111101010100
1111111101101000
1111111101100011
1111111111100010
1111111110011110
0000000001001111
0000000000001010
1111111111010001
1111111111101001
0000000001101111
0000000001001001
1111111101011100
1111111101101011
1111111110110010
1111111111011011
0000000001100011
1111111110111100
1111111101011101
