0000000010100101
1111111101010101
0000000010100110
1111111101110011
0000000001000010
1111111110110010
1111111110100111
1111111101111110
1111111111001010
0000000001110010
0000000010010101
0000000010101110
0000000000101110
1111111101101010
1111111101101111
0000000000010001
1111111110101111
1111111110110010
0000000010010111
1111111101110000
0000000010101000
0000000000100011
0000000010100101
1111111110100110
0000000000010111
1111111101011111
1111111110001110
0000000010001000
0000000010011010
0000000001001100
1111111111111101
0000000010011110
1111111110011100
1111111101110011
0000000000010100
1111111101101100
0000000000101100
1111111110110100
1111111111110000
1111111111011011
1111111110110011
1111111111000100
1111111110000100
0000000001111010
1111111101011111
0000000000000100
0000000001000101
0000000001001101
1111111101010100
1111111110100110
1111111110111111
0000000000100101
1111111111001010
0000000010001000
1111111101110110
1111111101100111
0000000010010001
0000000001010000
0000000000100100
0000000000011010
0000000001010101
1111111101101000
1111111101011010
1111111111101000
1111111110110010
1111111101010111
0000000001011110
1111111110111001
1111111101010101
1111111110111000
1111111111111011
1111111110100100
1111111101101101
0000000000001100
0000000010101100
1111111111000100
1111111110101111
1111111101101100
0000000010000010
1111111110111011
1111111111110000
0000000000001010
0000000000010011
1111111111010111
0000000010101010
0000000001001110
1111111111001101
0000000001010001
0000000000011000
1111111101110100
0000000010011111
1111111101101010
0000000010011111
1111111101111110
1111111110101011
1111111111011000
1111111111110011
0000000000111111
1111111111100001
0000000000000001
1111111110011000
1111111110000001
1111111101111110
1111111111111111
0000000000110111
0000000001101100
0000000010010011
1111111110111110
1111111101010011
0000000001101000
1111111110100111
0000000010010000
1111111110111011
0000000000110001
0000000001000000
0000000000010010
0000000000100010
1111111110010101
1111111111111011
0000000001001100
