0000000000111110
0000000000111100
0000000000001000
1111111110011000
0000000010010000
0000000010101010
1111111110110100
1111111110000101
1111111110000011
1111111111110111
0000000001110011
0000000000111100
0000000001011111
0000000001011010
1111111110000001
0000000010010000
0000000010000001
0000000001010001
1111111101100001
1111111111111100
1111111101010111
0000000000110010
0000000000101110
1111111101111011
0000000001010011
1111111110010110
1111111101001001
0000000001010100
0000000000000110
0000000001011001
0000000010100000
0000000001101100
0000000010100111
1111111110111011
1111111110011011
1111111110010000
0000000010011000
0000000010011100
0000000010011001
1111111111100100
1111111101001010
1111111111000100
1111111110001001
1111111110000101
0000000001101110
1111111101101100
1111111101100000
1111111111000001
1111111111000010
1111111111010111
1111111110110110
1111111110011110
1111111110111001
0000000010000111
0000000000111010
0000000001111010
0000000010101110
1111111101010000
0000000010011000
1111111101111111
1111111110100101
1111111101100000
0000000001101001
0000000000101001
1111111111001000
1111111110111011
1111111111000100
1111111111110001
1111111110111111
1111111111011010
1111111110010110
0000000010000011
0000000010110101
0000000000110101
0000000000110010
0000000000000000
0000000001011110
1111111111111001
0000000010101010
0000000000000110
0000000000111100
1111111111101110
0000000010010010
0000000011000001
1111111101111001
0000000000101001
0000000010100111
0000000001000001
0000000000110100
1111111110000110
0000000001000100
1111111111100000
1111111110101101
0000000000000001
0000000000001110
0000000001100011
1111111111101100
0000000000101001
1111111110000110
1111111110101111
0000000001000011
0000000000010000
1111111111010011
0000000010010000
0000000001010000
1111111101111011
0000000000100011
0000000010111011
0000000010100000
0000000010010100
1111111111110100
1111111111100010
0000000001010010
0000000001000101
0000000000011011
0000000010011111
0000000000110100
0000000001001101
1111111101111110
0000000001101001
