0000000000101111
1111111111110011
1111111111011011
1111111111110011
0000000000001111
1111111110101111
1111111101011100
0000000000100000
1111111110111100
1111111110111100
1111111110100010
0000000000010010
1111111111010000
0000000010010111
0000000010000000
0000000010011110
0000000000011001
0000000001101001
1111111101110000
1111111111101100
0000000000001010
1111111101011100
1111111111111011
0000000000111010
1111111111001001
0000000010101010
0000000001000000
1111111101110001
1111111110101000
0000000010000000
0000000000101001
0000000001100001
1111111111000111
0000000001111001
1111111110111111
1111111110100010
0000000000000010
1111111101011111
0000000001010110
1111111111100010
0000000010000100
1111111101101000
0000000011000011
0000000000011011
0000000001111101
1111111110101101
1111111110000011
1111111111011010
0000000010000100
0000000000101101
0000000010110010
1111111110010101
1111111111011010
0000000001011100
1111111101010001
0000000001001101
0000000001100000
1111111111000100
0000000000000110
0000000001010000
1111111111000100
0000000000001100
0000000000111010
0000000010110010
1111111110100111
0000000001000010
0000000000111011
1111111111100001
1111111110010100
0000000001101001
1111111101100100
1111111110101001
0000000001110000
1111111110100100
0000000000001010
1111111101111111
0000000000111000
0000000010000110
1111111110101011
0000000000101011
0000000001111001
1111111110110101
1111111111011100
1111111110111111
0000000000100011
1111111101011000
1111111101000101
1111111110111111
1111111110110001
1111111110001011
0000000000111100
0000000000110100
1111111110111110
0000000010011011
0000000001110110
0000000000111000
0000000001011100
1111111110000110
1111111110011111
0000000010110011
0000000001110011
0000000000111101
0000000010001000
0000000000001010
1111111111100110
1111111110001111
1111111110111101
0000000000011110
1111111111110010
1111111110000011
0000000010000111
1111111111100110
0000000000001001
1111111110001000
0000000001111100
0000000001011001
1111111110111100
0000000001011111
1111111110000000
0000000000011100
