0000000000010000
0000000000111000
1111111110100101
1111111110010111
0000000000101000
0000000000000000
0000000001000001
1111111101010101
1111111111100101
1111111111000100
0000000001101001
0000000000110101
0000000011000111
0000000010110111
0000000010110100
1111111110011001
0000000001101101
1111111110101100
0000000010001000
0000000000010100
1111111111111001
1111111110110001
0000000010001101
0000000010001011
0000000010001011
1111111110000010
1111111111011101
1111111111000110
0000000010100011
1111111111000000
0000000001111111
0000000000100101
1111111111111110
1111111110100101
0000000000110001
0000000001010010
1111111110010111
1111111101100100
1111111110100011
0000000000111001
1111111111110110
1111111101101100
1111111111001110
0000000000101111
1111111110001010
0000000000010100
0000000000101001
0000000010101101
1111111111111000
1111111101111010
0000000001111011
0000000000010101
0000000010001100
1111111111001011
1111111110010100
0000000001011001
1111111101110000
1111111110100100
0000000001010100
1111111110101010
1111111101100100
0000000001100001
0000000001100100
0000000000010101
1111111111111101
0000000010110111
0000000001011010
0000000010101111
1111111110001011
0000000010001111
1111111111111011
0000000001110010
0000000010001001
0000000001100000
1111111111011100
1111111110100101
0000000000000101
1111111110000001
0000000001101101
1111111111100100
0000000001111110
0000000000111000
0000000001100101
0000000010011101
0000000011010001
1111111101010110
0000000010101011
1111111110110111
0000000001100101
0000000001110011
0000000001001110
0000000010101110
0000000001001111
0000000001101010
1111111110100110
1111111101011100
1111111101010101
1111111110001101
1111111110001111
0000000010001110
1111111110110010
1111111101111100
1111111110000100
0000000000100000
1111111110001101
0000000001111111
1111111110011100
1111111110111100
1111111111000000
0000000001110100
1111111111110000
1111111101100001
1111111110101101
0000000010011011
1111111101110010
1111111111100010
0000000000001010
0000000001011000
1111111111110010
1111111101100111
