0000000000100101
0000000000101110
0000000000001011
0000000000000001
1111111110010001
0000000001010110
1111111101010101
0000000000000101
0000000001010110
0000000001001001
1111111110101101
1111111101110100
1111111110000000
1111111111001110
0000000010100000
1111111111101001
0000000000000011
1111111111111010
0000000001011000
0000000000110010
1111111111111101
1111111110001110
0000000001101000
1111111110001100
1111111111101101
0000000000110100
0000000010101001
1111111111100010
1111111110010111
1111111101111001
1111111111100111
1111111111101010
1111111110111111
0000000000011010
0000000001101010
0000000000010000
1111111110010001
1111111110001110
0000000000010101
1111111111010010
1111111110001011
1111111110100101
1111111110100000
0000000001101001
0000000000101110
0000000001110010
1111111111110011
1111111110011010
1111111101101111
1111111111010000
1111111111100101
1111111101101000
0000000000101000
0000000001100111
0000000010011010
0000000000011100
0000000001001111
0000000000111100
0000000000101011
1111111101010111
0000000000010110
0000000001001110
0000000010011111
0000000001101010
0000000001101100
1111111110100000
1111111110100110
0000000000101011
1111111110101101
0000000000110011
0000000001111100
1111111111010011
1111111111001010
1111111111100110
1111111111111000
1111111110010010
1111111101110110
0000000000101000
1111111111000000
1111111110101000
0000000001000001
0000000000110111
1111111111000100
0000000010011010
0000000000111100
0000000000001001
0000000001111011
0000000000000000
1111111101101000
1111111110001001
1111111111001001
0000000010100100
0000000001110101
1111111110010111
1111111111011010
0000000010100000
0000000010010111
0000000001010010
0000000000100000
1111111111001011
1111111111100011
0000000001001011
0000000010010010
1111111110010101
1111111110011110
1111111101100100
0000000001011100
0000000010100110
1111111101011000
0000000000000011
0000000010001001
0000000000000110
1111111111011101
1111111110001101
1111111110110101
1111111101010111
1111111101101100
0000000000001101
0000000010011101
0000000010011111
