0000000011111010
1111111100111010
0000000011111001
0000000100110001
1111111111000101
0000000000100101
0000000011011001
0000000010110010
0000000011100000
1111111111101111
0000000001101100
0000000100001110
0000000001011011
1111111100011100
1111111111000110
1111111101010000
0000000101100010
0000000000000011
0000000011000110
0000000010100011
1111111111101110
1111111100100100
0000000001000111
0000000001011010
1111111111100011
0000000001110101
1111111110110101
1111111110111111
0000000100000001
1111111100100001
1111111111010111
0000000001000101
1111111111011001
0000000001010010
1111111110010001
1111111111010101
1111111101011011
1111111110111101
1111111111100000
1111111100101001
1111111101010001
0000000010100000
0000000010110110
1111111011010000
0000000000011011
1111111100101001
0000000000000011
1111111110101011
1111111110100101
1111111111110000
1111111100011111
0000000000100100
0000000001010010
1111111101111001
1111111101010100
1111111100110110
1111111110011100
0000000000111010
1111111101101111
1111111111011000
1111111011011011
0000000000010100
1111111111100100
0000000011011100
1111111101101000
0000000000111100
0000000001000100
1111111101101111
1111111101001101
1111111110110010
0000000100110111
1111111100010001
0000000011101010
0000000100001000
0000000000100000
0000000000101111
1111111110111000
1111111100101000
0000000001001101
0000000001100001
1111111111010101
0000000001011111
0000000101100111
1111111110101011
