1111111110110110
1111111111110111
1111111111111000
1111111110001100
1111111111011110
0000000000001000
1111111111011010
0000000010010101
0000000000111110
0000000001100001
0000000001011100
1111111111010011
0000000000010010
0000000010001000
1111111111001110
1111111111011100
1111111110000011
0000000001111010
0000000001110011
0000000001101010
1111111101111110
1111111110001010
0000000001100001
1111111110110000
1111111101110011
0000000000001000
0000000010011110
1111111101101111
1111111111110111
0000000010010011
0000000000100001
1111111110110100
1111111111001101
0000000000100011
0000000010001001
1111111111101010
1111111111011010
1111111110101101
0000000001110100
0000000001010010
1111111110010100
1111111101100101
1111111111111110
1111111111000010
0000000000100001
0000000010000100
0000000010110001
0000000010000111
1111111110101101
0000000000101101
1111111111100010
0000000000011110
1111111110110001
1111111111111001
1111111111001011
1111111110011101
0000000000001001
0000000000001000
1111111111000101
0000000010100010
0000000010011011
0000000010000110
0000000000011100
0000000001110111
1111111101100100
1111111101110111
1111111110001010
1111111110110100
0000000010001100
0000000010101110
1111111110000001
1111111111011010
0000000010000110
1111111110011011
0000000010100011
0000000000111100
1111111110001010
1111111110111101
1111111111011001
1111111110000100
1111111111010000
1111111110001101
1111111111111001
0000000000111101
0000000001110010
0000000000000111
0000000000110101
1111111110100001
1111111111111001
1111111101110000
1111111101110111
0000000001110110
1111111110010010
1111111101111000
0000000001000100
1111111110110100
0000000000101001
0000000010000011
0000000001011110
1111111110011000
0000000010010100
0000000010010010
0000000000000011
1111111101101101
1111111101011111
1111111110100001
0000000000011100
1111111110110101
1111111110011110
1111111110101000
1111111101100011
1111111101110011
0000000000010110
0000000001101010
1111111110100010
0000000001000111
0000000000101101
1111111101111111
0000000010101000
1111111101010001
