1111111110010001
1111111111001001
0000000000111110
1111111101010100
1111111101011100
1111111111101001
1111111110110111
0000000000101001
0000000010101101
1111111111110010
1111111110011010
1111111111001100
1111111101110010
0000000001100111
0000000000111111
0000000000111111
0000000000000000
0000000010100100
1111111110100001
1111111110011111
1111111111101111
0000000000000111
1111111101011100
1111111111101010
1111111111101011
0000000001000001
1111111101011010
1111111111011011
1111111111001111
0000000000100110
1111111101010111
1111111111011111
0000000010101110
1111111110010101
1111111110000010
0000000000111001
0000000010000001
0000000010011111
1111111101011001
1111111100111001
1111111110000100
0000000000111101
0000000000100001
1111111110110001
1111111111001001
0000000010001111
1111111101101110
0000000000001001
0000000001111111
0000000001101001
0000000010010111
1111111111100001
1111111110101000
1111111111011001
0000000000111100
1111111101110000
1111111101100010
0000000010011110
1111111101101110
0000000001000100
0000000001101000
0000000000101110
0000000000101001
0000000010100010
1111111101110101
0000000001000111
1111111110011100
0000000001010101
1111111101110100
1111111111111110
0000000000101101
0000000000001101
0000000010010111
1111111101010010
1111111101110011
1111111110101111
0000000010011010
0000000001100110
1111111111111011
0000000010001100
1111111111100101
1111111111111011
0000000000110100
0000000001111011
1111111111010000
1111111110111111
0000000010100000
0000000000001110
0000000001111000
0000000001111001
0000000010001011
0000000001000101
1111111110011010
0000000000001110
1111111111010011
0000000010001000
0000000001101101
1111111110101011
1111111111011101
0000000000011100
0000000000110000
1111111111010011
0000000001101001
0000000000010111
1111111110100101
0000000001111001
0000000000001111
0000000001001101
1111111111001000
0000000010100001
0000000010000110
0000000010100100
0000000001111011
1111111101100100
0000000000110110
0000000010100111
1111111110011110
0000000010001111
0000000010000001
1111111110001011
