1111111101101111
0000000001011110
0000000001001010
0000000001001101
0000000000100011
1111111110001110
1111111101110101
0000000000100000
1111111101001000
0000000001000010
0000000000000001
1111111110010111
1111111101011100
1111111101010111
1111111111101000
0000000001001100
1111111111101110
1111111101110110
1111111111101010
0000000000010010
0000000001100011
0000000010000111
0000000000111100
0000000010100010
0000000001011000
0000000000010000
1111111101000101
0000000000011011
0000000001111111
1111111111101100
0000000001000000
0000000000101010
1111111111010011
0000000001111000
0000000001110110
1111111110000100
0000000001110001
0000000010000000
1111111101010000
0000000000100010
1111111111011001
0000000000011101
1111111101010011
0000000010001000
0000000000101111
0000000001010100
0000000001111000
0000000001110100
1111111101110101
1111111111000100
1111111101011100
0000000010010110
1111111101111101
0000000010110010
0000000000101110
1111111101001111
1111111101100011
1111111111010000
1111111101110110
0000000001100000
1111111111011010
0000000001000110
0000000010000011
1111111101100011
0000000000001011
1111111111001111
0000000001000101
1111111111110110
1111111101100001
1111111101011010
0000000001101110
1111111111011101
1111111110000110
1111111110110011
0000000010001101
1111111110110111
1111111110010101
0000000001101110
0000000001101111
1111111111001011
1111111101110100
1111111101111010
0000000001110011
0000000001000100
0000000010001100
1111111110010010
0000000001111011
0000000001101011
0000000010011101
1111111100110001
0000000001001101
0000000010110101
0000000001111111
0000000010001000
0000000010000000
0000000010111001
0000000001001000
0000000000101011
1111111111011100
0000000000100011
0000000001100000
0000000010010111
0000000000100100
0000000010000010
0000000011000001
1111111111110111
0000000001010101
1111111101111101
1111111110001010
1111111111101110
0000000010011011
0000000001001010
0000000000001100
0000000001100011
0000000001101011
0000000000111111
0000000010010110
1111111101100010
1111111101100010
0000000001101000
