1111111101010101
0000000000100010
0000000000111000
0000000000110010
0000000001010101
0000000010100111
0000000011000110
0000000001011100
0000000010000100
0000000000001001
0000000001000000
0000000001101110
0000000001000101
1111111110000111
1111111101100101
0000000010001101
1111111110000010
1111111110010101
1111111101010010
1111111110100000
1111111101110111
0000000001111111
1111111110101110
1111111100111010
0000000001000011
1111111101011000
1111111110111111
1111111110001001
1111111110010010
1111111110011010
0000000000110111
1111111110111011
0000000000100101
1111111111111010
0000000010010000
0000000000111110
0000000001110000
0000000000000101
1111111111110100
1111111111110111
1111111101110010
1111111101010100
1111111111100000
0000000001110111
0000000000110110
0000000001111000
1111111101110101
0000000010001010
1111111111001001
0000000001100010
1111111101001110
0000000001111110
0000000000001111
1111111111001001
0000000000001000
0000000000000011
0000000001010000
1111111110011011
1111111110001011
0000000001101110
1111111111111000
1111111101011110
0000000011000111
0000000010011010
1111111101110011
1111111101001101
0000000010000111
1111111101010010
1111111111001010
1111111111100101
1111111101011000
0000000010011011
0000000001101100
0000000010100010
0000000000111011
1111111101001010
0000000001111011
0000000000010110
1111111101110101
0000000010101110
1111111101100011
1111111101111100
0000000000011110
1111111101101001
0000000000110111
0000000001101110
0000000010100001
1111111100110010
1111111111101111
0000000000011100
1111111110000101
1111111101100101
0000000001110001
0000000001100111
1111111110100111
0000000000011100
1111111110100010
0000000000101011
0000000010000011
0000000010010111
1111111111111001
1111111101111001
0000000010010111
0000000000101000
1111111110111001
0000000010100000
0000000001011010
0000000000001111
0000000000101010
1111111110100101
0000000000111000
1111111111111011
0000000010001111
0000000010000000
1111111111011100
0000000010001001
0000000001110001
0000000000010000
1111111110000101
0000000010101100
