0000000000111100
1111111110010111
0000000000011011
0000000010010001
1111111110010010
0000000010110100
0000000010000110
0000000000010010
0000000010100010
1111111111001110
0000000001101101
0000000000011010
1111111110000100
0000000010111001
0000000010001110
1111111111110011
0000000001000001
0000000010100000
0000000010010010
1111111111011101
0000000001101000
0000000010000111
1111111101110110
1111111111010000
1111111101111011
1111111101010001
0000000001100101
0000000000110001
0000000010010011
0000000010000000
1111111101110110
1111111101011011
0000000010110101
1111111111101010
1111111111001101
1111111110011100
1111111101110000
1111111111010000
1111111101101110
0000000000010110
1111111110000110
0000000001000100
0000000001100100
1111111110010100
0000000001100110
1111111101100100
0000000010001001
0000000010001000
1111111110100111
1111111110101011
1111111101111010
1111111110000000
1111111110101001
0000000010010101
1111111101011010
0000000010000000
1111111101011011
0000000010100001
0000000000000001
0000000000110010
0000000000000000
1111111110110000
0000000010001111
1111111111111111
0000000010011111
1111111110111011
1111111101111011
1111111110010101
0000000010001101
0000000001111011
0000000001000101
0000000010101010
1111111111011001
0000000010110100
1111111110100111
1111111110011110
1111111111110000
1111111110000011
0000000000110111
1111111110011001
0000000000100011
1111111111000101
1111111110010000
1111111111100101
0000000000101101
1111111110101110
0000000010101111
1111111111010011
0000000001111100
0000000000001100
1111111111000011
0000000010001110
1111111101010110
1111111110111001
1111111110011000
0000000000100011
0000000000110110
0000000001100110
1111111110011000
0000000001001110
1111111110000011
1111111111000000
1111111111100110
1111111111100010
0000000001000110
0000000000001111
0000000001111001
0000000000101010
1111111101010001
1111111110111101
1111111110001001
1111111110110000
0000000010100101
1111111110110011
0000000000111100
0000000000001011
1111111110001011
0000000001010001
1111111101111111
1111111110011101
