1111111111001000
0000000100001001
0000000011111100
1111111100101111
1111111101110101
0000000000101110
0000000001000100
0000000011001111
0000000010110010
1111111100000100
1111111100100011
0000000011111000
1111111100101011
1111111101000101
0000000001110000
1111111111001011
1111111100000110
1111111110111111
0000000000001011
1111111111101011
0000000100000111
0000000001010110
0000000110000010
1111111110110001
1111111110100100
0000000010101100
0000000100010001
0000000000001000
1111111011010101
1111111011110010
1111111101011101
1111111011111001
1111111111101000
0000000100101001
1111111101110001
1111111100111000
0000000000010000
0000000001110010
0000000000100000
0000000000110110
1111111110101111
1111111111110011
1111111110110101
0000000101100101
1111111100101101
0000000011100001
0000000000011110
0000000001011011
0000000011100000
1111111011011000
0000000010110101
1111111101111101
1111111101100100
0000000010010011
1111111110010010
1111111101110100
0000000010101100
0000000100001100
1111111100110101
0000000001001011
1111111111001100
1111111100011011
1111111100100000
1111111101100000
1111111110111111
0000000001111101
0000000001110101
0000000001101000
0000000101001111
1111111110100111
1111111100100011
1111111111101110
0000000000010111
0000000100110010
1111111110111011
0000000010000101
1111111010010100
0000000001110001
1111111011000101
1111111100111000
0000000100000100
0000000000001101
0000000001000100
1111111110100010
