0000000001010101
0000000011100101
1111111101111111
1111111110010010
1111111110110100
0000000011001010
1111111110100100
1111111101100100
0000000000001100
0000000001000001
1111111101010001
1111111111000100
1111111110011000
1111111110111010
0000000010110101
0000000001001001
1111111101000010
0000000000101000
0000000011011001
0000000000011100
1111111111000100
0000000001011000
1111111111100100
1111111111010101
0000000001011101
0000000000010000
0000000000001101
0000000001001111
0000000000110100
0000000010000001
0000000000010111
1111111111101011
1111111111110101
0000000010100101
1111111101010001
0000000000100011
0000000001111000
1111111101101101
0000000011001000
0000000010001000
0000000001100011
0000000010001000
0000000001001000
1111111111010100
1111111111000110
0000000010100001
0000000011000110
0000000010100001
1111111111011100
0000000001001110
0000000000010001
1111111110011011
0000000010111111
0000000010000001
1111111111101011
1111111110111100
1111111101111000
1111111111111110
0000000001011000
1111111110000100
0000000000100101
1111111110111010
0000000011001110
1111111111111101
1111111111111111
0000000000001101
1111111101000110
0000000000101101
1111111111110011
0000000001100111
1111111111110010
0000000001011100
0000000001011101
0000000000010100
1111111110111011
0000000000010101
0000000001000111
1111111110111100
1111111101100111
0000000001011110
1111111110110001
1111111101001110
0000000001111100
1111111101111110
0000000000110000
0000000000001101
1111111110101000
1111111110110010
1111111110010100
1111111101001111
0000000010101011
1111111101111110
0000000010101010
1111111101100000
0000000010010011
1111111111100001
1111111101110011
1111111111001001
1111111110000110
1111111111001100
0000000001000000
0000000001100110
0000000001101100
0000000001010111
0000000000000000
1111111111111110
1111111110010100
1111111110001001
1111111111000001
1111111110001001
1111111111000100
1111111111110000
1111111101001100
0000000010111000
1111111101011110
1111111110000100
1111111111001100
0000000000101011
0000000001111011
0000000001000110
