0000000001011110
1111111110001001
1111111110100010
0000000010000010
1111111101100000
0000000001000001
0000000001101010
1111111110100110
0000000010110010
0000000010011011
1111111101001111
1111111111011000
1111111101011110
0000000000110111
0000000010000110
0000000010100100
0000000000010000
0000000000100011
0000000001110110
0000000001011010
0000000010000000
1111111101001010
1111111111010001
1111111111011111
1111111110100000
1111111111111111
1111111101001111
1111111110101011
1111111111000011
1111111111000001
0000000000001101
0000000010100001
0000000001001101
0000000010000000
1111111111110110
0000000010010001
0000000001000101
0000000010011101
1111111111101100
1111111111100011
1111111110111010
1111111101100001
0000000010000001
1111111111100010
0000000010001010
0000000001000001
1111111101111100
0000000001110001
0000000001111110
1111111101101101
1111111110001000
1111111111110001
0000000001000000
1111111110111100
0000000010101000
1111111111110100
1111111111000101
0000000000010010
1111111111011110
1111111110001010
1111111110111001
1111111111001011
0000000000101000
1111111101011110
0000000001010110
0000000010100010
1111111100111110
1111111110100111
0000000001000000
0000000000110010
1111111111100011
0000000001011011
1111111111010000
0000000001000000
1111111101101101
1111111101101101
1111111110001110
0000000010111010
0000000000110100
1111111110010011
0000000000010101
1111111101101101
0000000010101000
0000000000110010
1111111111110011
0000000001110010
1111111101010100
1111111110111000
1111111111001011
0000000000100101
0000000000100100
0000000010011111
1111111101001101
0000000000000000
1111111110111101
0000000000001010
1111111110101111
1111111101110110
0000000000001000
0000000001011101
1111111111010001
0000000000100011
0000000001010000
0000000010011110
1111111111100010
0000000010010100
1111111111110000
0000000010011000
0000000001110110
1111111111110001
1111111101100000
1111111101101101
0000000000111000
0000000010110001
0000000000110111
1111111110110101
1111111101110011
1111111111010110
0000000001001100
1111111101110011
