1111111110101100
0000000001101001
0000000000111110
0000000000001010
0000000010000011
0000000010110010
0000000010110000
0000000000000001
1111111101010000
0000000001100000
0000000010110001
0000000010011010
0000000001110100
1111111110100001
0000000000000101
0000000000000011
1111111110111111
0000000000001101
0000000011001100
1111111101111011
0000000011010101
0000000010101001
1111111110001000
1111111111010001
1111111110000111
0000000000100010
0000000001100011
1111111110100100
1111111110011111
1111111110011010
0000000000001111
0000000000010110
0000000010011000
1111111111011111
0000000000111111
1111111110111010
0000000010000101
1111111101110011
0000000000101001
0000000001010001
0000000010010000
1111111110110001
0000000001010011
0000000001001001
0000000000110000
0000000000101100
0000000000101000
1111111101010111
0000000000111110
0000000001111000
1111111111110010
1111111111011011
1111111101100110
1111111110110111
1111111111011010
0000000000000000
1111111101110010
0000000010100110
0000000010000101
1111111110111101
1111111111101010
0000000000010110
0000000001010011
1111111110100000
1111111110111000
0000000001010110
0000000010011011
0000000000000001
1111111110011101
0000000000011101
1111111101101101
1111111111001110
0000000010000010
1111111111110111
0000000010001010
1111111101010001
1111111110011100
0000000001101110
1111111101110001
0000000000000101
1111111110101110
1111111111111101
0000000000111111
0000000001000001
1111111101001010
1111111111011101
0000000010010111
1111111111000100
0000000000000100
1111111110100110
1111111111001000
1111111101011010
1111111111111101
1111111111110011
0000000000011110
1111111110100011
1111111101001111
1111111110110101
1111111110011010
0000000001100101
1111111110000001
0000000010101110
1111111111101110
1111111110101000
0000000001101101
0000000010000011
0000000000011000
1111111111111100
1111111111101111
1111111110111110
0000000001100010
0000000001000111
1111111111011100
1111111111001001
0000000001110111
0000000010010001
1111111111011000
1111111101110011
1111111111010110
1111111110101011
