0000000001110111
1111111110101110
1111111101111001
0000000001001110
0000000010100011
1111111100111100
0000000000100010
0000000010011110
0000000000101101
1111111111011011
0000000001100111
1111111110010111
0000000010001000
0000000001101000
0000000000110010
1111111100111011
1111111111100101
0000000000111011
1111111101111100
1111111111111000
1111111110000110
0000000010000011
1111111111010001
1111111101001011
1111111110000010
1111111110001110
1111111110001010
0000000010101001
1111111101111101
1111111111101011
1111111110100001
1111111110111100
1111111101111101
0000000000011010
0000000001001101
1111111110101001
0000000000111000
0000000001110001
0000000000001101
1111111101111010
0000000000000100
1111111110101110
1111111110010110
1111111111110100
1111111111111010
0000000010001011
0000000001101110
0000000000100001
1111111101000001
0000000001010010
0000000001001101
1111111101110110
1111111111010111
0000000000100101
1111111101010001
0000000010001101
1111111111101001
0000000001010000
0000000010011001
0000000000001010
0000000000110000
0000000001010001
0000000010001011
0000000001000000
0000000010011010
1111111101011001
1111111101010100
1111111101110011
1111111111001111
0000000000010000
0000000001011100
1111111111010101
0000000001010111
0000000000101111
1111111101110110
0000000000011111
1111111110010001
0000000000000101
0000000001100010
0000000010110010
1111111101110001
1111111111011100
1111111111010111
1111111111011010
0000000001010000
1111111101111100
0000000000010110
1111111110010110
0000000011011011
1111111101010100
1111111111101001
0000000000010000
1111111111001011
0000000010010010
1111111111101101
1111111111110111
0000000010110011
1111111101111011
1111111110110101
0000000000011001
1111111111100101
0000000001000101
0000000000001010
0000000010000000
0000000000001101
1111111111000010
0000000000100001
0000000010011111
0000000010111001
1111111111000001
0000000000001011
1111111101111011
1111111111011101
1111111111110100
0000000000000010
0000000000001010
0000000000111111
1111111111000000
0000000000101100
0000000000010100
