0000000000101100
0000000010000110
1111111101010110
1111111111011011
1111111111010101
1111111111111110
0000000001001110
0000000010000111
0000000001000110
0000000000101011
0000000000000000
0000000001111110
0000000000100010
1111111110101011
1111111101100100
0000000010111110
1111111101001110
0000000001011010
0000000000000111
1111111110010010
0000000000011010
0000000001010100
1111111101011100
0000000000001001
0000000010011011
0000000001001110
0000000001011010
0000000000100110
0000000001111100
0000000000001111
0000000010110000
0000000001000100
1111111101100111
0000000000001011
0000000000011110
0000000010101101
1111111111101010
0000000011010011
1111111111110010
1111111101101011
1111111110000011
1111111110111000
0000000000110001
1111111101100011
0000000011000010
0000000000101110
0000000010100101
1111111101100001
0000000010001010
0000000010100010
1111111110010111
1111111111001100
1111111110011101
1111111101010010
1111111101111110
0000000000100101
1111111111101101
1111111111011100
0000000000000010
0000000000101010
0000000010000110
1111111101011010
1111111101100100
1111111111011000
1111111111111101
1111111111010110
0000000010000110
0000000010001111
1111111101010101
0000000010100000
0000000000110000
0000000010101001
0000000010011001
1111111101100000
1111111110110101
0000000001000111
1111111111100100
1111111110111010
1111111101111000
0000000001001010
0000000011010010
1111111111010111
1111111111111100
0000000001001011
0000000010010001
1111111111111010
1111111111111011
0000000001010001
1111111100111110
1111111111110111
0000000001011111
1111111110101111
0000000010101111
1111111101000000
1111111101101100
1111111110010111
0000000000010111
0000000000011100
0000000000111111
1111111110001110
0000000001100101
1111111101100101
0000000001011001
1111111111101101
0000000000011000
0000000000100010
0000000000100000
1111111110100010
1111111101111000
1111111101110000
0000000001101110
0000000001011111
0000000000110001
0000000010010111
1111111101101100
0000000000100100
1111111111010001
1111111110101111
1111111110111101
0000000010111000
