0000000000011000
1111111101101101
0000000000100011
0000000000111001
0000000001000011
0000000001111110
0000000001111011
1111111111111010
1111111111010001
0000000010000011
0000000001011000
0000000010000000
0000000000011100
1111111110000110
1111111101000110
0000000000111010
0000000010001111
0000000010100011
0000000011000110
1111111110100101
0000000001011100
1111111110100111
1111111110100110
1111111111001000
0000000010011001
0000000001111010
1111111111100101
0000000001010011
0000000000010111
1111111110111101
1111111110000110
1111111101111100
1111111101011111
0000000010100111
0000000000010001
0000000000001110
1111111101100011
1111111101100010
0000000001010110
0000000000110111
0000000010000101
0000000000010011
1111111111100110
0000000001000001
0000000010011010
1111111111111111
0000000001101100
1111111101011101
1111111110110000
0000000001001111
0000000000000000
1111111110000010
1111111111010011
0000000001011111
1111111101101010
1111111111011111
0000000010111000
1111111101111001
1111111111111111
1111111111011011
1111111101101110
0000000001011001
1111111111010001
1111111101110111
1111111110110111
0000000010101110
0000000000101110
1111111110001111
1111111111011000
1111111110001000
1111111111110000
1111111111001110
1111111111110001
1111111110010010
1111111111000001
1111111111011011
0000000000110011
0000000000010100
0000000000000000
0000000010010110
0000000000100000
0000000011000001
0000000000110001
0000000010001001
1111111110001111
0000000001110011
0000000010001110
0000000010000101
1111111111100101
0000000001101011
0000000001010110
0000000000000000
0000000000010100
1111111111010011
0000000001111011
1111111101110111
0000000001000100
1111111110111001
1111111111011010
0000000001000001
0000000010010001
0000000001110111
0000000001000011
0000000000100100
0000000001100000
0000000001000010
1111111101000000
0000000010001101
0000000001111100
0000000010011011
1111111110111110
1111111110100110
1111111110001100
1111111111011100
0000000010000011
0000000001011110
0000000001100011
1111111110010100
1111111111000000
1111111110110011
