1111111111010010
0000000000011011
0000000001001111
1111111110101100
1111111110101010
1111111111010100
1111111101111001
0000000001000111
0000000010101101
1111111111101110
0000000000100101
0000000001111111
1111111111010101
1111111101110000
1111111101110000
0000000001011110
1111111111001111
1111111110111110
1111111101101101
1111111111011111
0000000001110101
0000000000010010
1111111101101000
1111111110110111
0000000010101101
0000000000100010
0000000010000010
1111111101111100
1111111110101110
1111111101011100
0000000000000101
0000000000000100
1111111110000001
1111111101100110
0000000010011011
0000000000011100
0000000000001000
1111111111010100
0000000001110111
1111111101111000
0000000001110111
0000000000111101
1111111111001100
1111111110010010
1111111111100110
1111111111010000
0000000000101010
1111111101010110
1111111101101100
0000000001111010
1111111111100111
1111111111101101
1111111111010111
1111111101010100
0000000001000010
0000000000111110
1111111110011011
1111111110000110
0000000001101111
0000000000001111
0000000001011000
0000000001101111
1111111101110011
0000000010101101
1111111101010101
0000000001010011
1111111101100010
1111111111111001
1111111111001000
0000000001001110
1111111111000111
0000000000000011
1111111110101111
0000000000001000
1111111101100101
0000000000111010
1111111110001111
0000000000100110
1111111101100010
1111111110111000
1111111101111011
0000000010001010
1111111111101100
0000000001010011
0000000000001011
0000000000110110
1111111111011001
1111111110011110
0000000000110010
1111111111001001
1111111111100000
0000000001110100
1111111111111101
1111111110110001
0000000000110111
0000000010000001
1111111110101000
1111111110111010
1111111111011100
0000000000011001
0000000000010011
0000000001000001
0000000000001110
0000000000011010
1111111111111111
0000000000001111
1111111111001101
0000000000010010
1111111110000011
1111111101111100
1111111101110011
1111111111101011
1111111111011011
1111111111010011
1111111101111011
0000000001100011
0000000001000111
1111111110011011
1111111101100000
0000000010010010
