1111111110100000
0000000010000010
1111111110000010
0000000001100110
0000000000011101
1111111111111110
0000000001111101
1111111111110111
0000000010001110
1111111110110100
0000000000101001
1111111101101110
0000000000011010
0000000010000010
0000000000111110
0000000010101001
1111111111011000
0000000010000111
1111111110111100
1111111110111111
0000000010010000
1111111110100001
0000000001100101
1111111101110000
1111111110001100
1111111111111101
1111111111101100
1111111101111101
1111111110001100
0000000010001010
0000000000101000
0000000001101010
1111111111001010
1111111110000001
1111111111110001
1111111110110000
0000000000010010
0000000010111000
0000000001110100
1111111111011101
0000000001110100
1111111110010010
0000000000100000
0000000001101000
0000000000111110
1111111110110011
0000000010100000
0000000000100010
0000000000111011
0000000000000010
0000000010110110
1111111110100001
1111111101000011
1111111101101011
0000000000001010
0000000001001111
0000000000110100
1111111111001100
1111111101111110
0000000001111101
1111111111110000
1111111110010101
0000000000001011
0000000000101000
1111111110011001
1111111101000110
1111111111100011
0000000010010011
0000000000101001
0000000010001111
0000000000011111
0000000010100010
0000000010000011
0000000010101010
1111111100111100
1111111110111110
0000000001010000
0000000010001101
0000000010101111
0000000000100110
0000000001111110
0000000010010111
1111111111100100
0000000001100110
0000000001000111
0000000001111001
0000000000000111
1111111111010011
0000000000101010
0000000001101101
0000000000110110
0000000000010101
0000000001000100
0000000000100110
1111111101011110
1111111110100000
0000000001110110
1111111111010101
0000000000111011
1111111111101111
0000000010101011
0000000010111000
1111111110001001
0000000011001111
1111111110000111
0000000001101011
0000000000001110
1111111111111001
1111111110111010
1111111101100101
1111111111101011
0000000001100111
1111111101100100
0000000010100001
1111111110111011
0000000000111101
1111111110100001
0000000001000101
0000000000001110
1111111101100011
