0000000001001101
1111111010001010
0000000010110111
1111111101111000
1111111111010000
0000000011101010
0000000011010000
0000000011001101
0000000011001000
1111111011101011
1111111010100000
1111111101000000
1111111100101100
0000000000101001
0000000010110101
1111111100100001
1111111111001110
1111111110111000
1111111111100011
1111111101110111
0000000000011110
1111111110001000
1111111100010101
1111111110001011
1111111011011111
0000000011110110
1111111101010010
1111111100010011
0000000011110100
0000000001000010
0000000100100011
1111111110100000
0000000011100101
0000000000101110
0000000001000010
0000000010000100
0000000000000011
1111111110011110
0000000011110100
1111111101010111
0000000000000000
0000000100011011
0000000010100101
1111111110111100
1111111111110001
0000000010011010
0000000010101010
0000000010111011
1111111110100100
1111111101001100
0000000010111011
0000000001101111
0000000000101101
0000000010110011
1111111101001100
1111111011101101
0000000011000101
0000000101001000
0000000000101001
0000000101010001
0000000001011110
1111111100101101
1111111100011001
0000000001111011
0000000001011010
1111111011101111
1111111111001110
0000000001011100
1111111110011000
1111111101001110
1111111011111000
0000000100000011
1111111110111111
1111111101011110
0000000010000111
1111111011101100
1111111100011010
0000000100110011
1111111110101001
1111111111000001
1111111100011001
0000000101010100
0000000100001000
1111111011011111
