0000000001011100
0000000000001001
0000000001110011
0000000010111011
1111111111110011
1111111110000111
1111111101010100
0000000010000111
0000000000101001
0000000001001000
1111111111101100
1111111110001011
0000000000000011
0000000000011111
1111111101111010
1111111111001010
1111111111110111
1111111110010001
0000000000101000
0000000001011110
0000000000001001
1111111101110100
1111111101111011
1111111101101010
0000000000110010
0000000001010110
0000000000101000
0000000010101110
1111111110111000
0000000010011011
1111111111001011
1111111110111100
1111111110101101
1111111111110000
1111111101011110
1111111110010101
1111111111001100
0000000010001110
0000000000001000
1111111110101101
0000000000100100
1111111110010110
0000000010100001
1111111110011000
0000000000010000
1111111101111100
0000000000011001
0000000010100010
1111111111010110
0000000001111001
1111111110101110
0000000000101011
1111111111000011
0000000001111110
1111111100111110
1111111101100001
0000000010001001
0000000001101110
0000000000011101
0000000010110110
0000000010001111
1111111110110111
0000000001000011
0000000001001001
0000000001100001
0000000000110010
0000000000111100
1111111111011011
1111111110111000
1111111111111100
1111111110101110
1111111111101111
0000000001100100
1111111110011100
0000000000101111
1111111111010010
1111111111001010
1111111110001100
1111111111000011
0000000010010101
1111111110001101
0000000000100101
1111111110011011
1111111101011001
1111111101000001
0000000001000001
1111111111110111
0000000010110110
0000000001101110
0000000001111000
0000000010011110
1111111101111010
1111111111000101
1111111110101111
0000000001111101
1111111110000001
1111111110010101
1111111111100111
0000000001010001
1111111111101110
0000000010100100
0000000000110111
0000000000110000
1111111101101000
0000000000111111
1111111111100110
1111111110100011
0000000001011001
0000000010001110
1111111111110010
0000000001010110
1111111110110001
0000000001000000
1111111111101101
0000000010010000
0000000001100000
0000000011001111
1111111110110011
1111111110110100
1111111110001000
