1111111101010111
0000000001000101
1111111111100011
1111111111100111
1111111111111011
0000000001000001
1111111111010111
1111111101101011
0000000000111010
1111111101101001
1111111101100100
1111111101111001
1111111101001101
1111111110100001
1111111111001101
1111111110111110
0000000001000010
1111111110001011
0000000010001100
0000000000010111
1111111101011011
0000000000010010
1111111111000000
0000000000010111
0000000001001100
0000000001110011
1111111111000011
1111111110101001
0000000000100100
1111111110000001
1111111110001110
0000000010101011
1111111111111011
1111111101111101
1111111111101011
1111111110001111
0000000000010100
1111111110101110
1111111101011100
1111111101101011
1111111101110110
1111111110001110
0000000010100101
1111111110011000
1111111101011100
1111111111100100
0000000001111001
1111111111001000
0000000001001000
1111111110010010
1111111110010110
0000000010100010
0000000000101010
0000000000001000
1111111110100111
1111111101111011
0000000000111110
1111111101100111
0000000000011100
0000000010010100
0000000010001010
0000000000010010
0000000000001110
0000000000101111
0000000001011001
0000000001001001
0000000001110100
1111111111011100
1111111110010010
1111111111001100
0000000000010011
0000000000010011
1111111110110000
1111111110011110
0000000010101011
1111111110000011
1111111111111000
0000000010000100
1111111110100011
1111111110110101
0000000010011101
0000000010011101
0000000001111001
1111111110010001
1111111111000011
0000000001011101
1111111111100010
1111111110101011
1111111110101110
1111111101110011
1111111110100111
1111111111110101
1111111101010011
0000000010010100
1111111110011000
1111111110010110
1111111110100010
0000000001011011
1111111110101101
0000000000000110
1111111110001000
0000000000010011
0000000000011101
0000000001101110
1111111101111001
0000000000110010
0000000010001010
1111111111010001
0000000000010001
0000000010010010
0000000000101101
1111111110100100
0000000000011110
0000000000100100
0000000001100010
0000000000000000
1111111101110001
1111111111001111
0000000001100111
0000000000001110
