11111111110110001100
00000000000111001111
11111111111000101110
11111111111001001010
00000000000101010111
00000000000000001100
11111111111100111110
11111111111011111110
11111111111110100111
11111111110110010110
11111111111011110101
11111111111101111000
00000000000000111101
00000000001001110110
00000000000110010010
11111111111101010000
00000000000000101100
00000000000010100110
11111111111001110010
00000000001000111011
00000000001010101001
00000000001010111001
11111111111101010010
11111111111101111001
00000000000001001110
11111111111110101101
00000000000010101000
00000000000010010111
11111111111110100011
11111111110111010100
11111111110101110001
11111111110110010110
11111111111100011010
11111111110101111111
11111111110101110000
00000000001010010111
00000000000100111110
00000000000011101111
00000000001000010011
11111111111110000010
11111111110101001001
00000000000011111110
00000000001010001100
11111111110110011101
00000000000100001010
11111111111000101010
11111111110110001100
00000000000010001101
11111111111111101100
11111111110110010101
11111111111100100010
11111111111110010010
11111111111100010010
11111111111101000000
00000000001010111100
11111111111100001101
11111111110101101010
11111111111101010001
00000000000101100000
11111111111000010110
00000000000011111101
00000000000000010001
00000000001001001100
11111111110101011011
11111111111110000101
00000000000011111010
11111111111001101100
00000000000101110111
00000000000010011010
00000000000111001001
00000000000011010100
11111111111001101000
11111111111110101001
11111111111100011000
11111111110110110101
11111111111100001011
11111111111001110110
11111111111100011100
11111111111110100011
11111111111110111011
11111111111110011011
00000000000000010001
00000000000001101011
11111111111001000101
11111111111100110001
11111111111011110010
00000000000000110100
00000000001001000001
11111111111010000101
11111111111010011011
11111111111000011001
11111111111011010111
11111111111010100001
00000000000001110000
11111111111011111011
00000000001000111100
00000000000011101010
11111111111001000010
00000000001010001011
00000000000010101111
00000000001010000101
00000000001001101000
11111111111000000001
11111111111001101110
11111111111010001100
00000000000000011000
11111111110110000100
11111111110110000000
11111111111100101110
11111111111110011000
11111111111101100110
11111111111010011010
00000000000010101110
00000000001010001000
11111111111010101101
11111111111101100010
00000000001000110101
00000000000000110011
11111111111110011000
11111111111111000111
