11111111111110100000
00000000000010111100
00000000000111000000
11111111110111110010
11111111111010000010
11111111111101110001
00000000000010100100
00000000000101010101
00000000000010011100
11111111110110011111
11111111111000011101
11111111111001001100
11111111111110110101
00000000000110001000
00000000001011001100
00000000000001001111
00000000000010001001
11111111110110110101
11111111111000111101
11111111110110100101
11111111111010111001
00000000001001000000
11111111111011110001
00000000000001001000
00000000000000111110
00000000000101000011
00000000000111011101
11111111111010110001
00000000000000011101
11111111111101101011
00000000001010101110
11111111110101010010
11111111111101001100
11111111110110000101
11111111110111001110
00000000001001010110
00000000001010101011
00000000001010100111
11111111111010100111
00000000001000101001
00000000001000010011
11111111111000110000
11111111110111000001
11111111111101001000
00000000000110010111
11111111111101001100
00000000000110110101
11111111111111011011
00000000000111000111
00000000000010110101
11111111111110011010
00000000000100110111
00000000000011001010
00000000000010001101
00000000000001000100
00000000000000100111
00000000000111101111
00000000000100011001
00000000000111101100
11111111110101110001
00000000000111101010
00000000001100101111
00000000000101001100
11111111111011011010
00000000000001010111
11111111111111010011
00000000001000011101
11111111111001111000
00000000000100101111
11111111110110011110
00000000000111001001
00000000000111001101
11111111111110011010
11111111111111010001
11111111111100010111
00000000000000110001
11111111111100000111
11111111111100101101
11111111110111111010
00000000000111100001
00000000000110010110
00000000001010111111
11111111111100010010
00000000000111000100
00000000000010110101
11111111111100100110
11111111111110001010
11111111111011001000
11111111111000000000
11111111111100001011
00000000001010010111
11111111111101111010
11111111110110101000
00000000000111101110
11111111111111110111
11111111111101110001
11111111111000110101
00000000000000111110
11111111111000101100
00000000001001001111
00000000001010111110
11111111111011110111
11111111111101110010
00000000001001000110
11111111111110001101
00000000001000011110
00000000001001000110
00000000000100111101
00000000000011011001
00000000001000101001
11111111111101111110
11111111111111001011
11111111111110101001
11111111111000010100
11111111111110001000
11111111111011001010
00000000000011100000
11111111110101001001
11111111110100110101
11111111111000110110
