00000000000100010010
00000000000110101000
11111111111101000010
11111111111100100100
11111111111111101010
00000000001000111001
00000000001001100110
11111111110110111110
00000000001001111110
11111111111101101110
11111111111101001101
11111111110111101100
11111111111101101001
00000000000010010100
00000000001100010101
00000000001001000000
11111111110111010100
00000000001001111010
00000000001011010111
11111111111001000101
11111111111111111010
00000000000011110101
11111111111101011100
11111111111111011010
00000000000100011000
11111111111101110101
00000000000100110001
00000000000010111011
11111111111011111101
11111111111011001111
00000000001010000001
00000000001010001101
11111111111100101111
00000000000000001010
11111111110110101011
11111111110111111100
00000000000011011111
11111111111101101001
00000000000111000011
00000000000110110000
11111111111111110011
00000000000011100011
11111111111011111001
00000000000011101110
11111111111100110100
00000000001010010010
11111111111110001110
11111111110111011110
11111111111010010010
00000000000100000001
00000000001011001101
11111111111100001101
11111111110101110111
11111111111010011111
00000000000010010011
11111111111101011001
00000000000001110011
00000000000101100000
00000000001000110100
11111111111100010111
00000000000101000010
00000000000001011010
11111111110110110111
11111111110110010011
00000000000100001001
11111111111010000010
00000000000001110011
00000000000010000101
11111111111000110100
00000000000101111110
11111111111111111110
11111111111101101110
00000000001000000010
00000000001010001110
00000000000101011011
00000000000111000011
00000000000010101111
11111111110011001010
00000000000100110100
11111111110011100011
11111111111000110111
11111111111000000010
11111111111111101000
11111111111101001110
00000000001000100111
11111111110111111100
11111111111001010000
11111111111010111110
00000000001010000100
11111111111000001010
00000000000101101100
11111111111001011010
11111111111000111111
00000000000101010111
00000000001001101001
11111111111001111100
00000000000110011111
11111111111110001011
11111111111111000101
11111111111011010110
11111111111000000101
00000000000011000001
11111111110101010011
11111111111111010111
00000000001010000010
11111111111011110011
00000000001000010010
11111111111000011011
11111111111000011001
11111111111111001011
11111111111110111011
11111111111010110111
11111111111111110100
11111111111010000001
11111111111101001111
00000000000000110111
11111111111110101010
11111111111001101000
00000000000001111101
00000000001010000101
