00000000000110110011
11111111111111100011
11111111110110001110
11111111111110000011
11111111111010110001
00000000000101000000
11111111110100110111
11111111111110101111
11111111111011110001
11111111110111000001
00000000000001100001
00000000000100010000
00000000000010011011
00000000000001001100
11111111111100111111
00000000001001011111
11111111111111111011
11111111111010100100
11111111110101010001
11111111111100001011
11111111111110001000
00000000000000101001
00000000001010101100
00000000000100100001
11111111110100011111
00000000001001001000
00000000000001100001
11111111110100100011
00000000000001110011
11111111110110000100
11111111111111100111
11111111111110111000
11111111111101000100
11111111110110001011
00000000001010100110
11111111110111100100
11111111111000001110
00000000001000110111
00000000000101011110
11111111111011111010
11111111110101011111
11111111111011000110
00000000000010000001
11111111110110101111
11111111111010011011
11111111110101010110
11111111111010010111
00000000001010011000
11111111111111100100
00000000001010010111
00000000000001000100
11111111111100110101
00000000001010010110
11111111111110011010
00000000000011111001
00000000000111101000
11111111111101101011
11111111111101000000
00000000000011111101
00000000000010011111
00000000000110100100
00000000001001110101
11111111111101111010
00000000001000110001
00000000000101010000
00000000000011000110
11111111111000110000
11111111111111010011
11111111111000101010
00000000001000101110
00000000001001101001
11111111111011010001
11111111111111011101
00000000001011001000
11111111111100011100
00000000001011010000
11111111111111010111
11111111111001010111
00000000000000000111
00000000000000000000
00000000001010100011
11111111110101001101
11111111111001010011
00000000001000010010
00000000000101111100
00000000001000101001
11111111111010111100
00000000001010001110
00000000000010001111
00000000000110111011
00000000000001101111
11111111111111000100
00000000000000000010
00000000001010100101
00000000000000110110
11111111111001110110
11111111111001011001
11111111111001111100
11111111111010010100
00000000000001001111
11111111111011110111
00000000000010111000
00000000001010011100
00000000001001010000
00000000001000001101
11111111111100001011
00000000000111101010
00000000000100100100
00000000001001101000
00000000001010100111
11111111111010110110
00000000001011010000
00000000000111111101
11111111110111010011
11111111111111010001
11111111111000000101
11111111110100010100
11111111111100111001
00000000000010001000
00000000001001001011
