00000000001001111110
00000000001001100101
11111111111001000000
11111111111101010011
11111111111110100110
00000000000001110000
11111111111010001111
00000000000011110111
11111111111101101001
00000000000001011100
00000000000100010000
11111111111111000001
00000000000010000110
00000000001000000010
00000000001001010010
11111111110101010010
11111111111010011001
00000000001010111100
11111111111111010100
11111111110111101001
11111111111101011101
11111111110110110000
11111111110111001001
11111111110110110011
11111111111110010010
00000000000011101010
11111111111101111010
11111111111011110000
00000000000101110111
11111111110101110000
00000000000010111000
11111111110101010110
11111111111001010010
11111111110101000001
00000000000101010011
00000000000010101001
00000000001000011111
00000000000000110000
00000000000100011111
11111111110101001110
11111111111101110011
00000000001001011011
11111111111001000100
11111111111000010011
11111111111010100100
00000000001001010111
00000000000001000111
11111111111111111110
00000000000000101111
00000000000000010100
00000000001001000011
00000000000011101111
00000000001010011110
11111111111100000000
00000000001010100001
11111111111111111001
00000000000110110100
00000000000001010011
00000000001000010111
11111111111000010000
00000000000001011111
00000000000100101001
00000000000001100001
00000000001001001111
00000000000011011010
11111111111011100110
11111111111010111001
00000000000011100110
11111111111000001010
00000000001000110111
11111111111000000010
00000000001001111010
00000000000010100110
11111111111001101011
11111111111100000011
00000000000001101011
11111111111100010011
11111111110111001100
00000000000001000101
11111111111101010010
11111111111110100100
11111111110101110011
11111111110110010000
11111111111010010110
11111111110110001001
11111111111000010011
11111111110111010100
11111111111111101001
11111111111100101110
11111111110110011100
11111111111100000001
11111111110110100010
00000000000100111000
11111111111110000011
00000000000000101110
00000000000101110111
11111111111001000111
00000000000001101000
00000000000110000111
00000000001001011011
11111111110111000111
11111111111101100001
11111111111101111001
00000000000011110111
00000000001000100111
11111111111011001110
11111111110101001110
11111111111011101101
11111111110101000000
11111111111111101110
00000000000100101001
11111111111100111010
00000000000000001101
00000000000100110101
11111111111111111100
11111111111101011001
11111111111000111011
11111111110110101011
11111111111010011101
11111111111101001111
