00000000000110110001
00000000000110001101
00000000001001101001
11111111111010010101
11111111111101010011
00000000001001111111
11111111111110100010
00000000001010100110
11111111111000001011
11111111111010011011
00000000000101101111
00000000000110110110
11111111111000001011
11111111111010111111
11111111111100011010
11111111110101101111
11111111111110110111
11111111111101011001
11111111110011110100
11111111111011111010
00000000001001000010
00000000001001100100
11111111110101000001
11111111110111111000
11111111111000011101
11111111111111110110
00000000000010100011
11111111111110010011
11111111111001000101
11111111111110001011
11111111110111111010
00000000000011000001
11111111111101111011
00000000000011101101
00000000000001111100
00000000000101011001
11111111111010001011
11111111111111010100
11111111110100111011
11111111110111000000
00000000001000110000
11111111111110110111
00000000000001110100
00000000001001010011
00000000000011101011
00000000001000110110
00000000001011011111
11111111110101111100
11111111111011000110
11111111110010110111
11111111111101000010
11111111110110011011
11111111110100010011
11111111111000111110
00000000000000111001
00000000000010100100
00000000001000000101
11111111111101110111
00000000000100000110
00000000001000100101
00000000001001110010
00000000000100100110
00000000001000011101
11111111111000011010
11111111111100000000
11111111110110010000
00000000001001101011
11111111111010010001
00000000000100111011
11111111110101101011
11111111111000100111
11111111110101000110
11111111111001110101
00000000000100100001
00000000000101100010
11111111111111001001
11111111110110000001
00000000001001100010
11111111110111000000
00000000000101000111
11111111110101111100
00000000000110111101
00000000000101010011
11111111111001011111
00000000000010100110
11111111111010010010
11111111110110000110
00000000000010101101
00000000000110101101
00000000001011000111
11111111111110000110
00000000000001010111
00000000000111011000
11111111111111111101
11111111111110000011
11111111111101111110
11111111111110000001
11111111111100101010
00000000000001010011
11111111111001000101
11111111111010010100
00000000000100011101
00000000000011110000
11111111111000010010
00000000000101111100
11111111111010011111
11111111111100101010
11111111111101100010
11111111110100000100
11111111111011110010
11111111110101100111
00000000000001101110
11111111110100110111
11111111111010000000
00000000000111100100
00000000001010101100
11111111111011101111
00000000000000011111
00000000001010110100
11111111111000011010
