00000000000001011001
11111111110101010101
11111111111011011010
11111111110101100100
11111111111110000010
00000000000011010110
00000000000000101100
00000000000110000100
11111111111011001000
11111111111100011010
11111111111111011001
11111111110100010001
11111111111010010011
00000000001100011010
00000000001011100010
00000000001001111101
11111111111101011011
11111111111001101110
11111111111001100100
11111111110110011010
11111111111111101101
00000000001010101010
11111111111111000111
00000000000010100100
11111111111101001101
00000000000001010001
11111111111010100101
00000000000111100110
00000000000011010001
11111111111110110001
11111111111110010111
00000000001001110011
11111111110110110101
11111111111010011111
00000000000000110000
11111111111110110001
00000000000011110110
00000000000110101010
11111111111000000001
00000000000010011100
00000000001010001000
00000000000110011100
11111111110110111010
00000000001010110101
00000000001001101100
11111111110100101011
11111111110110011110
11111111110110110011
11111111110110111010
11111111111100001100
11111111110110101011
11111111111000110100
00000000001010010111
11111111111101100001
11111111111001110001
00000000000101010101
11111111111010110011
11111111111011011011
00000000001000111110
00000000000010100101
00000000001000001101
00000000001011000100
00000000001010101110
11111111110101011010
00000000000101001110
00000000001000011011
00000000000101101100
00000000001000111100
00000000001000010011
11111111110110110101
11111111111111101110
00000000001001101000
00000000000010110110
00000000000000011000
11111111110110101110
00000000000011011100
00000000001001110010
00000000000110010010
00000000000101101011
11111111110110001010
11111111111110000100
00000000000011111001
11111111110110010001
00000000001000011110
11111111111100101010
00000000000011010000
11111111111011100000
11111111111100101011
00000000000110011101
00000000001001000111
11111111110110010100
11111111111101110011
00000000001001111100
11111111111001011010
11111111110111011110
11111111111000010100
00000000000111000000
11111111111110110101
11111111110111011111
00000000001010001100
11111111110100111001
00000000000001001111
00000000000100001000
00000000000100110010
11111111111010100111
11111111111110111010
00000000001011001001
00000000000101111101
11111111111111101110
00000000000100110001
11111111111011111111
11111111110110101101
11111111111101111100
11111111111100011000
11111111110110111110
11111111111010110001
11111111110111001001
00000000000010101110
11111111110111011110
00000000000111000100
