11111111111110100101
11111111110011011111
11111111110100000010
11111111101111000001
11111111110010011110
00000000000011101000
11111111111001110000
11111111110101011101
00000000001011000100
11111111110110001010
00000000001000101101
11111111111111110001
00000000000011001111
11111111111001110100
11111111110100000001
11111111101111010000
11111111101100001001
00000000001101101001
00000000001000111000
00000000001010010011
00000000000100110111
11111111110101010011
11111111110001110100
00000000001100001101
00000000001111010101
11111111111001001111
00000000000000000111
00000000000001110001
00000000001010000010
11111111110110101010
00000000001101000101
00000000001111001110
11111111110000011110
00000000000010010010
00000000010010101000
00000000000000110111
00000000010010110001
11111111110100100000
00000000001001100001
00000000001100011001
11111111110000110000
00000000001000101101
00000000001010001110
11111111111010110010
11111111110101110101
11111111101011011011
11111111110111000101
00000000000101110111
00000000001011101100
00000000001000111010
00000000000110100111
00000000001011101110
00000000000110100001
11111111110001110001
11111111111110010010
00000000000011101001
00000000000011100000
11111111110111011110
00000000000001101001
11111111101110001011
00000000010011111011
11111111110101110111
00000000001100001001
00000000010011100110
11111111111111100000
11111111101100001011
00000000000100101011
00000000001100100110
00000000001010001111
00000000010100111000
00000000001011000001
00000000000010010100
00000000001010101000
11111111110100001100
11111111111100000111
11111111111000011101
11111111111100100111
00000000010001010010
11111111110111000001
00000000000011111111
00000000001010101111
11111111110000001010
00000000010100011100
11111111110111010100
