00000000000000001110
00000000000111001000
11111111111110110010
00000000001011101011
11111111111000101110
00000000001010011111
00000000000001000100
11111111111100101100
00000000000011011100
00000000000000100000
00000000000010111011
00000000000010100110
00000000001000001101
11111111110111111111
11111111111011010010
00000000000000000011
00000000001010010101
11111111111011000010
00000000000110000001
11111111110110111001
00000000000000010100
00000000001010011010
00000000000100101101
11111111111111001000
00000000000000111010
00000000000101100100
11111111111011010111
11111111111010111011
00000000001000111000
00000000000100000110
11111111111100111111
11111111111101101110
00000000000111010000
11111111111110000000
11111111111111100110
11111111110101110110
11111111111001011011
00000000000010010011
00000000000001111010
11111111110110011111
00000000000000011010
11111111111000111000
11111111110111101000
00000000001001111111
11111111111001110011
00000000000100111010
11111111111011101101
00000000000110010100
11111111110100011100
00000000000100011000
11111111111111111111
11111111111101110000
11111111111110100000
00000000000001000011
00000000000011100100
11111111111111010010
00000000000101101111
00000000000010110111
00000000000000111001
00000000001010101010
11111111111110001000
11111111111110010000
00000000000000000000
11111111111100010001
11111111110100110011
11111111111111101101
11111111110101110110
11111111111101111000
11111111111011100000
11111111111101111010
11111111111110100000
00000000000001101101
00000000000000011100
00000000001000110000
11111111110100001111
00000000000101010011
11111111111101100001
11111111111111100011
00000000001010100100
00000000001000011001
00000000000100111011
11111111111000001010
00000000001010100101
11111111111010111101
11111111110110111011
00000000000110000110
11111111111101010110
11111111111101011001
11111111111011011010
11111111111001011110
00000000000111010101
11111111110111000101
00000000001001111001
11111111110110001110
11111111111101101010
11111111110101110111
11111111111010111011
11111111111000100001
00000000000110001000
11111111111111010000
00000000000100111010
00000000001000101000
00000000000100001001
00000000000010010111
00000000001001010001
00000000000110100000
00000000000111111000
11111111111011100011
00000000000001001001
00000000001000100001
00000000000101101001
00000000000110111101
11111111111011001010
11111111111001001000
00000000000100101111
00000000001000111100
11111111111111100110
11111111111000100111
00000000000100010001
11111111110100111101
