11111111110111010110
00000000001010111101
00000000000010010001
00000000001001000000
11111111110011110010
11111111111010110110
11111111111001111111
00000000000100111000
00000000001011010111
11111111111001000001
00000000001000011100
00000000001001101111
00000000001001101001
00000000001000110011
11111111111000011101
11111111111111110001
00000000001010110010
00000000000000001010
00000000000111110010
00000000001001010010
11111111111111111000
11111111111111000000
00000000001001011100
11111111110111111101
11111111110110101100
11111111110100110101
00000000000100001100
00000000000001100100
00000000000101111100
11111111111010001010
00000000000000111100
11111111111110101010
00000000000000110000
11111111111010101101
11111111110110111000
00000000000111100110
11111111111111100101
00000000000110000010
11111111111101000011
00000000001000000100
11111111111110001110
11111111110111010100
11111111110010100001
00000000000101111011
00000000000110010110
00000000000010000100
00000000000101000100
00000000001010100111
11111111111101110110
11111111111010000101
00000000000000100110
00000000000110111000
00000000000000111011
00000000000101010011
00000000000101111010
11111111110101100010
00000000000111111100
11111111111011010100
11111111111100110100
00000000000010101110
00000000001001001011
00000000001001110010
00000000000101100001
11111111110101100110
11111111111001100111
00000000000000100110
11111111111011100010
11111111111100010000
00000000001001110111
00000000001001111010
00000000000101000001
00000000000111111001
11111111111011100000
11111111111011110001
00000000000010110110
00000000000000000100
11111111111011010111
00000000000111101000
00000000001010000100
00000000001001111000
00000000000110100110
00000000000000001001
11111111111100000101
00000000000011001011
00000000000010010010
11111111110011100110
00000000000011100110
00000000001011111011
00000000001101101000
11111111110100100011
11111111110001111001
00000000001001110100
11111111111001011100
00000000001001001111
00000000000010010010
11111111110101101101
11111111111111100000
11111111111110010000
11111111110111100100
11111111111110101000
00000000000010001011
00000000000110000001
11111111111010001111
11111111110100001110
11111111111101100010
11111111111010010000
11111111111001111010
11111111111000000110
00000000001000010100
00000000000111100110
00000000000010110111
11111111110100001000
11111111111011000011
00000000000011110101
00000000000011111100
00000000000110001000
00000000001001011100
11111111110111100001
11111111111100110110
11111111111001110011
