00000000001001011101
11111111111001001110
11111111110101000111
00000000001001001001
11111111110111001010
11111111111000000100
00000000000101011000
11111111111001100011
11111111110100101011
00000000000101100101
11111111110101001111
11111111111100101101
00000000000001101110
11111111111101110000
00000000000101011111
11111111111101001101
00000000000001111100
11111111111111111111
11111111111101110101
00000000000011100100
00000000000110111001
11111111111111010111
11111111110101011101
11111111110101001001
00000000001000111101
11111111111000111101
11111111111010010110
00000000001010010110
00000000000011101110
11111111111011011011
11111111111100111000
11111111111011010010
00000000000110100001
00000000000111001101
11111111110110100101
00000000000111100100
00000000000100000101
11111111110111001100
00000000001010100101
00000000000001010100
00000000001010100001
11111111111110100000
11111111111100001001
11111111111011111001
00000000000000101110
11111111110110000111
11111111111001101001
11111111111110010111
00000000000110000110
11111111111101101001
00000000000100000100
00000000001001000010
00000000001001010001
11111111110101001010
00000000000011100010
00000000000111010010
11111111111001010011
00000000000100101000
00000000000001100000
11111111111011001100
00000000000101111110
11111111111011001001
11111111111000011001
11111111110111111001
00000000001000101010
11111111111011111001
00000000000010011100
00000000000101001111
00000000001001111001
11111111110101001001
00000000000000101001
00000000000011101111
00000000000111000001
11111111111000011000
00000000000101001011
11111111111001110010
11111111110111110111
11111111111101001001
11111111111001111000
00000000000010100001
00000000000101000111
11111111111001110101
00000000001000010100
11111111111101101010
00000000000010100010
00000000001000011110
11111111110110111100
00000000001000001000
11111111110101101111
11111111110111101101
00000000000100001001
00000000000110010111
00000000000101100110
11111111111110100001
00000000000000001011
11111111110101010101
11111111111011011111
00000000000011100001
00000000000100010000
11111111111000001000
11111111110101100101
00000000000111100000
11111111110101110011
00000000000111001001
00000000000111000000
00000000000110100100
11111111111110001011
11111111110111010100
11111111111000111011
00000000000000011011
11111111110111011111
00000000000110001001
00000000001010011111
00000000000010001001
00000000000001001011
11111111111111101010
00000000001001110000
00000000000000110100
11111111110111100110
00000000001010110010
