11111111111101000000
00000000000110011111
11111111111100011100
00000000000011101001
00000000001010101100
11111111111001110001
11111111111100011110
00000000000111011001
11111111111100101010
00000000000100100000
00000000000000001011
11111111111000110110
11111111110111001011
11111111111101001010
00000000000011101001
11111111111110111010
11111111111111001011
00000000000100001110
11111111111111111111
11111111110110000110
00000000000011010010
11111111111000001101
11111111111011001100
11111111110110010100
11111111110110000000
11111111111011001101
00000000001000010110
00000000000111001100
11111111111011000101
11111111111010011110
11111111111111101001
00000000001001011000
11111111110110010011
00000000000110101001
00000000000111110110
00000000000110001011
11111111111000101110
11111111111011001100
00000000000010011010
00000000000001000010
00000000001010100100
00000000001000101001
11111111111001111100
00000000000101011010
00000000001010100000
11111111110101000011
00000000000111011000
11111111111110010100
11111111111010000101
00000000001000010111
00000000001000110001
11111111111101111101
00000000001000010100
00000000000100101100
11111111111001010011
11111111110101101101
11111111111011010011
11111111111100110010
11111111110101110100
11111111111001100011
00000000000000111011
00000000000111100110
11111111111111111011
00000000000100110011
00000000001001001111
00000000000011010110
00000000000101000001
00000000001000000010
11111111110110101100
11111111111010101010
11111111111100100110
11111111111000110100
00000000001010000100
00000000000011000011
11111111111101011100
00000000000011000110
00000000000110010100
11111111110100110010
11111111111111001110
00000000001000100010
00000000000001001011
00000000000000000011
11111111111110101011
11111111111100000100
11111111111110101010
11111111111011101100
00000000000000000101
00000000001001000111
11111111111101011011
11111111110110110011
00000000001000011100
11111111111000000111
11111111111100111000
00000000000101000011
00000000000010110111
11111111111011001000
11111111111110011000
00000000000010010100
11111111111010011011
11111111111101011000
11111111111000111010
00000000000101101110
11111111110110100110
11111111111110010011
11111111111101011100
00000000001001111011
00000000000000010010
00000000000110110000
00000000000111010001
11111111111100000111
11111111110101100100
00000000000101000011
00000000000010101110
00000000000110000101
00000000000011101000
00000000001000100111
11111111111111111110
00000000001000100100
11111111111110111011
11111111110111000100
