00000000000101111011
11111111111101111011
11111111101110100110
00000000000111001010
00000000001100111111
11111111101100000000
11111111110011010111
00000000001101010111
11111111111100010010
00000000001110010110
11111111110011111111
00000000000011100111
11111111110011100110
11111111111001010101
11111111111010100100
00000000010010110110
00000000000000100011
00000000000001001001
00000000001001111110
11111111110111001010
11111111101111111101
00000000001000110010
11111111101101000001
00000000001111101100
11111111110001100001
00000000001001100101
00000000000010110000
11111111110000011110
00000000001001100101
00000000001101101101
00000000010011110001
00000000010101001111
00000000000101001100
11111111110000000001
11111111111011000010
00000000000100101111
11111111111101110100
00000000001001001011
11111111110010011001
00000000000010000010
11111111111010011011
11111111101011010101
00000000001000000100
11111111110010010001
00000000010001010000
11111111110001011111
11111111111001001111
00000000001011110100
11111111111001110001
11111111111100011101
11111111111100001000
11111111110111000001
11111111110111010110
00000000001010110001
11111111101010011011
11111111110011101011
11111111111011011111
00000000001101100101
00000000000100100010
00000000001100110111
00000000000010011101
11111111110111111100
11111111111110011000
11111111101011101110
00000000000101001000
11111111111110011101
11111111101110100101
00000000001110110000
11111111111010110001
00000000000010010101
11111111110000001011
00000000001000011110
00000000000000110011
11111111111100111111
11111111110000110001
11111111110101001000
00000000000010101001
11111111111001101111
11111111111101101110
11111111110010101000
11111111111011100111
00000000000110110101
11111111110110001110
11111111101100100110
