00000000000010110001
00000000001000011000
11111111110101011000
11111111111101101100
11111111111101010011
11111111111111110110
00000000000100111000
00000000001000011101
00000000000100011011
00000000000010101110
00000000000000000011
00000000000111111000
00000000000010001000
11111111111010101001
11111111110110010000
00000000001011111001
11111111110100110101
00000000000101101001
00000000000000011100
11111111111001001000
00000000000001101010
00000000000101010011
11111111110101110000
00000000000000100101
00000000001001101100
00000000000100111011
00000000000101101001
00000000000010011001
00000000000111110000
00000000000000111110
00000000001011000010
00000000000100010011
11111111110110011011
00000000000000101111
00000000000001111000
00000000001010110100
11111111111110100101
00000000001101001111
11111111111111000111
11111111110110101011
11111111111000001001
11111111111011011111
00000000000011000101
11111111110110001001
00000000001100001011
00000000000010111001
00000000001010010110
11111111110110000001
00000000001000101011
00000000001010001001
11111111111001011010
11111111111100101111
11111111111001110010
11111111110101001000
11111111110111110110
00000000000010010111
11111111111110110100
11111111111101101111
00000000000000001001
00000000000010101011
00000000001000011011
11111111110101101000
11111111110110010000
11111111111101011101
11111111111111110011
11111111111101010110
00000000001000011001
00000000001000111100
11111111110101010010
00000000001010000010
00000000000011000000
00000000001010100101
00000000001001100110
11111111110101111111
11111111111011010001
00000000000100011110
11111111111110001111
11111111111011101000
11111111110111011111
00000000000100101011
00000000001101001010
11111111111101011011
11111111111111101111
00000000000100101110
00000000001001000110
11111111111111101000
11111111111111101100
00000000000101000110
11111111110011110111
11111111111111011011
00000000000101111111
11111111111010111010
00000000001010111100
11111111110011111111
11111111110110101111
11111111111001011010
00000000000001011111
00000000000001110011
00000000000011111110
11111111111000110110
00000000000110010110
11111111110110010011
00000000000101100111
11111111111110110011
00000000000001100011
00000000000010001001
00000000000010000000
11111111111010000110
11111111110111011111
11111111110110111101
00000000000110111000
00000000000101111100
00000000000011000100
00000000001001011100
11111111110110101110
00000000000010010011
11111111111101000011
11111111111010111001
11111111111011110100
00000000001011100001
