11111111111001100011
11111111110111000000
11111111111000100011
11111111111110100001
00000000001000010001
11111111111010100000
11111111111011100001
11111111110101111000
11111111111100010010
00000000000000000000
00000000000001111101
00000000000001110011
11111111111011110100
00000000001011000111
00000000001000010001
00000000000011000011
00000000001000100110
11111111111101100011
11111111111101011111
11111111110111110001
00000000001010000010
00000000000101101100
00000000001000110111
00000000001010001111
00000000001001011001
00000000001001111101
11111111111111000100
00000000001001011011
00000000000110010010
11111111111010010101
00000000000110101001
11111111111010001010
00000000001010001011
11111111110101100001
11111111111110110101
00000000000101100111
11111111111100100110
11111111111000011010
11111111110111001011
11111111110111100100
00000000000111111000
11111111111111001110
00000000000100011110
11111111110110100111
11111111111110011111
00000000000100100011
11111111111010111111
00000000000001010111
00000000000010010110
11111111111010101001
00000000000111000001
00000000000101011000
00000000001001010100
00000000000011111001
11111111111101111001
11111111111111001011
11111111111000010000
00000000000011011011
00000000001001011110
11111111111001010110
00000000000001000110
00000000000110110100
11111111111001110100
11111111110110011101
11111111110101111101
00000000000000101100
00000000001001001000
11111111111000011010
00000000001001010101
00000000001000001111
11111111110111010110
00000000001010100110
00000000001010000100
00000000000111111101
11111111111100100000
00000000000111100100
11111111110101000101
00000000000001110111
00000000000010111000
11111111110110110010
00000000000110000101
11111111111110100100
00000000000101010000
11111111111011100001
11111111110101100010
00000000001001011111
00000000001010001001
00000000001001111010
00000000001001010110
11111111110101111011
11111111111111010010
11111111111110000110
11111111111111111110
11111111111000100000
11111111110111111110
00000000000001101010
00000000000111100010
00000000000011111110
00000000001001110100
11111111111110101111
11111111111111100101
11111111111100000010
11111111111011111011
11111111111001000111
00000000000110111111
00000000001010011010
00000000000100000011
11111111111010111110
00000000001001001000
00000000001000111110
11111111111100001101
11111111111101000101
11111111110110111000
11111111110111001111
00000000001001001000
00000000000011101101
11111111111111010111
11111111110110111100
11111111111011111101
00000000000111000011
