00000000000001000010
00000000000011100010
11111111111010010001
11111111111001011001
00000000000010100011
00000000000000000011
00000000000100000110
11111111110101010100
11111111111110010100
11111111111100001110
00000000000110100101
00000000000011010111
00000000001100011101
00000000001011011100
00000000001011010010
11111111111001100100
00000000000110110110
11111111111010110000
00000000001000100010
00000000000001010010
11111111111111100011
11111111111011000011
00000000001000110110
00000000001000101110
00000000001000101100
11111111111000000101
11111111111101110010
11111111111100010111
00000000001010001101
11111111111100000000
00000000000111111111
00000000000010010111
11111111111111110110
11111111111010010010
00000000000011000100
00000000000101001000
11111111111001011100
11111111110110001111
11111111111010001010
00000000000011100110
11111111111111010111
11111111110110101101
11111111111100110111
00000000000010111101
11111111111000100110
00000000000001010001
00000000000010100111
00000000001010110100
11111111111111011110
11111111110111101000
00000000000111101101
00000000000001010111
00000000001000110011
11111111111100101001
11111111111001001111
00000000000101100101
11111111110110111111
11111111111010001110
00000000000101010010
11111111111010100110
11111111110110001110
00000000000110000101
00000000000110010000
00000000000001010100
11111111111111110011
00000000001011011101
00000000000101101010
00000000001010111100
11111111111000101010
00000000001000111111
11111111111111101010
00000000000111001000
00000000001000100110
00000000000110000001
11111111111101101101
11111111111010010100
00000000000000010100
11111111111000000100
00000000000110110101
11111111111110001101
00000000000111111010
00000000000011100011
00000000000110010111
00000000001001110110
00000000001101000111
11111111110101010101
00000000001010101110
11111111111011011100
00000000000110010110
00000000000111001110
00000000000100111011
00000000001010111000
00000000000100111110
00000000000110101010
11111111111010010110
11111111110101101101
11111111110101010011
11111111111000110100
11111111111000111010
00000000001000111010
11111111111011000110
11111111110111101111
11111111111000001111
00000000000010000000
11111111111000110010
00000000000111111111
11111111111001101111
11111111111011110000
11111111111100000000
00000000000111010010
11111111111110111111
11111111110110000001
11111111111010110001
00000000001001101110
11111111110111000101
11111111111110000101
00000000000000101010
00000000000101100001
11111111111111001000
11111111110110011011
