00000000000011100101
11111111111101101001
00000000001001011111
00000000000000100100
00000000000100010010
11111111111111010001
00000000000111001001
11111111111001000111
11111111111000110010
11111111111001110110
11111111111110001010
00000000001001100111
11111111111101001011
00000000000010100001
00000000000000111101
11111111111111001001
00000000000111111000
11111111110110001111
00000000000010111111
00000000000000101100
11111111111101111000
11111111111101011111
00000000001010011000
00000000001000001001
11111111110100110111
11111111111010100101
11111111110011110110
11111111111010100111
00000000001000100100
11111111110111010111
00000000000111001000
11111111111000010010
00000000000100010111
11111111111111001011
11111111111100010111
11111111111110101101
11111111110111100001
00000000000011001101
00000000000011101100
00000000001010000110
11111111111000111110
00000000001011001010
00000000000100001010
11111111111101011110
11111111111001011110
00000000000011111010
00000000000001100011
11111111111000111010
11111111111110001110
00000000001101010010
00000000001000011000
11111111111100000101
00000000001000110101
11111111111111011011
00000000000100110101
00000000001001000110
11111111111101101101
11111111111100010110
11111111111110101110
00000000000000001110
11111111111001101001
11111111111110100110
11111111111101011010
00000000001000111110
00000000000101011111
11111111111011101011
11111111110100101111
00000000000010000001
00000000000010011111
11111111110101000110
00000000001010011100
11111111111010110111
00000000001010110111
11111111110110001100
00000000000010011100
00000000000001010010
00000000000010110010
00000000000100011001
11111111110101101100
11111111111011000101
00000000000001111110
11111111110010111010
11111111111100111011
00000000000000010001
11111111111110111000
11111111111110011100
00000000001001001000
11111111111001001001
11111111110101111101
00000000001000101001
00000000000011010001
00000000000111101101
11111111111001010001
11111111111100010000
00000000000111111101
00000000000110111100
11111111111111001011
11111111111011011011
00000000000011010001
00000000000001000010
11111111111011001001
00000000001100000010
11111111111010101101
11111111111011100010
00000000000011111110
11111111110110100001
11111111111101110000
00000000000101111110
11111111111000001000
00000000000000010110
00000000001010000101
00000000000111101110
11111111111100101101
00000000001010000001
11111111110101100000
00000000001010011101
11111111110100000011
11111111110101111101
11111111110111000001
11111111110111010110
