11111111111000010101
11111111111101001110
11111111111010110001
00000000000011000111
11111111111100100100
11111111110111011111
11111111110111100001
11111111111001101110
11111111111010001010
11111111111010101101
11111111111101100101
11111111110101010111
00000000001001010001
00000000001000101101
00000000001011101010
11111111111001010010
11111111110111001000
00000000000010000111
11111111111011100110
11111111111010100000
11111111111011001111
00000000000001100010
11111111110111101000
11111111111111111011
00000000000000011111
00000000000111110011
00000000001001001010
11111111110111100100
00000000000010000011
00000000001011001001
00000000001011101010
11111111111010000010
00000000001001001000
11111111111100111000
00000000000101001111
00000000000000111111
11111111111110010110
11111111110110000010
00000000000001001111
00000000000011010101
11111111110101001111
11111111111000001101
00000000001011001100
11111111111101100011
00000000001001101100
11111111110110000100
11111111110101011110
00000000000001011001
00000000001001000110
00000000000001100010
00000000000010001001
00000000000111101100
00000000001010010011
11111111111010001001
00000000001001010111
00000000000000111111
00000000000111001111
00000000000011100100
00000000000001101011
11111111111010011001
11111111111000111111
00000000000110010000
00000000001011011111
11111111111111011100
11111111110111011011
00000000000000001110
00000000000111011011
11111111111111010100
00000000001010000011
00000000000000100001
00000000000110000001
00000000000111110101
00000000000111010100
00000000001101010110
00000000001001110110
00000000001000010110
00000000001001100000
11111111110101111111
11111111111111001010
11111111111111101110
00000000000001011111
11111111111011010011
00000000000000101100
11111111111001001101
11111111111101011010
11111111110110101000
11111111111111101011
00000000001000010110
11111111111000100100
11111111111111011110
00000000001000010011
00000000000001111111
11111111111100100010
11111111111011011110
11111111111010111000
00000000001000010110
11111111111010011001
11111111111101010101
11111111111000001001
11111111110101100001
11111111110101111011
11111111111001011000
11111111110111101000
11111111111011101011
00000000000100011011
00000000000010101101
00000000000100001101
11111111111010101111
11111111110111111100
00000000000011011110
00000000001010111011
11111111110111010110
11111111111001000100
00000000001000110110
11111111111000110101
11111111110100110000
11111111111111001111
00000000001011001111
11111111111100011111
00000000000111000101
