11111111110111010110
00000000000110000101
00000000000111000011
00000000000011000010
00000000000000010001
11111111111010000010
00000000000111001011
11111111111100100110
00000000000110111101
11111111111110111011
00000000000101001000
00000000000000011001
00000000000000010001
00000000000010100110
00000000001010000110
00000000001001110111
11111111110011111110
00000000000100001100
11111111110100001000
11111111111011000011
11111111111101111000
00000000000010010000
00000000001000110011
11111111111010100011
00000000001001100010
11111111111101011010
11111111111011101011
00000000001001011110
00000000000110001101
11111111111110001011
11111111111000000111
11111111110111111101
11111111111110001011
11111111110111111011
11111111110111101011
11111111111101110010
11111111111101010011
11111111110011101100
00000000000011101000
00000000001101100110
00000000000100000001
11111111110111010000
00000000001011101110
11111111111011111000
11111111111100100110
11111111110101101001
11111111110011101101
00000000001000000011
11111111111001111100
00000000000101011010
11111111111101000001
11111111111111001000
11111111111100010110
11111111111111110101
11111111111010111110
11111111110100111010
00000000000101011111
11111111110011000110
11111111111100001101
11111111111001000110
11111111110011110100
11111111110011011101
00000000001000000000
00000000000101011111
11111111111100001010
00000000000100100100
00000000001001000101
00000000000100011101
11111111111000101000
00000000000101010110
00000000001000111111
11111111111110110111
11111111111111000000
11111111111100001101
00000000000100000010
11111111111001001000
11111111110100100010
00000000000110111010
11111111111010110000
00000000000011100001
00000000000101011011
11111111110111011010
00000000000101111101
11111111111010000110
00000000000001010100
00000000000110000000
11111111111111100011
11111111111101100111
00000000000010010000
00000000001001111101
11111111111000111011
00000000001110111001
11111111110110000110
11111111111101011110
11111111111110101010
00000000000010011011
11111111111100001101
11111111111010101111
11111111110110110011
11111111110100110011
00000000001001110000
00000000000110111001
00000000001010110000
11111111111100001010
11111111111111111100
00000000000100010010
11111111111100011010
11111111110101111100
00000000001000100111
00000000000110100011
00000000000100011010
11111111111110100111
11111111111100000011
00000000000110100111
00000000000010010000
11111111111110011001
11111111111101001110
00000000001000000100
00000000001001101100
11111111111100001001
