11111111111100000110
11111111110010100001
00000000000111101011
00000000000100100111
00000000000101110000
11111111111110110010
00000000000011100111
11111111110110001100
00000000001011101110
11111111111111011110
11111111111010011011
11111111111101000011
11111111111101101100
00000000000101010111
11111111110111101111
00000000000110111000
00000000000001011001
00000000000011100101
00000000001011000100
11111111111010100011
11111111111001001011
11111111111001110101
11111111111101010010
00000000000011100000
11111111111011111101
00000000000000011110
00000000000010100101
11111111110100110101
00000000000111101110
11111111111000101110
00000000000000101001
11111111111100010001
00000000000001010011
11111111111011100101
00000000001001111000
11111111111001101100
00000000001001101011
00000000000001101011
11111111110111011011
11111111111101111100
00000000001011111110
11111111111011101011
11111111111000001011
11111111110110110111
11111111110110011110
11111111111011001101
00000000000010000001
11111111111010111101
11111111110101111110
00000000000110010101
11111111111110001000
00000000000001010111
11111111110111111100
11111111111011111001
11111111111101100010
11111111110111111110
11111111111111000000
00000000001000010000
11111111111100110000
00000000000011111011
11111111111100011100
11111111111010000000
00000000000110000111
00000000000010100110
11111111111100111001
11111111110100010011
11111111110110000111
00000000000111000111
00000000001100011011
00000000001001001010
00000000000111000111
11111111111100100101
00000000001011000010
00000000000001101001
00000000000010101111
00000000000010001101
11111111111110000101
11111111110011111110
11111111111110100110
11111111110100010110
11111111111000101011
00000000001000000100
11111111111100000100
11111111111011000110
00000000000101111101
11111111111101011011
11111111111100011101
00000000001001001100
00000000000000101000
00000000000100101111
00000000001100010110
00000000000011101100
00000000000010101101
11111111111101011111
11111111110111111101
11111111110101101010
00000000001000001011
11111111111111111100
00000000000010110000
11111111111000101111
11111111111011010000
11111111111010011110
00000000000110110110
00000000000101011011
11111111111101001110
11111111111101011000
00000000000110000001
00000000000011011101
11111111110101101000
00000000000000100010
11111111111111011110
00000000000001010100
00000000000111111000
11111111111111010000
11111111111011100100
11111111111100110101
00000000000001110000
00000000001010101111
00000000000001101101
00000000001011011001
