00000000000101111001
11111111111000100100
11111111111010001000
00000000001000001001
11111111110101111101
00000000000100000100
00000000000110101011
11111111111010010110
00000000001011001000
00000000001001101101
11111111110100111011
11111111111101011110
11111111110101110111
00000000000011011101
00000000001000011011
00000000001010010000
00000000000001000000
00000000000010001111
00000000000111011001
00000000000101101011
00000000001000000010
11111111110100101000
11111111111101000010
11111111111101111001
11111111111010000000
11111111111111111001
11111111110100111100
11111111111010101011
11111111111100001010
11111111111100000001
00000000000000110101
00000000001010000111
00000000000100110110
00000000001000000010
11111111111111010101
00000000001001000110
00000000000100010100
00000000001001110100
11111111111110101110
11111111111110001011
11111111111011101000
11111111110110000100
00000000001000000100
11111111111110000110
00000000001000101001
00000000000100000110
11111111110111101111
00000000000111000110
00000000000111111010
11111111110110110100
11111111111000011101
11111111111111000011
00000000000100000010
11111111111011110000
00000000001010100000
11111111111111010000
11111111111100010011
00000000000001001001
11111111111101110111
11111111111000100110
11111111111011100011
11111111111100101001
00000000000010100001
11111111110101110110
00000000000101011000
00000000001010001011
11111111110011110101
11111111111010011010
00000000000100000011
00000000000011001010
11111111111110001011
00000000000101101110
11111111111100111101
00000000000100000001
11111111110110110001
11111111110110110001
11111111111000111000
00000000001011101010
00000000000011010010
11111111111001001100
00000000000001010110
11111111110110110011
00000000001010100000
00000000000011001010
11111111111111001001
00000000000111001010
11111111110101010000
11111111111011011110
11111111111100101001
00000000000010010110
00000000000010010000
00000000001001111101
11111111110100110010
00000000000000000011
11111111111011110100
00000000000000101010
11111111111010111011
11111111110111010111
00000000000000100010
00000000000101110110
11111111111101000001
00000000000010001100
00000000000101000011
00000000001001111001
11111111111110000111
00000000001001010011
11111111111110111101
00000000001001100000
00000000000111011010
11111111111111000011
11111111110110000000
11111111110110110011
00000000000011100000
00000000001011000110
00000000000011011111
11111111111011010010
11111111110111001010
11111111111101010111
00000000000100110011
11111111110111001001
