00000000000010111110
11111111111111001100
11111111111101101011
11111111111111001011
00000000000000111101
11111111111010111100
11111111110101101110
00000000000010000010
11111111111011101111
11111111111011110000
11111111111010001000
00000000000001001001
11111111111100111110
00000000001001011101
00000000001000000001
00000000001001111011
00000000000001100100
00000000000110100111
11111111110111000000
11111111111110101110
00000000000000101001
11111111110101101101
11111111111111101001
00000000000011101010
11111111111100100100
00000000001010101011
00000000000100000011
11111111110111000011
11111111111010100000
00000000001000000011
00000000000010100101
00000000000110000100
11111111111100011100
00000000000111100100
11111111111011111011
11111111111010001000
00000000000000001001
11111111110101111011
00000000000101011000
11111111111110001000
00000000001000010011
11111111110110011110
00000000001100001111
00000000000001101111
00000000000111110100
11111111111010110010
11111111111000001010
11111111111101100111
00000000001000010000
00000000000010110110
00000000001011001001
11111111111001010011
11111111111101100101
00000000000101110001
11111111110101000100
00000000000100110110
00000000000110000011
11111111111100001111
00000000000000011001
00000000000101000001
11111111111100001101
00000000000000110000
00000000000011101010
00000000001011001010
11111111111010011100
00000000000100001000
00000000000011101110
11111111111110000100
11111111111001001110
00000000000110100111
11111111110110001110
11111111111010100011
00000000000111000000
11111111111010010000
00000000000000101011
11111111110111111001
00000000000011100000
00000000001000011001
11111111111010101011
00000000000010101111
00000000000111100101
11111111111011010011
11111111111101101101
11111111111011111010
00000000000010001101
11111111110101011110
11111111110100010100
11111111111011111100
11111111111011000100
11111111111000101100
00000000000011110001
00000000000011010010
11111111111011111000
00000000001001101101
00000000000111011011
00000000000011100000
00000000000101110011
11111111111000010101
11111111111001111010
00000000001011001111
00000000000111001100
00000000000011110101
00000000001000100010
00000000000000101010
11111111111110010111
11111111111000111100
11111111111011110100
00000000000001111010
11111111111111000111
11111111111000001011
00000000001000011110
11111111111110010111
00000000000000100110
11111111111000011110
00000000000111110001
00000000000101100110
11111111111011101101
00000000000101111111
11111111110111111110
00000000000001110000
