00000000000011011010
00000000001000100110
11111111111100011001
00000000000100111001
00000000001011000001
00000000001111110000
11111111111111011000
00000000000000001101
11111111110110010101
00000000001101010110
11111111110100110000
11111111101110110111
11111111110111101011
00000000000110000010
00000000000101110001
11111111111100101100
00000000000101000101
00000000000111001001
11111111110110000110
11111111110000011011
11111111111010100001
11111111110101101010
11111111110001011010
11111111101001010111
11111111101110011010
11111111111100000101
11111111110110000011
11111111110001110011
11111111101101010001
11111111111010001101
00000000001100100100
11111111110110111010
00000000001000101000
00000000000110011011
00000000000100011001
11111111101110011000
00000000001000110001
11111111111011001010
11111111110100110110
00000000000101011111
00000000010100011100
00000000001000011000
11111111111101001101
00000000000111110010
11111111110100001111
00000000001010111110
00000000001000101000
11111111101111100000
11111111111000011101
00000000000010101101
11111111110010000100
11111111101011100001
11111111110110011010
11111111111111010100
11111111111100100111
00000000010000011111
00000000000111101111
00000000010111001001
11111111110010110110
11111111110010111100
11111111101111001000
00000000010001010011
00000000001011110011
00000000001101001001
11111111111101110000
00000000001010000101
00000000001001100110
00000000001001010011
00000000001010001101
00000000001010101001
00000000001000110111
00000000001001110110
00000000001111000011
00000000010001110111
00000000000000101001
11111111110111010010
00000000001111101110
11111111111111111100
00000000001011010111
00000000001101001011
11111111110111010101
00000000001110001010
11111111111011010111
00000000000010100011
