00000000000000001000
00000000000011011101
11111111111111111011
00000000000000010011
00000000000000111101
11111111111101101101
00000000000000000010
00000000000000101111
00000000000001010111
11111111111111001010
00000000000000000101
00000000000000100100
00000000000000100101
11111111111111101100
11111111111111110110
11111111111111100000
11111111111111101100
11111111111111111011
00000000000000100111
00000000000000110001
11111111111111111100
00000000000000000000
00000000000000010111
11111111111111111110
00000000000001001110
11111111111111011110
11111111111111011001
11111111111110110010
00000000000000001111
00000000000001101101
00000000000000000000
11111111111111001000
11111111111111111100
00000000000001001110
11111111111111100001
11111111111111000111
00000000000000000001
11111111111111100100
11111111111111101000
00000000000011010111
11111111111111111111
11111111111110111111
11111111111110010111
00000000000000110110
00000000000000000000
11111111111101101110
11111111111111011011
11111111111111111110
00000000000000001010
00000000000001011000
00000000000000010010
11111111111111010100
00000000000000000000
00000000000000000000
00000000000000111110
00000000000000000111
00000000000000000000
11111111111101111000
11111111111111011010
00000000000000101111
00000000000000111111
00000000000000101001
11111111111111100110
00000000000000000000
00000000000000000101
11111111111110111011
00000000000101001111
00000000000000000000
11111111111111111110
00000000000000000000
00000000000000011010
00000000000010110110
00000000000000000000
11111111111111010101
00000000000001001001
00000000000000011001
00000000000000001010
11111111111111101111
11111111111111010110
00000000000000000001
00000000000000101000
00000000000010111001
11111111111111111010
00000000000000011110
00000000000000000000
00000000000000111101
11111111111111111010
00000000000000011100
00000000000000101011
00000000000001000110
11111111111111111101
00000000000001000110
11111111111110000100
00000000000001010000
11111111111111111001
11111111111101111000
00000000000000000100
11111111111111001100
00000000000000100101
00000000000010010001
11111111111111111101
00000000000000000000
00000000000001100111
00000000000001001010
11111111111111111011
11111111111111100100
00000000000000000100
00000000000001001000
11111111111111110010
00000000000001110101
00000000000101111010
00000000000010101101
11111111111111110001
11111111111111111101
00000000000001000000
11111111111111111111
00000000000000110000
00000000000001010000
00000000000010000110
00000000000000000111
