11111111110101011010
00000000000100010110
11111111111110001010
11111111111110011010
11111111111111101100
00000000000100000101
11111111111101011011
11111111110110101011
00000000000011101011
11111111110110100011
11111111110110010000
11111111110111100100
11111111110100110011
11111111111010000001
11111111111100110011
11111111111011110110
00000000000100001001
11111111111000101001
00000000001000110000
00000000000001011110
11111111110101101011
00000000000001001000
11111111111100000000
00000000000001011101
00000000000100110000
00000000000111001101
11111111111100001010
11111111111010100100
00000000000010010000
11111111111000000010
11111111111000110111
00000000001010101110
11111111111111101011
11111111110111110011
11111111111110101001
11111111111000111010
00000000000001010001
11111111111010111000
11111111110101101101
11111111110110101001
11111111110111010110
11111111111000110101
00000000001010010110
11111111111001100000
11111111110101101111
11111111111110001101
00000000000111100111
11111111111100011101
00000000000100100001
11111111111001001000
11111111111001010111
00000000001010001000
00000000000010101010
00000000000000100000
11111111111010011001
11111111110111101011
00000000000011111010
11111111110110011011
00000000000001110010
00000000001001010001
00000000001000101010
00000000000001001011
00000000000000111000
00000000000010111111
00000000000101100101
00000000000100100110
00000000000111010000
11111111111101101101
11111111111001000110
11111111111100101110
00000000000001001111
00000000000001001111
11111111111010111110
11111111111001111000
00000000001010101111
11111111111000001011
11111111111111011101
00000000001000010001
11111111111010001100
11111111111011010010
00000000001001110110
00000000001001110101
00000000000111100111
11111111111001000100
11111111111100001010
00000000000101110110
11111111111110000111
11111111111010101001
11111111111010111000
11111111110111001011
11111111111010011010
11111111111111010010
11111111110101001010
00000000001001010011
11111111111001011111
11111111111001011000
11111111111010000101
00000000000101101100
11111111111010110010
00000000000000011000
11111111111000011111
00000000000001001100
00000000000001110111
00000000000110111001
11111111110111100011
00000000000011001001
00000000001000101001
11111111111101000010
00000000000001000100
00000000001001001000
00000000000010110111
11111111111010001110
00000000000001111000
00000000000010010000
00000000000110001000
00000000000000000011
11111111110111000100
11111111111100111010
00000000000110011100
00000000000000111000
