11111111110101011011
11111111110101101111
00000000001000110110
11111111110101111110
11111111111101010100
00000000001011011010
11111111111010010111
11111111111100011001
00000000000100000111
11111111111011011001
11111111111011000011
00000000000110110111
00000000001000010001
00000000001001100000
11111111111010011100
00000000001000101000
11111111111100011110
00000000000000001101
00000000000010101001
11111111111100110100
00000000000010001010
11111111110111001110
11111111111010010000
11111111111000100110
11111111111001001011
11111111111100010001
11111111111000001100
11111111111011001010
11111111111111011101
11111111111110011000
11111111110101010001
11111111111010100100
00000000000100111001
00000000000001110010
00000000000001110011
00000000000011101100
00000000000100111110
00000000000011110100
00000000000100011100
11111111111101101101
00000000000101111111
11111111111111001111
00000000000110011100
00000000001001010101
00000000000101001001
00000000000110111010
11111111110100101101
00000000001010001101
11111111111011110010
11111111111110000100
00000000000100101001
11111111111000100000
00000000001001100101
00000000001000100010
11111111111010100000
11111111111010000110
00000000000001011110
00000000001000111001
00000000001010000011
00000000000010010100
00000000000011101110
11111111111101000000
00000000000100011101
11111111111010110000
00000000000100110000
11111111111001100010
00000000000110010001
00000000000010011011
00000000000101011111
11111111111001001010
11111111111001111001
00000000001100101101
11111111110101101110
00000000000111110111
00000000000011001100
11111111111110111100
00000000001011110011
11111111111111011100
00000000001010000001
11111111111111111010
11111111111010000001
00000000000101101001
00000000000101110100
00000000000010000001
11111111110110100110
00000000001011101010
00000000000000111110
11111111111110110011
00000000000000101010
11111111111010111011
11111111111111110001
00000000001000011001
00000000000110100100
00000000000000110111
11111111111100101011
00000000000101000110
00000000000011010000
11111111110111100000
00000000001000010011
11111111110111001011
11111111110110100000
11111111111111100101
00000000000010111101
00000000001100011011
00000000001011111100
11111111110110100110
00000000000100111011
00000000000000011000
00000000000001000101
00000000001010001111
00000000000000000101
00000000001001100111
00000000000010110010
11111111110101101110
00000000000001101000
00000000000110001100
11111111111011111110
00000000001100000010
11111111111001101010
00000000000101010001
