00000000000011011000
00000000000101101011
11111111111111010110
00000000000010110111
00000000001000111010
11111111111111000100
00000000000100101010
00000000001011100011
00000000001001011011
11111111111111101110
00000000000010100101
00000000000110100100
11111111110101001000
11111111111110100001
11111111111001101110
00000000001001100110
11111111111101111101
00000000000111100011
00000000000010110000
00000000001000010111
11111111111011110110
11111111111110001110
11111111110110001000
11111111111000011011
11111111110110001110
11111111111100101111
11111111111111010110
00000000000111111111
00000000000101110001
00000000000001101000
00000000001010011111
11111111110101001101
11111111111000010100
00000000000011110111
00000000000000001010
00000000001010100000
11111111111100011001
11111111110110101110
00000000001001001100
11111111111001010001
00000000000100010010
11111111110110100001
00000000000100010010
11111111110110000000
00000000000011111101
11111111111001110101
00000000001011001010
00000000000110000101
00000000000100100100
11111111111110010010
00000000000011101111
00000000000101100001
11111111111100000011
11111111111010010101
11111111111000100101
11111111111100110101
00000000000000011000
11111111110111100101
11111111110110011010
00000000000000010110
11111111110011101100
00000000001000100110
00000000000001101111
11111111110101111011
00000000000010000110
00000000000100101101
00000000000001011001
11111111110110000110
00000000000111101000
00000000000100001000
11111111111000110111
11111111111101100111
11111111111111100011
11111111110111000110
11111111111001110010
11111111110111100000
11111111111111011100
11111111111100111011
00000000000010101110
00000000001011010000
11111111110111100111
00000000000111011001
00000000000111110100
11111111111000010010
11111111110101101000
11111111111101101110
00000000000001111110
11111111110110000001
11111111111000110001
00000000001000001111
11111111111000100111
11111111111001011100
11111111111110010101
11111111111001100100
11111111111101101000
11111111110110001010
11111111111010111011
00000000001011001101
00000000000100010001
00000000001011000000
00000000000101010011
00000000000010000010
11111111111100001101
00000000000100110000
00000000000011101011
11111111111010111110
00000000000101110001
00000000000011111110
11111111110101001100
00000000001010110110
00000000001010100000
11111111111011110111
00000000000101000010
11111111111000000111
11111111110101001001
11111111111110001010
11111111111011010011
00000000001001100111
00000000001100011110
11111111111000001110
