00000000001010010100
11111111110101010001
00000000001010011011
11111111110111001100
00000000000100001010
11111111111011000111
11111111111010011011
11111111110111110101
11111111111100101000
00000000000111001010
00000000001001010110
00000000001010111010
00000000000010111001
11111111110110100110
11111111110110111010
00000000000001000111
11111111111010111100
11111111111011000101
00000000001001011110
11111111110111000000
00000000001010100001
00000000000010001111
00000000001010010101
11111111111010011000
00000000000001011111
11111111110101111010
11111111111000110101
00000000001000100010
00000000001001101001
00000000000100110000
11111111111111110100
00000000001001111010
11111111111001101101
11111111110111001001
00000000000001010001
11111111110110101111
00000000000010110010
11111111111011001111
11111111111111000000
11111111111101101100
11111111111011001010
11111111111100001110
11111111111000001111
00000000000111101001
11111111110101111001
00000000000000010010
00000000000100010100
00000000000100110100
11111111110101001101
11111111111010011000
11111111111011111001
00000000000010010110
11111111111100100111
00000000001000100010
11111111110111010111
11111111110110011010
00000000001001000100
00000000000101000001
00000000000010010011
00000000000001101011
00000000000101010111
11111111110110100000
11111111110101100101
11111111111110011110
11111111111011001000
11111111110101011011
00000000000101111001
11111111111011100100
11111111110101010010
11111111111011011110
11111111111111101001
11111111111010001101
11111111110110110010
00000000000000110000
00000000001010110001
11111111111100001101
11111111111010111011
11111111110110101101
00000000001000001001
11111111111011101011
11111111111110111110
00000000000000101011
00000000000001001101
11111111111101011010
00000000001010101011
00000000000100111010
11111111111100110011
00000000000101000110
00000000000001100001
11111111110111010000
00000000001001111110
11111111110110100101
00000000001001111101
11111111110111111000
11111111111010101011
11111111111101011110
11111111111111001100
00000000000011111111
11111111111110000100
00000000000000000100
11111111111001011101
11111111111000000010
11111111110111110101
11111111111111111001
00000000000011011111
00000000000110110001
00000000001001001110
11111111111011110110
11111111110101001011
00000000000110100011
11111111111010011001
00000000001001000010
11111111111011101011
00000000000011000111
00000000000100000011
00000000000001001001
00000000000010001000
11111111111001010001
11111111111111101011
00000000000100110000
