11111111111101011100
00000000000110010111
00000000000000011111
11111111110100101111
00000000000100111100
11111111110110111100
00000000000001111011
00000000001001010100
00000000001001001001
11111111111110111001
11111111111011001010
11111111110100100000
00000000000101010110
00000000000101111110
00000000000010010110
11111111110110100100
11111111111001010100
00000000001010011000
11111111111000110000
11111111110101011110
00000000001001001000
11111111110110110110
00000000000001001111
11111111110111110011
11111111110100110001
11111111111010110110
11111111111000000001
00000000000000110001
00000000000000010101
00000000001001001110
11111111111000110110
11111111111010010100
00000000000110100001
00000000000001100100
11111111111110001011
11111111111011011111
00000000001001111000
00000000001010010111
11111111111010001000
11111111110110001111
00000000000111101111
11111111111100000011
11111111111011110000
00000000001001101110
00000000000100101100
11111111111101000011
00000000001010100101
11111111111111000000
00000000000001101111
00000000000111100000
00000000000100110000
11111111111001111011
11111111111101000011
00000000001000001011
11111111110011110100
00000000000111101101
00000000000100100001
00000000000111100011
00000000000100000001
00000000000110111100
00000000000001101010
11111111111101101110
11111111110110001100
11111111111110010101
11111111111101110111
11111111111101111110
00000000001010101101
00000000000000110100
11111111111010010100
00000000001001010101
00000000000000100011
11111111110101110001
11111111111111100101
00000000000000010010
00000000001000110101
11111111110101010001
00000000000011100000
00000000000000001110
11111111111011100100
00000000001011000111
00000000000101101000
00000000001000000011
11111111111110101100
00000000000111011100
11111111110101011110
11111111111101001100
00000000000000100101
00000000000100100111
11111111110110101011
11111111111100110101
11111111111110110001
11111111110100100100
11111111111001111000
00000000000110101101
11111111111111111111
00000000001010000000
00000000001000000011
00000000000010001100
00000000000000001000
00000000000100010010
00000000000010101101
11111111111110010101
00000000000110110011
00000000000100010010
00000000000001000100
11111111110101101111
00000000000010100011
11111111111001001000
11111111110110110101
00000000000001101000
00000000000010110000
00000000000111001101
11111111111001011110
11111111111110100100
11111111110110001010
11111111111111001011
11111111110110001110
11111111111011110001
00000000000000000011
00000000000110000010
