00000000000100001011
00000000000110101011
11111111111011111110
00000000000111011000
11111111111110111011
11111111111101111110
11111111111001001111
00000000001001110010
11111111111010111100
11111111111001000110
00000000000001101111
11111111111110101011
11111111111111010101
11111111111101110010
00000000000101111010
00000000001010000110
00000000000000001011
11111111110110001000
11111111110110000100
11111111111100010100
11111111110110110011
11111111111111111101
11111111110110111100
00000000000100111101
11111111110111110011
11111111110111111100
00000000000000000000
00000000000111110100
11111111111110101101
00000000001000011101
11111111111011100000
11111111111110010101
11111111110101011111
11111111110101111011
00000000001000001101
11111111111000111010
00000000000010100110
00000000000100110110
11111111111111100011
00000000000000001011
00000000000000001100
00000000000001000011
00000000000110010110
11111111110111111000
11111111111010110011
00000000001000111011
00000000000110110100
00000000001001000100
00000000000110110101
11111111110101100000
11111111110110110010
00000000000000010010
11111111110110001101
00000000000010111011
00000000000101001100
00000000001000110001
00000000001001000100
11111111111001111110
00000000001010010011
00000000000100010001
00000000000001001001
00000000001010010111
11111111111011100100
00000000001010011111
11111111111100011010
11111111110110000100
11111111110111110111
11111111110111011100
00000000000001100000
11111111111001110101
00000000000000111010
11111111111101010010
00000000000111100111
11111111111000100001
11111111111101101111
00000000000001001010
11111111111000100000
11111111111001110001
11111111111110010001
11111111110101101101
00000000000100010000
00000000000101011110
00000000000001010010
11111111111000000100
00000000000010111101
00000000000110100101
00000000000101011001
11111111111100011000
00000000000101011011
11111111110110010010
00000000000011111011
11111111111010011010
11111111111011101011
00000000000000100100
11111111111101000100
11111111111011011001
00000000000001111000
00000000001001101111
11111111111110100101
00000000000010001100
00000000000001111111
11111111110110011110
11111111110111011000
11111111111100010001
11111111111010010011
00000000001000010010
11111111111110001000
00000000000110011010
11111111111101110010
00000000001010110011
11111111111100101100
11111111110110011010
11111111111111001010
00000000000010100110
00000000000010000110
00000000000010111010
11111111110101110101
11111111111101111010
11111111111101101110
11111111111111100001
