00000000001001011000
00000000000000101100
00000000000001010111
11111111111010111101
00000000000110000000
00000000000101101111
11111111111001001001
11111111111111000011
00000000001001100111
11111111110110000010
00000000000011111001
00000000001011100111
11111111110111101110
00000000000111011010
00000000001000101011
11111111110110101010
11111111111011000001
00000000000011010000
00000000000010010101
11111111110100101010
11111111111000111011
00000000000111101101
00000000000010110101
11111111111011011001
11111111110111001101
00000000000001110110
11111111111110101001
00000000001001110101
11111111111110101011
00000000000101001111
11111111111000011110
00000000001001010111
11111111110101111001
11111111110110100111
11111111111110100010
11111111111000000011
00000000001010101111
11111111110100100000
00000000001001110100
11111111110100111010
00000000001001011100
11111111110111111101
11111111111101101010
11111111110111110010
00000000000000100001
11111111111001110011
11111111111101010110
11111111111011101101
11111111111111000101
11111111111101101011
00000000000001110001
11111111111110100000
00000000000001111100
11111111110110001010
00000000000111110010
00000000001000101101
00000000001011110100
00000000001011000100
11111111111111100111
00000000001000011001
11111111110110001111
00000000000100111111
11111111111000000111
00000000000101010001
00000000000111000010
00000000000100011000
11111111110111110110
11111111110110010000
00000000000000011010
00000000001001011010
00000000000110011000
11111111111111111011
11111111111000111100
00000000000000101001
11111111111101010000
11111111111111101100
00000000000000101000
00000000001001101000
00000000001000101111
00000000000100111100
00000000001001100101
11111111111111011010
00000000000100110011
00000000000010011101
11111111111100100100
00000000000001001000
11111111111001000101
11111111111110100111
00000000001001000100
00000000000101101000
11111111110110110001
11111111111110011011
00000000000111110011
11111111111011010110
11111111110111000110
00000000000111010011
11111111111101011111
00000000000101111111
11111111111011011001
11111111110111010100
11111111110111101101
00000000000110000111
11111111110110100111
11111111111110110011
00000000000011100111
00000000000101001110
00000000000011010100
00000000000011010110
00000000001101000111
00000000001011001011
00000000000011011111
00000000000000010000
11111111111110100100
00000000000100100111
11111111111000111000
11111111111010000000
11111111111001000111
11111111111110100000
00000000000100010101
11111111111011101011
