11111111111001110101
11111111111011011010
00000000001010001111
00000000000010101101
11111111111010110111
00000000000000101011
00000000000101100000
11111111111110001111
11111111111100011010
11111111111100100001
00000000001001100000
11111111111000000110
00000000000010000100
11111111111110010010
00000000000111101111
00000000000010101111
11111111111111101010
00000000000010100110
00000000000001001011
00000000000010010111
00000000000001100101
00000000000001110100
11111111111001000100
11111111111111011101
11111111110101101100
00000000000101011000
00000000000000111110
00000000001011001001
11111111111011001111
00000000000100100100
00000000000011000001
00000000000110110011
11111111111001001101
00000000000001010100
11111111110111101000
11111111110110101110
11111111111010111011
11111111111010011101
11111111111010011001
11111111110111111001
11111111111100001100
00000000001011001010
11111111111011001110
00000000000101111111
11111111111110111011
11111111111011111011
00000000001010010111
11111111111010101101
00000000000101101100
11111111111001100011
11111111110111000011
11111111111110010000
00000000001010110001
11111111111000100000
11111111111010100101
11111111110111011011
00000000000111011101
11111111111001110011
00000000000010001101
11111111111010101110
11111111111111100011
00000000001001010100
11111111110110110111
11111111110110111010
11111111111000000010
11111111111101111101
00000000001001000010
11111111111010011000
00000000001001010011
11111111111000101101
11111111111011100000
00000000000000111101
00000000001001001010
00000000001100000110
00000000000011110011
00000000000001110010
11111111111100011101
11111111111000101000
00000000000101010110
11111111110110101001
11111111111100100101
00000000000100111010
11111111111000000101
11111111111000010111
00000000000010011100
00000000000100100110
11111111111111000100
00000000000010000000
11111111111101011101
00000000000110110110
00000000001011101100
11111111111100000011
11111111110111010010
11111111111011010011
11111111111001111011
00000000001000001010
00000000000101101010
00000000000100011001
00000000000111011101
00000000000001011101
00000000000001000110
11111111111111000100
00000000000110000110
00000000000100000011
00000000001000110000
11111111110011101110
11111111111011111011
11111111111111010011
11111111111010101110
11111111111011101001
11111111110101010000
11111111111110000111
00000000000001110111
11111111111010010011
11111111110111001010
00000000001000010111
00000000001010100011
00000000000111100001
11111111111001101110
00000000000101110100
