11111111111010011100
00000000001100110000
11111111110111101111
00000000000011101101
00000000000010101001
11111111111011000101
00000000001010011111
11111111111001111110
00000000001001001100
00000000001010100111
11111111110110010111
11111111111101101011
00000000000101111111
00000000001100110100
00000000000110110111
11111111111010111010
00000000001100101101
00000000000010101111
11111111111101010000
00000000001000000101
11111111111010000001
00000000000010100010
00000000000101110101
11111111111110111110
11111111111011000111
11111111110110010011
11111111111010000001
00000000000000111111
11111111111011111110
11111111110111110110
00000000000100101101
11111111111000100111
11111111110101110110
11111111110101010110
11111111111000101110
11111111111001101000
11111111110111010110
00000000001011011101
00000000000011100101
00000000001001101111
11111111111110000100
11111111110100100110
11111111111101110001
00000000000101111101
11111111111000100010
00000000000110000111
00000000001011111001
11111111110111000000
11111111111100101100
11111111111011000011
00000000001000000010
11111111111000111000
00000000001001000100
11111111111101001110
00000000001000100110
00000000001001100010
11111111111111101100
00000000000011100011
00000000000001011000
00000000001000011110
00000000000001110010
11111111111000101001
00000000000101110011
00000000000011010010
00000000000110001001
11111111111001100101
11111111111001010100
11111111111111111101
11111111111010000100
00000000000101011111
11111111111011110111
11111111110100000111
00000000001010101101
11111111111011001001
00000000000100011011
00000000000111101000
11111111111000111010
00000000000111101110
00000000000000110100
00000000001010011001
11111111111001010000
00000000000100010010
11111111111100011100
00000000001000001101
00000000000101000101
00000000001001111001
11111111111001010110
00000000000111111100
00000000001100111111
11111111111001100110
00000000000011110001
11111111111100010010
00000000000111010011
00000000001001110011
00000000001000110000
00000000000100011100
11111111110110010101
11111111111011111010
11111111110110100110
11111111111101111010
00000000000101011100
11111111111111111100
00000000000111101101
11111111110100010100
00000000000010011000
00000000000010010001
00000000000101000110
11111111111101110001
00000000000111011011
11111111110110101010
00000000000100000110
00000000000011100001
11111111111100001110
11111111111111100100
11111111111001011111
11111111110111001011
11111111111101010101
11111111111110011100
11111111111111011101
11111111111101000000
