11111111111001000000
11111111110100101100
11111111110000010010
00000000001000010101
00000000000011010101
00000000001110111100
00000000010011001101
11111111111101010001
11111111110010111101
11111111101101010111
11111111110001100001
11111111110011110101
00000000000110010001
00000000000110111000
00000000001111101001
11111111101110001010
00000000010001010110
00000000001010000100
11111111101111100111
11111111101101111001
11111111111100101011
11111111101110001100
00000000000000000000
11111111111111101010
11111111111010110000
11111111110010001101
11111111101101011010
11111111110110111101
11111111101101001101
11111111110010111001
11111111111111011110
00000000010000010010
11111111111110011000
00000000001001100111
00000000010000110010
00000000000111001101
00000000001101110100
11111111111001000001
00000000001011011101
11111111111010110001
00000000000101100101
11111111101111000110
00000000001000010010
00000000001100111010
00000000000010001010
00000000000001101011
00000000000110010100
00000000001011010111
00000000010001110110
11111111110110101001
11111111110001111100
11111111111100101001
00000000000111011101
00000000001011000011
11111111111111011101
00000000000011111011
11111111101011011000
11111111110101001101
00000000001011101011
00000000000111100001
00000000000010011101
11111111111100110011
00000000000100110011
11111111110111101010
11111111110001110011
00000000000111000111
11111111111111000100
00000000000100111011
00000000000010111001
11111111110100100011
11111111111100110001
00000000001011110011
11111111101101111001
00000000010011010010
11111111110011100100
11111111110100000000
00000000010011001110
00000000000101001000
00000000000100101100
00000000001100000101
11111111111001111100
00000000001110000101
00000000010010010010
00000000001010000100
