00000000001001011110
00000000001001011010
00000000000111111110
00000000000001010011
00000000000101111101
11111111110101010100
00000000000110100001
11111111111111110101
00000000001001100011
00000000001000001110
00000000001011001110
00000000001001000100
11111111111101011101
11111111111111101011
00000000001000100111
00000000001000110101
11111111111100000100
11111111111001010100
00000000000011000110
11111111111101000010
11111111111111000111
11111111110110001110
00000000000001100111
11111111110101000100
00000000001000011101
00000000000100011011
11111111111011001110
00000000001001000001
11111111111100111011
11111111111101001001
00000000000111101001
11111111111101101111
00000000000011000001
11111111111010101000
00000000000000111010
11111111110011110011
00000000000000011110
00000000000011111001
00000000000101101011
00000000000000000111
00000000000001000011
00000000000011101001
00000000001001010010
00000000000001001010
11111111110111000100
11111111110011010110
11111111111111001101
11111111111111110101
11111111111010000001
00000000000110000011
11111111110101000111
00000000001101001000
11111111111000100011
00000000000000111100
00000000000000001101
00000000000001001010
11111111111010101010
00000000000001111111
11111111111010010010
00000000000001011011
00000000000001001111
00000000000100101010
00000000000110100111
11111111111111101111
00000000000000111011
11111111110111110110
00000000000100100011
00000000000011101101
00000000000010010000
00000000000000001011
00000000001000000000
00000000000110100001
11111111111001110011
00000000000000000000
00000000000000000001
11111111111001000001
00000000000110000110
00000000000000000100
11111111111011110110
11111111110101001010
00000000000010011111
11111111111001001100
11111111110110010101
11111111111110110100
11111111110111110011
00000000001010100100
00000000000000010000
00000000000111101111
00000000001001011101
11111111111111111100
00000000000000011111
11111111111000011100
00000000000000010000
00000000001011111101
11111111111100000111
11111111111100100011
11111111111000111001
00000000000000111100
11111111111001101101
00000000000010011000
11111111111011000111
11111111111000010010
00000000000000110101
00000000000011101101
00000000000100001100
00000000000011110100
00000000000010110110
11111111111111001000
00000000000001101001
00000000001001011001
11111111111010110100
11111111111001010100
00000000000101011010
11111111111001100000
00000000000010111001
00000000000010101100
00000000000110011000
00000000000110110010
11111111111100110010
11111111111110101100
