00000000001101011000
11111111111111000000
00000000000101100001
11111111111010010110
00000000001000100111
00000000000110101011
00000000000011000000
00000000001001010011
11111111111000101011
11111111111100110010
11111111111100110111
11111111111010000010
00000000001001000011
11111111111101001110
11111111111010000011
11111111111100111111
11111111110110011000
00000000000111100011
11111111111010110110
11111111111011000000
00000000000111001100
11111111111101111101
11111111110110101000
00000000001001111101
11111111111010110000
00000000000111001110
11111111111010001111
11111111111101100110
00000000000101011001
11111111111110111010
00000000000111100100
11111111111011100111
11111111110111011010
11111111111111111101
11111111111010101110
11111111111001111000
00000000000010100011
11111111111110110101
11111111111110000011
11111111111010110001
11111111111001100100
00000000000011000011
00000000001000010010
00000000000010001100
00000000000001100101
11111111111001000000
11111111111000101000
11111111111101010111
11111111110111100000
00000000001001100100
00000000000111001110
00000000001010110010
11111111111111100001
11111111111010101111
11111111110110110101
00000000000111100110
00000000001100000000
11111111111101110010
00000000000111001111
11111111111001001101
00000000000000000110
11111111111001000011
00000000000101101010
11111111111100101100
11111111110111010101
11111111111111101011
00000000000001011110
11111111111010000100
11111111111011110000
11111111111010101010
11111111111101111101
00000000000111100101
00000000001011000111
11111111111110110101
00000000001000111000
00000000000010001101
11111111111001001111
00000000000011101110
11111111110100010100
00000000000100100101
11111111111010100000
11111111111000001100
11111111110110111011
11111111111110000001
11111111110100010010
11111111110111111101
00000000000000001011
11111111111110010100
11111111111100001010
00000000000011010111
00000000000011110110
11111111110111100110
00000000000001000011
11111111110111111001
11111111110111101011
11111111111100100100
00000000000101010010
11111111111001001101
00000000000011010110
11111111110101011010
00000000000100000110
11111111111100100111
00000000001000111010
00000000001001010101
00000000001000011001
11111111111100000011
00000000000000110011
00000000000001100111
00000000000001010001
11111111110110011101
11111111111110011110
00000000000010100001
11111111111101010111
00000000000110100010
11111111111111010110
00000000001000111000
00000000000000100010
11111111110101010000
11111111110111111111
11111111111010101110
