00000000000010110011
11111111110101011100
00000000001100001110
00000000001001001111
11111111111101001001
11111111101100011001
00000000000010001110
00000000000100010111
11111111101111111001
00000000001010100100
11111111111000000101
11111111110101001001
11111111110101011000
00000000000011110110
00000000001101111100
11111111101110101101
00000000001000101101
11111111110100001111
11111111111111110111
00000000001111001110
11111111111010111010
11111111100111001100
11111111110111001000
00000000001001111011
00000000010100000010
00000000001111011011
11111111111011100100
11111111111011101100
11111111110110010010
00000000000011001111
11111111110011110100
00000000000110001000
00000000000110100110
00000000010000101101
00000000000111001010
11111111110010100011
00000000000001000100
00000000000101011010
11111111110011001010
11111111110100101101
11111111110010010000
00000000001010001110
11111111111100101001
00000000000111000111
11111111110101100111
00000000001010011101
11111111110001100010
11111111111100100111
00000000001101011001
11111111101110010110
11111111110011010011
00000000001100000000
00000000001000000100
00000000001011000011
00000000000111001001
11111111110110001111
11111111110110100100
11111111111001010101
00000000001111001111
00000000000101000000
00000000000100011000
11111111110000110110
00000000000000110101
11111111111000001011
11111111110100101101
00000000001010001101
00000000001111010110
00000000001110111101
11111111111000100001
00000000000111000110
00000000000111001100
00000000001110011010
00000000001110010010
00000000001111000111
00000000001111100001
11111111111111100100
11111111111011101111
00000000001100011101
00000000001011101111
11111111110011110000
11111111110010100010
11111111111110010111
11111111110010000011
11111111101001110011
