11111111111010010111
11111111111100001001
11111111110101110111
11111111110101000100
00000000000101011100
00000000001011010011
11111111110101010001
00000000000110011110
00000000000000101100
11111111111111110100
11111111110101000011
00000000000111100001
00000000001010011011
00000000001010100110
11111111111111111000
00000000000100010100
11111111110100000100
00000000000001111001
00000000001000100101
00000000000001111010
00000000000010101000
00000000001000000000
11111111111011111110
00000000000110001111
11111111111111001101
00000000001010011010
11111111111110011101
11111111110110111010
11111111111010011101
00000000000110011010
11111111111010110000
11111111111100011001
11111111110110110011
00000000000111110001
00000000000011000011
11111111111110111100
11111111111010001111
00000000001000000111
11111111111100010111
00000000001011010010
00000000000111010001
00000000000011111010
00000000001011011011
00000000001000000001
00000000001000001001
11111111110101101001
00000000000000101010
00000000000110110110
11111111111111000101
00000000000011100111
00000000001010000001
00000000000010000011
00000000001000011010
11111111110111000000
11111111111010111101
11111111111110010110
11111111111011101000
00000000000001001011
00000000000110000010
00000000001011111001
11111111111011011000
00000000001001111011
11111111111010000101
00000000000111010100
00000000000010001001
11111111111001100000
11111111111110011101
11111111111001101001
00000000001000010011
11111111111100001111
11111111111110010101
00000000000000000101
00000000001000110110
00000000000111110100
00000000001010011101
11111111111001110110
11111111111110111010
00000000000100000011
00000000000001111010
11111111110110110010
11111111110110010010
00000000000001010100
00000000000000111110
11111111111000010000
11111111110101100100
00000000000110001100
00000000000101100010
11111111111001100100
00000000000100101010
11111111110110011101
00000000000001111111
11111111110110001100
11111111111000110001
00000000001000011011
11111111111100111101
11111111111111111011
11111111111000001000
00000000001000010101
11111111111100010011
11111111111100010000
00000000000110000110
11111111110110010000
00000000001011110111
11111111111011010000
00000000000000100111
00000000000001010101
00000000000101111110
11111111111100111101
00000000000100001111
11111111111111010001
11111111110111101101
11111111111101011001
11111111111101101000
00000000000011110000
00000000000100000100
11111111111010001010
11111111110101111111
11111111111000010101
00000000000101010101
11111111111001001111
