11111111111110100101
00000000000111000100
11111111110111110111
00000000000111001101
00000000000011011100
00000000000011111001
00000000001001000001
11111111111011101111
00000000000010001001
11111111110110000100
11111111111001010111
00000000001001001111
11111111111110010100
11111111111010101111
00000000000010010100
11111111111100101111
11111111111110101110
11111111110100001100
00000000000110011101
00000000000001110011
00000000001001000010
11111111111011010010
00000000000001101101
00000000001001110000
11111111111100000010
00000000000010100110
00000000000110110100
11111111111011010011
00000000000111111000
00000000001000110011
00000000000101011000
11111111111011010000
11111111111001000101
11111111111100110110
11111111110101010000
00000000000000101011
11111111111011111000
11111111111000100001
11111111110110000101
00000000001011001110
00000000000001001110
11111111111011100010
00000000000111000110
11111111111000010011
00000000000001100000
00000000000010111101
00000000001100111000
11111111111001100011
11111111110110101001
11111111111010101010
11111111111001000010
00000000000010111010
00000000000101011110
00000000001001100011
11111111110110011010
11111111111111110100
00000000000110111100
00000000000110100011
11111111111011101000
00000000000100010100
00000000000000000101
00000000000000111101
11111111111111001110
11111111111100101001
00000000001001100111
00000000001000001101
00000000000010000000
11111111111001001000
00000000000000111100
00000000000011000010
00000000000011111100
00000000000001100000
00000000000000000010
11111111111011010100
11111111111100110101
11111111110101111000
00000000000010001001
00000000001000001111
00000000000001100100
11111111111101010011
00000000000000011101
00000000000101011010
00000000000111111010
11111111110101011010
00000000001100000101
11111111111000000100
00000000001000010000
00000000001001000100
11111111111100111101
00000000001010110100
00000000000001001011
00000000000101001111
00000000000111001110
00000000000000010001
00000000000100100101
00000000000100000110
11111111111111110101
11111111111101001110
00000000000110101010
11111111111001111000
11111111111011000100
00000000000010010110
00000000000111010010
11111111110011011000
00000000000101111000
00000000000000000000
00000000000111011101
11111111110101101000
00000000000011010001
11111111110100110101
11111111110101000110
11111111111110110100
11111111110110101111
00000000000100011100
00000000000111010100
11111111111000011010
00000000000111001110
11111111111110111100
11111111111000100011
00000000000000011001
