11111111111101000110
00000000000001101111
00000000000100111111
11111111111010110000
11111111111010100111
11111111111101001101
11111111110111100001
00000000000100011101
00000000001010110110
11111111111110110101
00000000000010010110
00000000000111111101
11111111111101010010
11111111110111000000
11111111110110111111
00000000000101111011
11111111111100111011
11111111111011110111
11111111110110110010
11111111111101111010
00000000000111010100
00000000000001001001
11111111110110011111
11111111111011011001
00000000001010110111
00000000000010001000
00000000001000001010
11111111110111110000
11111111111010111000
11111111110101101111
00000000000000010100
00000000000000010000
11111111111000000001
11111111110110010110
00000000001001101101
00000000000001110000
00000000000000100000
11111111111101001110
00000000000111011111
11111111110111100000
00000000000111011101
00000000000011110110
11111111111100101110
11111111111001001000
11111111111110010110
11111111111100111110
00000000000010101000
11111111110101010110
11111111110110101110
00000000000111101011
11111111111110011001
11111111111110110010
11111111111101011011
11111111110101001110
00000000000100001000
00000000000011111000
11111111111001101010
11111111111000010111
00000000000110111111
00000000000000111101
00000000000101100000
00000000000110111100
11111111110111001100
00000000001010110101
11111111110101010100
00000000000101001101
11111111110110000110
11111111111111100001
11111111111100011111
00000000000100111000
11111111111100011010
00000000000000001101
11111111111010111100
00000000000000100010
11111111110110010010
00000000000011101011
11111111111000111001
00000000000010011011
11111111110110000101
11111111111011011110
11111111110111101001
00000000001000101000
11111111111110101110
00000000000101001111
00000000000000101100
00000000000011011010
11111111111101100011
11111111111001110101
00000000000011001010
11111111111100100011
11111111111110000000
00000000000111010010
11111111111111110011
11111111111011000100
00000000000011011101
00000000001000000110
11111111111010011111
11111111111011101000
11111111111101101101
00000000000001100100
00000000000001001100
00000000000100000111
00000000000000111000
00000000000001101000
11111111111111111011
00000000000000111100
11111111111100110001
00000000000001001001
11111111111000001001
11111111110111101101
11111111110111001100
11111111111110101100
11111111111101101001
11111111111101001011
11111111110111101011
00000000000110001110
00000000000100011110
11111111111001101011
11111111110110000000
00000000001001001001
