11111111111010000000
00000000001000001000
11111111111000001000
00000000000110011001
00000000000001110111
11111111111111110110
00000000000111110101
11111111111111011001
00000000001000111011
11111111111011010000
00000000000010100101
11111111110110111000
00000000000001101001
00000000001000001011
00000000000011111001
00000000001010100110
11111111111101100000
00000000001000011111
11111111111011101111
11111111111011111100
00000000001001000010
11111111111010000010
00000000000110010101
11111111110111000000
11111111111000101101
11111111111111110011
11111111111110101111
11111111110111110011
11111111111000110000
00000000001000101010
00000000000010100011
00000000000110101001
11111111111100100110
11111111111000000100
11111111111111000001
11111111111010111111
00000000000001001010
00000000001011100001
00000000000111010011
11111111111101110010
00000000000111010010
11111111111001000111
00000000000010000000
00000000000110100010
00000000000011111010
11111111111011001100
00000000001010000011
00000000000010001001
00000000000011101100
00000000000000001011
00000000001011011000
11111111111010000011
11111111110100001010
11111111110110101010
00000000000000101011
00000000000100111101
00000000000011010011
11111111111100101111
11111111110111110101
00000000000111110111
11111111111110111110
11111111111001010001
00000000000000101111
00000000000010100001
11111111111001100001
11111111110100010110
11111111111110001001
00000000001001001101
00000000000010100110
00000000001000111100
00000000000001111101
00000000001010001001
00000000001000001101
00000000001010101000
11111111110011110000
11111111111011110111
00000000000101000000
00000000001000110110
00000000001010111110
00000000000010011010
00000000000111111000
00000000001001011110
11111111111110010000
00000000000110011010
00000000000100011100
00000000000111100100
00000000000000011101
11111111111101001010
00000000000010101000
00000000000110110101
00000000000011011000
00000000000001010100
00000000000100010001
00000000000010011000
11111111110101110101
11111111111001111111
00000000000111011011
11111111111101010001
00000000000011101100
11111111111110111010
00000000001010101100
00000000001011100001
11111111111000100010
00000000001100111101
11111111111000011100
00000000000110101111
00000000000000111010
11111111111111100010
11111111111011100110
11111111110110010010
11111111111110101010
00000000000110011110
11111111110110001111
00000000001010000101
11111111111011101011
00000000000011110101
11111111111010000011
00000000000100010101
00000000000000111010
11111111110110001001
