00000000000001100101
00000000000011010111
00000000000110001110
00000000000001011000
11111111111110110101
11111111111100110000
00000000000101101010
00000000000101000101
00000000000010110111
00000000000100011011
00000000000001001101
11111111111111010001
11111111111011010011
11111111111101100001
00000000000001110100
11111111111111100000
00000000000100001110
00000000000010100111
11111111111010101001
11111111111101110110
11111111111110001110
00000000000010000000
00000000000010010001
11111111111100100000
11111111111010110101
11111111111111110100
11111111111110110101
11111111111100010111
00000000000011010001
11111111111100111111
00000000000010011110
00000000000110111101
11111111111111110111
11111111111010011100
00000000000011010010
11111111111110011101
11111111111011010110
11111111111101110000
00000000000111010010
11111111111110001101
11111111111101101011
00000000000001111000
11111111111000111001
11111111111111001000
11111111111010011000
11111111111001100110
11111111111010100110
11111111111100110001
11111111111101011011
00000000000100000011
11111111111100001111
11111111111001010001
11111111111010111000
00000000000001010101
11111111111101100000
00000000000001011001
11111111111011110110
11111111111011000010
11111111111110010111
11111111111100010010
00000000000010011000
11111111111011111110
11111111111000100101
00000000000001010010
11111111111001000001
11111111111010111111
00000000000110101000
11111111111111101100
11111111111010100111
11111111111010000100
11111111111100010100
00000000000100100111
11111111111101000001
00000000000000001010
11111111111101011100
11111111111101011100
00000000000001000001
11111111111011011111
11111111111110101000
00000000000010011100
00000000000001111010
11111111111100100101
00000000000000100101
00000000000001000011
11111111111100110001
00000000000000000000
11111111111011010100
00000000000110000010
00000000000010100001
11111111111101010111
11111111111111111111
00000000000110000010
00000000000101100100
00000000000101010101
00000000000010111110
00000000000101101110
00000000000101001000
00000000000001001110
11111111111100001001
00000000000110111010
00000000000010001110
00000000000110110111
00000000000100000101
00000000001000011001
00000000001000001001
11111111111100111100
00000000000011101111
11111111111111000001
11111111111110011001
00000000000011011111
11111111111101100111
11111111111010110111
11111111111111001111
11111111111100000101
11111111111101000110
11111111111011010000
00000000000010010111
11111111111101010000
00000000000101110100
00000000000110000011
11111111111111000111
11111111111011110111
00000000000011001000
11111111111100100010
11111111111011111101
00000000000000000000
00000000000000000000
00000000000000000000
00000000000000000000
00000000000000000000
00000000000000000000
00000000000000000000
00000000000000000000
00000000000000000000
00000000000000000000
00000000000000000000
00000000000000000000
00000000000000000000
00000000000000000000
00000000000000000000
00000000000000000000
00000000000000000000
00000000000000000000
00000000000000000000
00000000000000000000
00000000000000000000
00000000000000000000
00000000000000000000
00000000000000000000
00000000000000000000
00000000000010111111
11111111111001110101
00000000000000101111
11111111111011101100
11111111111001001111
11111111111111010010
00000000000000010010
11111111111000101010
11111111111011000100
00000000000011100010
00000000000010011011
11111111111111001110
00000000001000001111
00000000000111101010
00000000000001001101
11111111111101110110
00000000001000100001
00000000000001011100
11111111111101101110
11111111110111110101
00000000001000011110
11111111111111000000
00000000000100111110
11111111111100110100
00000000000011111111
11111111111111101001
11111111111110101110
00000000001000000101
00000000000100100010
00000000000110010110
00000000000001110101
00000000000001100100
00000000000110111100
00000000001001010001
00000000000000001011
00000000000001011010
11111111111101010100
11111111111110110100
00000000000011110110
00000000000100011101
11111111111000111110
11111111110100001010
11111111110110011011
00000000000011110110
00000000000000110010
00000000000100000110
11111111111100000100
11111111111111010100
00000000000100011000
00000000000100111010
11111111111010010000
11111111110101110001
11111111111111100110
11111111111101011001
11111111111011000011
00000000000001001110
00000000000001000001
00000000000010001001
00000000000010000110
11111111110100110011
00000000000111110110
00000000001111001100
00000000001000100101
11111111111001110100
11111111111100100011
00000000001010100100
00000000001100001111
00000000000010001000
11111111111000100011
00000000000100001110
11111111111010001110
11111111111111000000
00000000000001011011
11111111111101111101
00000000000011011001
00000000000011111111
11111111110111101101
00000000000010100001
11111111111001111010
11111111111100000101
11111111111001101001
11111111111111011100
11111111111100011101
11111111111110001101
00000000001010000010
00000000000110010000
00000000000111110010
00000000000101101001
00000000001101100011
00000000000101100000
00000000000010100010
11111111111101000001
00000000000000010111
00000000000000011101
00000000000111110110
00000000000001000101
11111111111101111111
11111111111110100100
11111111111000011010
00000000000011001100
00000000000001110100
11111111111101110100
11111111111100000100
11111111111111011100
00000000000011100011
00000000000101000111
11111111110100000000
11111111110101001001
00000000000001010010
11111111111010010000
11111111111001010010
11111111110101011011
11111111111101111010
11111111111010011010
00000000000100001010
11111111111110010110
00000000000100011001
00000000000110111010
11111111111111000110
00000000001001010101
00000000001001110100
00000000000010100111
11111111111111111111
00000000000100000000
00000000000110100000
00000000000000000000
00000000000000000000
00000000000000000000
00000000000000000000
00000000000000000000
00000000000000000000
00000000000000000000
00000000000000000000
00000000000000000000
00000000000000000000
00000000000000000000
00000000000000000000
00000000000000000000
00000000000000000000
00000000000000000000
00000000000000000000
00000000000000000000
00000000000000000000
00000000000000000000
00000000000000000000
00000000000000000000
00000000000000000000
00000000000000000000
00000000000000000000
00000000000000000000
00000000000001111011
11111111111001111100
11111111111110111001
11111111110110110101
11111111111100100101
11111111111101110010
11111111111101110001
11111111111010000010
00000000000000110011
00000000001000001000
00000000000001110000
00000000000100101100
00000000000101001001
00000000000011000101
11111111111111111000
00000000000101101011
00000000000110100000
00000000000100001001
00000000000001001110
00000000000011010000
11111111111111011110
00000000000111110101
00000000000110110110
00000000000100110000
11111111111111010000
00000000001000010101
11111111111110111111
00000000000000100111
00000000000000000011
00000000000101111110
00000000001010010110
11111111111100100011
11111111111101111011
11111111111110011110
00000000001101101001
11111111111100111100
11111111110110111011
11111111111000110000
11111111111110111010
00000000000001000000
11111111110110001010
11111111110011011110
11111111110010000001
11111111111110000011
00000000000101111011
11111111111011111000
11111111111110000110
11111111111000001001
11111111111110000111
00000000000100111001
00000000000101110111
11111111111000000000
11111111110111101100
11111111111011100111
00000000000001111110
11111111111110100010
00000000000101001111
00000000001000010000
00000000000100110001
11111111110111011111
11111111111100101010
00000000001010010000
00000000001111100101
00000000000011000011
11111111111111000101
00000000000010110111
00000000000101000101
00000000000110100000
11111111111111100110
00000000000011101100
00000000000000011111
00000000000101000100
11111111111101010101
00000000000110011111
00000000000101010110
00000000000110101110
11111111111110100100
11111111111111111000
11111111110101110100
00000000000011111000
00000000000110100100
11111111111000111000
00000000000010110000
00000000000010110111
00000000001010111100
00000000000111011101
00000000000001101110
00000000001001000010
00000000000000111011
00000000001110010111
00000000000101001110
00000000000001001110
11111111111100110000
00000000000111111001
00000000000100101010
11111111111110110110
11111111111001110010
11111111110110001001
11111111111010011111
11111111111011010111
00000000000111000010
00000000001011001100
00000000000001111111
00000000000000000101
00000000000000111111
00000000000011100101
11111111111111110001
11111111110010000001
11111111110011001100
11111111111010110011
11111111111000000010
00000000000000010100
11111111111110100111
00000000000010101100
11111111111111011111
00000000000010011001
00000000000100010010
00000000000110000111
11111111111111101111
00000000000010111000
00000000001010010101
00000000001010110010
00000000000010011110
11111111111011101001
00000000000101101011
00000000000000000000
00000000000000000000
00000000000000000000
00000000000000000000
00000000000000000000
00000000000000000000
00000000000000000000
00000000000000000000
00000000000000000000
00000000000000000000
00000000000000000000
00000000000000000000
00000000000000000000
00000000000000000000
00000000000000000000
00000000000000000000
00000000000000000000
00000000000000000000
00000000000000000000
00000000000000000000
00000000000000000000
00000000000000000000
00000000000000000000
00000000000000000000
00000000000000000000
11111111111011011001
11111111111001101011
00000000000100100101
00000000000011110100
00000000000001110001
11111111111110111001
11111111111011101100
00000000000011000000
00000000000000000011
11111111111110111101
11111111111111100001
00000000000101011000
00000000000100110001
00000000000011111011
00000000000101001110
11111111111111100001
00000000000100100000
11111111111011111001
11111111111111011010
11111111111101011011
00000000000001001010
11111111111011000001
00000000000011010000
11111111111001011101
11111111111010011001
11111111111011110100
00000000000110001110
11111111111100101111
11111111111010010001
00000000000110101100
11111111111111010111
11111111111010010000
11111111111001010111
11111111111010001001
00000000000010110110
11111111111110000010
11111111111110010010
00000000000100101010
11111111111101111001
11111111111101011010
00000000000001111010
11111111111110101011
00000000000001001010
11111111111100000111
00000000000110100010
11111111111100000100
11111111111011100000
11111111111111000110
11111111111110110000
11111111111001101000
00000000000101011110
00000000000010110001
00000000000001110001
11111111111001111111
11111111111001111001
11111111111101110001
00000000000001101010
00000000000001101110
11111111111011111010
00000000000011111011
00000000000100011111
00000000000110101110
00000000000101010111
00000000000101011000
00000000000000111010
00000000000111001000
11111111111110100011
00000000000101101011
11111111111011001101
11111111111111011000
11111111111101000101
11111111111010001010
00000000000100011100
00000000000001010110
00000000000011011110
11111111111001101001
00000000000000010100
00000000000100011101
11111111111101101010
00000000000101011100
11111111111010001101
00000000000011001110
11111111111001110100
11111111111011101011
11111111111100010101
00000000000100111001
11111111111100111011
11111111111101011110
11111111111100100011
00000000000001110111
11111111111100010111
11111111111101001100
00000000000010001100
11111111111010011010
00000000000000110110
11111111111110111101
11111111111010110101
00000000000011001111
11111111111101101111
11111111111111001000
00000000000000100010
00000000000001010000
11111111111001000010
00000000000000111001
11111111111101000101
11111111111011110011
11111111111110101101
00000000000010100001
11111111111101101100
11111111111111100010
11111111111110100110
11111111111010101111
11111111111001100110
11111111111100001000
11111111111001011101
00000000000101000100
11111111111111010100
11111111111010100010
00000000000010111001
00000000000000001001
00000000000011010000
00000000000001100000
11111111111001011101
00000000000001001110
00000000000000101100
00000000000000000000
00000000000000000000
00000000000000000000
00000000000000000000
00000000000000000000
00000000000000000000
00000000000000000000
00000000000000000000
00000000000000000000
00000000000000000000
00000000000000000000
00000000000000000000
00000000000000000000
00000000000000000000
00000000000000000000
00000000000000000000
00000000000000000000
00000000000000000000
00000000000000000000
00000000000000000000
00000000000000000000
00000000000000000000
00000000000000000000
00000000000000000000
00000000000000000000
00000000000001101100
00000000000010010100
00000000000010100011
11111111111000110101
00000000000010001010
00000000000011101100
00000000000010100100
11111111110111101001
00000000000100101100
00000000000101111100
11111111111000000011
00000000000010001111
00000000000011100100
11111111111011110011
00000000000101100111
00000000000001010100
00000000000111100101
00000000000000010001
00000000000100010010
11111111111000101100
00000000000011101010
00000000000111110100
11111111111110001010
00000000000000011100
11111111111111010000
00000000001000100010
00000000000101100010
00000000000011110100
00000000000000011111
00000000001000010011
00000000000010110100
00000000000010001111
00000000000010010011
00000000001000001001
00000000001010001010
11111111111100111000
11111111111111110101
00000000000000101111
00000000000100000111
00000000000110111011
11111111111001011111
11111111111000101000
00000000000000011000
11111111111100101101
00000000000100010010
11111111111000110110
11111111110110110001
11111111110110000001
00000000000011100100
00000000000111101110
11111111111101011101
11111111111100001010
11111111111101000010
11111111111100010110
00000000000001101100
11111111111010010001
11111111111100100101
11111111111010100110
11111111111111001001
00000000000011010000
00000000000010110010
00000000000111000000
00000000000111010110
11111111110110101001
11111111111011010110
00000000000011010100
00000000000110100011
00000000000100001000
00000000000011110100
11111111110111111011
00000000000010010010
00000000000000100101
00000000000100111101
11111111111111110000
11111111111111001000
11111111111001111111
00000000000010100100
11111111111101010000
11111111111111010011
11111111111011101110
00000000000100111101
11111111111000010000
11111111110110110011
00000000000100101110
00000000000111010111
11111111111100001000
11111111111011110100
00000000000010101010
00000000000111100100
00000000000110011000
00000000000010110001
11111111111101011110
11111111111111000110
00000000000011100111
11111111111111100111
00000000000011111100
11111111111010010111
00000000000010110111
11111111111010011100
00000000000100101101
00000000001001000110
00000000000110110111
00000000000111010101
00000000000011110000
00000000000001010110
00000000000110100000
00000000000010011100
00000000000100100000
00000000000011010101
11111111111000001000
00000000000000110101
11111111110011010110
11111111110111111111
11111111110111110100
11111111110111011111
00000000001000000111
00000000000011110101
00000000000011001110
00000000000001110010
00000000000101010001
00000000000100001101
00000000000110111011
00000000000001000100
11111111111100011101
00000000000011111000
00000000000000000000
00000000000000000000
00000000000000000000
00000000000000000000
00000000000000000000
00000000000000000000
00000000000000000000
00000000000000000000
00000000000000000000
00000000000000000000
00000000000000000000
00000000000000000000
00000000000000000000
00000000000000000000
00000000000000000000
00000000000000000000
00000000000000000000
00000000000000000000
00000000000000000000
00000000000000000000
00000000000000000000
00000000000000000000
00000000000000000000
00000000000000000000
00000000000000000000
11111111111101100110
00000000000001101001
11111111111100111111
00000000000001011101
11111111111011100100
00000000000101110010
00000000000001000110
00000000000000110101
11111111111100010010
11111111111010011111
11111111111101011011
00000000000101110111
11111111111011101101
11111111111001011001
00000000000100110100
11111111111110011111
00000000000001011010
00000000000100000110
11111111111111011111
00000000000001100010
11111111111010110010
11111111111111000111
00000000000100010011
00000000000000000010
11111111111100100110
00000000000011101101
11111111111010111110
00000000000101110100
11111111111100101100
11111111111101101001
00000000000001101000
00000000000011101000
11111111111010100011
11111111111111100010
11111111111011100000
11111111111101010100
00000000000110100111
00000000000101101011
11111111111101000110
00000000000101111110
00000000000000011110
11111111111011111010
00000000000001110100
11111111111010100101
00000000000000110001
11111111111010010000
00000000000010100110
11111111111010011010
11111111111101010100
11111111111011000000
11111111111010110001
00000000000110100110
00000000000101000001
00000000000110001110
11111111111110001001
00000000000001110010
00000000000001110111
00000000000011110011
11111111111111111000
00000000000001010110
11111111111111001110
11111111111100000110
00000000000010111010
11111111111101100011
00000000000010111000
00000000000000011010
11111111111110011110
00000000000110100011
11111111111011111010
00000000000000000000
11111111111011001101
11111111111101001011
00000000000011110001
11111111111010101000
11111111111101000100
00000000000010000001
00000000000100111011
00000000000110011010
00000000000001101110
11111111111010111101
00000000000001011110
00000000000011011010
00000000000000010100
00000000000100101110
00000000000101001011
11111111111011100101
00000000000000000001
11111111111111100001
11111111111100110110
11111111111110101110
11111111111101101110
00000000000101100010
11111111111110010001
11111111111011010111
11111111111010101111
11111111111001011110
11111111111011010100
11111111111010000001
00000000000100000111
11111111111011110000
11111111111101101100
00000000000000011000
00000000000001010100
00000000000010010010
00000000000101110000
11111111111100000001
11111111111100000000
00000000000110100100
11111111111100010011
11111111111100110111
11111111111011101001
00000000000010100101
11111111111100100000
11111111111010011111
11111111111011111011
00000000000110001010
00000000000001001010
11111111111100010101
00000000000110100101
11111111111011101111
00000000000110101101
00000000000100011010
11111111111011000000
00000000000011010110
00000000000010101110
00000000000000000000
00000000000000000000
00000000000000000000
00000000000000000000
00000000000000000000
00000000000000000000
00000000000000000000
00000000000000000000
00000000000000000000
00000000000000000000
00000000000000000000
00000000000000000000
00000000000000000000
00000000000000000000
00000000000000000000
00000000000000000000
00000000000000000000
00000000000000000000
00000000000000000000
00000000000000000000
00000000000000000000
00000000000000000000
00000000000000000000
00000000000000000000
00000000000000000000
