11111111111111101111
00000000001001100011
00000000000101111100
11111111111100100111
00000000000111011001
11111111111100000101
00000000000111110011
00000000001100100001
00000000001000110011
11111111110111111000
11111111110111001001
00000000000101111011
00000000000100110110
11111111111110001000
11111111111011011000
00000000001101011011
11111111111000111011
11111111111011111101
11111111111111110111
11111111111110101110
11111111110110101100
11111111111110011000
11111111111111100111
11111111111111000110
00000000000110101100
00000000001010011101
11111111111100010011
00000000001011000001
11111111111011111011
11111111110111001100
00000000000100000011
00000000000101111000
11111111110011110111
00000000000111111111
00000000000101010100
00000000000000011011
11111111111000111110
11111111111110101101
11111111111100001110
00000000000000011100
11111111111011111100
11111111111101101110
00000000000010001111
00000000000101100101
11111111110110000110
00000000000000100001
11111111111000101101
00000000000001001010
00000000001000110101
11111111111010110111
11111111110111011111
11111111111101111101
00000000000100000011
11111111111000110010
11111111110100010100
11111111111101001011
11111111111111101110
11111111111110000000
11111111111110011010
00000000000110001110
00000000000011011111
00000000000110111011
00000000000001010011
00000000000000101011
00000000001010000110
11111111111101100011
00000000000011001000
11111111110111110110
11111111110110100001
11111111110111110111
11111111111110101101
00000000001010111101
11111111111010110110
11111111111000010100
11111111111111001101
11111111110011100010
11111111110101010111
00000000000111000011
00000000000110101001
00000000000100101001
00000000001110010111
11111111111000010101
00000000001001010111
00000000000001111000
00000000001010011010
11111111111110011100
00000000000010010100
11111111110101100011
11111111110110000001
00000000001011100011
00000000001000110101
11111111111000100101
11111111111110100100
11111111111011101110
00000000001010000011
00000000000010110101
11111111111111100101
11111111111010000111
00000000001011110001
11111111111001100010
11111111111100010110
11111111111111011001
00000000000111001111
00000000000101001000
11111111110101010001
00000000000010001000
11111111111110111001
00000000000010101111
11111111111111000011
11111111110101000011
11111111111010100100
11111111111011100100
11111111111111101111
00000000000111100011
11111111110111100001
00000000000111100111
00000000000101100100
11111111111010011101
00000000000101011111
00000000001001010100
