11111111111110100111
11111111111110011001
00000000001010000011
00000000000011000101
00000000000001110001
00000000000101000111
11111111111110001011
11111111110110101111
11111111110111110000
11111111111010010001
11111111111100010101
00000000000000010110
00000000000010011111
11111111110101111000
11111111110110111000
11111111111011010111
11111111110111110000
11111111110110101101
11111111111110011111
11111111111001111101
00000000000001000001
00000000000100110101
11111111111000100001
11111111111111101010
00000000001001001111
00000000001001000001
11111111110110110100
11111111110101110101
00000000000001001011
00000000001000110010
00000000001011000010
11111111110111001110
11111111111111110110
00000000001100001110
00000000001001000111
11111111111111001101
11111111111011111101
11111111111100110100
00000000001000010110
00000000001000111111
00000000001100000111
00000000001011001010
11111111111010100001
00000000001000010101
00000000000111110110
00000000001001001100
00000000000111010000
00000000000100011101
11111111111001010100
11111111111010001101
00000000001010011100
00000000001000110010
11111111111100100100
11111111110100001111
11111111111111001010
11111111111000101110
11111111111111100100
00000000000110001011
00000000000101001110
11111111110110101110
00000000000001010000
11111111111110011100
00000000000111000011
11111111111100101010
11111111111100001100
00000000001010010101
11111111111101101001
11111111111111111111
11111111110110100000
11111111111010110101
11111111111010001111
00000000000010110111
11111111110111011001
00000000000111110000
00000000001010000100
11111111111111000001
00000000001001110000
00000000000010011100
11111111111111100011
00000000000111001001
00000000001010101000
11111111111001011010
00000000001000011100
11111111111111001000
00000000000001101001
11111111111100111010
11111111110101010110
00000000000010010000
00000000000001000010
00000000001010100100
00000000000100011111
11111111111101110101
11111111111110100111
11111111111100001101
00000000000001011001
00000000000100101100
11111111111100011100
11111111110101011101
00000000000100100110
00000000000010000100
11111111111111011101
11111111111100111101
00000000000100000001
00000000001100001011
11111111111110001111
11111111111111111010
11111111110011011010
00000000000001100101
11111111111100010110
11111111111010010001
11111111111000000101
00000000000111001000
11111111111101000001
00000000000010100110
00000000001100100110
00000000000100000011
00000000000111100110
11111111111100011101
00000000000001011110
00000000001010001010
