00000000000011101011
00000000000001101100
11111111110111010111
00000000000111011001
00000000000100111111
00000000000010101010
00000000001010000001
00000000001010001001
00000000000100001100
11111111110101000110
00000000000110111111
11111111111110000101
11111111111010100001
11111111110110010000
00000000000111101111
00000000000001010101
00000000000001011001
11111111111100010100
00000000000110000010
11111111111110110011
00000000001011101011
00000000000001110110
00000000000000101100
11111111111010110111
11111111111110111100
11111111110101000001
11111111111100110000
00000000000110011111
00000000000010100000
11111111111011111010
11111111111110100011
11111111111101101101
11111111111111001111
11111111110110010000
00000000000101101110
11111111110101100111
11111111111001110011
11111111111110001101
11111111111010101010
11111111111100101111
00000000000110111001
00000000000110100110
11111111111000001100
11111111110111011000
00000000001100110111
11111111111010011010
00000000000100000011
11111111110100011110
11111111111000111110
00000000000010010101
00000000000110011000
11111111110100111011
11111111110100111110
11111111111000110101
11111111111101011000
11111111111000101000
00000000000011000101
00000000000110110001
00000000000000100111
11111111110100100000
00000000000001111010
00000000001001000011
00000000000000010010
00000000000000011011
11111111111110010101
00000000000100110100
11111111111000010000
00000000000111110010
11111111111010111001
00000000000111100000
11111111111111001101
11111111110110001001
00000000000010011100
00000000001000010000
11111111111101011000
11111111110100110111
00000000001010100100
00000000001010011110
11111111111001110010
00000000001010011010
11111111111000001001
00000000000000010101
00000000000111100111
00000000000100010100
11111111110111110000
00000000001001011101
00000000001000011101
11111111110111001110
11111111111010001001
11111111111010101110
00000000000110011110
00000000000000110110
00000000000111111110
00000000000111110111
00000000001000100011
11111111110111001100
11111111111001110101
11111111110110110010
11111111110110100110
11111111111000010100
00000000000100101010
00000000000101001110
00000000000010011100
00000000000100111101
00000000000100100000
00000000000010001111
00000000001011000101
11111111111101111010
11111111111000000101
11111111110110101001
11111111111001010011
00000000000001000010
11111111110110010111
00000000000100110110
11111111110110111000
11111111110111001100
11111111111101110100
11111111110101000110
11111111111110100100
11111111111001111000
