00000000000111000011
00000000000101110000
11111111111111111101
11111111110110001010
00000000000001101111
11111111111000110001
11111111110111110111
00000000001001011110
00000000001011011110
11111111110110001100
11111111111010010111
00000000001000110001
11111111110100110010
11111111111110000000
11111111111111010000
00000000000001110100
11111111111101100010
00000000000010001111
11111111111111111100
00000000001000010100
11111111110110011010
11111111110110111101
00000000000011100011
00000000001001010100
11111111111101001001
00000000000100111011
00000000000111001010
11111111110110010101
11111111110101000001
00000000000111010011
11111111111111000100
00000000000000001110
00000000001110000001
11111111111101111110
00000000000101111001
11111111110111100111
11111111111001110101
11111111110101001010
00000000000100011100
11111111111110000010
11111111110101101000
11111111110111111000
11111111110111110001
11111111111110110111
11111111111011011011
00000000001101001100
11111111110011110101
00000000001010110010
00000000000010000010
11111111111011110100
00000000000101110000
11111111110100100110
00000000001010011101
11111111111101110111
00000000001000111110
00000000000010001010
11111111111100000100
11111111111001100111
11111111110111001001
11111111111111101111
00000000001011011110
11111111111111011111
11111111111011001100
11111111111001110001
00000000000000101010
00000000001000001011
11111111111000010011
00000000001000110101
11111111111000011101
00000000000101011001
00000000001001011000
00000000001100001110
11111111110110100111
00000000001000111100
00000000000010100101
00000000001001010100
00000000001000101011
11111111111100011010
00000000000001000101
11111111111111011110
00000000001000110100
11111111110101010110
11111111110101011010
11111111111111001100
11111111111011111101
11111111111010101001
11111111110101011000
00000000000011110110
11111111111101111000
00000000000111100111
11111111111100011100
00000000000011010110
11111111110010101101
11111111111000100100
00000000001010110111
00000000001010101100
00000000001001000001
00000000000111101001
00000000001010100010
11111111111111111100
11111111111000010010
11111111111110000011
00000000001100011001
00000000000001011110
11111111110111000000
00000000000100011001
11111111111110010011
11111111111101111010
11111111111001000001
11111111111111000010
00000000000011010100
00000000001001111001
00000000001010011000
00000000000111101000
00000000001010000001
00000000000010001000
11111111110111110001
00000000001011001010
00000000000101001111
00000000000001101100
