11111111111000110000
00000000001011110000
11111111110111000011
11111111111110111101
00000000000001110101
11111111111010110001
00000000001000001111
11111111110110101100
11111111111111001111
11111111110111001000
11111111111000100001
11111111111000011100
11111111110111100010
11111111110111100101
11111111111111001101
00000000000001101110
00000000000111110101
00000000001010000001
00000000000000000000
00000000000011111111
11111111111001010001
11111111111100101000
11111111111100010100
11111111110110111111
11111111111101010001
00000000001011100101
00000000000110010101
00000000001010100101
00000000000101101110
11111111111100001010
00000000001000110010
00000000000100111000
00000000000001011100
11111111111110001010
11111111111100111001
11111111111001000111
11111111111100010010
00000000000011101011
00000000000111010001
11111111111000011011
11111111111000111100
00000000000100001000
11111111111101101011
00000000000101100110
11111111110101011110
11111111110101100111
11111111111001101010
00000000001001110011
00000000001100000011
00000000000001001100
11111111111000110101
00000000001101000100
00000000000000000101
00000000000010011100
11111111111101001110
00000000000000111011
00000000001010000011
00000000000011000011
11111111111000000110
00000000001001110011
11111111111001110010
00000000001101001001
11111111111010010010
00000000000011100101
11111111111000101110
11111111110111010010
11111111111111010010
11111111111110001010
00000000000100010101
00000000000101001010
00000000001001100001
00000000001000001000
11111111111011001111
11111111111100100000
11111111111011010001
00000000000001000000
11111111111011110100
11111111111101000100
11111111111000010001
11111111111011101000
11111111111110110011
11111111111100001000
11111111110111100100
00000000000001111110
11111111111111111110
11111111111100011011
00000000000010001011
00000000000100100101
00000000000110010001
00000000000000001100
11111111110110010001
11111111110010110111
00000000000110001010
00000000000000111100
00000000001000110100
00000000001000001110
00000000000110111111
00000000001000010100
00000000000101100110
11111111111111110110
11111111111001010101
00000000001001011010
11111111110111101100
11111111111100011100
00000000001010011100
00000000000100001100
11111111110111010100
11111111111110110100
11111111111001000000
00000000000001110100
00000000001100010101
00000000001100100011
00000000000110011011
00000000000000110100
11111111110111000111
11111111110111000000
11111111111110110110
00000000000001100101
00000000001011101010
11111111111011111001
