00000000000010000110
00000000000101011000
00000000001101000010
00000000000001000111
00000000000111111100
11111111110111101101
11111111111101011101
00000000000011100100
11111111111000000100
11111111111110111111
11111111110111111100
11111111110110000101
00000000000110010011
11111111111110000101
11111111111101000110
00000000000100000011
00000000001000100001
11111111110110000110
00000000001011001010
00000000000101001000
11111111111010001010
11111111110110011011
00000000000100100000
11111111111100110000
11111111111101100110
11111111110110110111
00000000000000101000
11111111111011001011
11111111110111111011
00000000001011111000
00000000001010000011
11111111111111010000
11111111111001111100
11111111110111001100
11111111111111101101
11111111111001001110
00000000000111010011
00000000001100011011
00000000000101111011
11111111111110111111
11111111110111101101
11111111111001001110
00000000000010110010
00000000000101100011
00000000000000010110
00000000000000111010
11111111111001111110
00000000001010011000
11111111111100001000
11111111110111111010
00000000001001101001
00000000000001000011
00000000000010000101
00000000001001110100
11111111110110001001
11111111111110000101
11111111111110101110
00000000001010100000
00000000000100000011
00000000000011000100
11111111111010101110
00000000000100101001
00000000000010000100
00000000001000010110
00000000001001010101
00000000001010101000
00000000000101101111
11111111111011011001
00000000000100111111
11111111110111000001
00000000000010011100
11111111110110111011
11111111111000101011
11111111111110110011
11111111111110010101
00000000000001010010
11111111111111001101
11111111111000011110
00000000000001110111
11111111111100001010
00000000000101100101
00000000001100100011
11111111110101011111
11111111111111000000
11111111111100110010
00000000001011001111
11111111110111001111
00000000000001110100
11111111111000111101
11111111111001110101
11111111110111111110
11111111111001110001
00000000001001010001
11111111111001001111
00000000000111010101
11111111110111000011
00000000000110011100
00000000000010011011
00000000001010011010
00000000001011000001
00000000000011011110
11111111110101111010
00000000000100000010
00000000001010100110
11111111111011011010
11111111110111000000
11111111111001110001
11111111111111011100
11111111111010110000
00000000001001110101
11111111111111011101
00000000001011101110
00000000001001111010
11111111111100001001
11111111111010110010
11111111111000001110
00000000000000000010
11111111111111111110
00000000000111100111
00000000001001101001
