11111111111010000000
00000000000011000110
11111111111101111110
00000000001001111000
00000000000111010101
00000000000000001011
00000000001010111000
00000000001000011101
00000000001001011111
11111111111011100101
11111111111101010111
11111111111101010101
11111111111111011110
00000000001010100011
00000000000010001110
00000000000101011110
00000000000001010101
00000000000011011100
11111111111111000100
11111111110110101010
00000000000101011110
11111111111110111011
11111111110101001101
11111111111001110101
00000000001000110000
00000000001010000110
00000000001001000011
00000000001010101001
00000000000110100010
00000000000101100101
00000000000110111101
11111111111011100111
11111111111101000100
00000000001000100111
00000000000100010100
00000000000010100100
11111111111000000000
00000000000001100010
11111111111011110111
00000000000111101000
11111111111000111101
00000000000111011011
00000000000110111110
11111111111100001010
11111111111101000110
11111111111010010110
11111111111111111011
11111111111101100001
11111111111001101011
11111111110101001101
00000000000000010011
11111111111000111001
00000000001001011001
00000000000000101100
00000000000011100101
00000000000011010100
00000000000111100001
11111111111001011011
11111111111011011100
11111111111010100110
11111111111111101001
11111111111010110000
00000000001010010001
00000000000111100000
00000000001010100000
11111111110111010000
00000000001000111100
11111111111101010101
00000000000101000011
00000000000011101110
00000000000001110000
11111111110110100101
11111111111000000001
11111111111100101110
11111111110101110101
11111111111101111001
00000000000111011111
11111111111001000000
00000000001010010000
00000000000001000101
11111111111001011001
00000000000100101110
11111111111111001000
11111111111011010000
11111111111010100010
00000000000110001010
00000000001000000010
00000000000110111000
00000000001010001000
11111111110101101110
11111111111100010000
11111111111100111110
11111111110111011111
00000000000101000001
11111111110110010010
11111111111010011100
11111111111000001011
11111111111000110110
11111111110101101110
00000000001010101010
00000000000101111000
11111111110111011011
11111111110100110110
11111111111101100101
00000000000100000101
11111111110111000110
00000000000011111101
00000000000111111010
00000000000111010111
00000000000000010100
11111111111011100111
11111111110111110110
00000000001001000001
00000000000101100110
00000000000000011100
11111111110110110101
11111111111101110000
00000000000111101001
00000000000110101000
11111111111000110111
