00000000000000101101
00000000000111000101
11111111111101010010
00000000001010001100
00000000000110001110
11111111111011111010
00000000001000100001
11111111111111100001
00000000001001000100
11111111111000100011
00000000001001101111
00000000001010110000
00000000001100011011
11111111111100111111
11111111110110100111
11111111110110101101
11111111110100011110
11111111110111110001
11111111110111011000
11111111111110111011
00000000000110111001
11111111111100011000
11111111111101100010
11111111111110101100
11111111111001111100
11111111111111111011
00000000000101110000
00000000001001010111
00000000001010100101
00000000001011000010
11111111111011111000
00000000000101111010
11111111111000010010
11111111110011100011
00000000000110010010
11111111111000111000
00000000001000011110
11111111111111000100
11111111111000111011
00000000000110111001
11111111110101100110
11111111110110100010
00000000001010000100
11111111111001111001
11111111110111011010
11111111111000101000
11111111111000101110
11111111111100101010
00000000000001001000
00000000001010111111
00000000000010001011
00000000000010111010
11111111110001111110
00000000000011010011
11111111111001001011
11111111111010010100
00000000000100001110
11111111111000011010
11111111111100111101
00000000000011001010
11111111110101101000
11111111111101011010
00000000000110010010
11111111110111000111
11111111111010000011
00000000000100110100
00000000000111010101
11111111111100001111
00000000000001011100
11111111111100011011
11111111111010010111
11111111110111010111
00000000001001001000
11111111111011001011
00000000000111010001
11111111110111100010
11111111111011010100
11111111111000111000
11111111111111110100
11111111111001111101
00000000000001110011
00000000001001000011
11111111111001100001
00000000000100111111
00000000000111001000
00000000001001111000
00000000001000000101
00000000000011001101
11111111111011111111
00000000000111001010
11111111111011010111
00000000001001001100
11111111111011111001
00000000001100100001
11111111110111011111
11111111111110101010
00000000000101010001
00000000001000001110
00000000001100011011
00000000001000010111
00000000000101010101
11111111110111110000
00000000001000001001
00000000000101010001
00000000001000001111
11111111111000010000
00000000000111000101
00000000000100010111
11111111111110001111
00000000001000010101
00000000001001011100
11111111111111101000
11111111110101111111
11111111111010111000
11111111111001001011
11111111111101110110
11111111111111100110
11111111111000001001
00000000001011101010
11111111110100010011
