00000000000110001010
11111111111001011000
11111111111110011010
11111111110101101010
00000000001010011010
11111111110011010110
11111111110101100100
00000000000011010000
11111111110100110000
11111111111011000110
00000000000000111101
00000000000001000100
00000000001001010001
11111111110011000100
00000000001101011100
11111111110110011101
11111111111110111100
00000000000001111111
11111111111111001000
11111111110111100001
11111111111100100000
00000000001001011001
00000000001010011111
00000000000110001101
00000000000101000011
11111111111111111010
11111111111000001111
11111111111011100001
00000000000110110100
11111111111010000011
11111111110110110101
00000000000101000000
00000000000000100010
11111111110111010011
11111111110111111011
11111111111010011011
00000000001010010110
11111111110100110010
11111111110101111011
00000000000100001101
11111111111010000111
00000000000011110001
00000000000110100010
11111111111001011110
11111111111111011001
11111111111111010100
11111111111011010011
00000000000010101001
00000000000111001100
00000000001101111101
00000000001000000011
00000000000110111111
00000000001010001101
11111111110110001010
00000000000010101100
11111111111010011110
00000000000010010111
00000000000000111101
00000000000101001001
11111111111101100100
00000000000111010000
00000000001100100011
11111111111011100000
11111111110101101011
11111111111111011110
11111111111101101100
00000000000010101010
00000000000111110000
00000000001011000101
00000000001010111001
11111111111110011100
11111111111001011111
11111111111010001001
00000000000011110100
00000000001000000000
00000000000101010010
11111111110110001001
00000000000111010001
00000000001001110011
11111111110101100010
11111111110100100100
00000000001000101001
00000000001011000001
11111111111100011000
00000000000111101010
11111111111011110011
00000000000101110010
11111111111100001010
00000000000010100001
11111111110111111101
00000000001000001010
11111111110111111000
11111111111001001010
11111111111011110111
00000000000000101010
11111111111000011110
11111111111010111011
00000000000011011010
11111111111100101010
00000000000101010111
11111111110111111101
00000000000110001001
00000000000101100000
11111111111011101000
00000000000110100000
11111111111011101110
00000000000111111100
00000000001001101000
11111111110111100000
00000000000101011011
11111111111010110100
00000000001010101101
00000000000110001010
00000000000111010100
11111111111010000010
11111111110101111000
11111111111000100010
11111111111110101001
11111111111000101100
00000000001001011010
