00000000000111111001
00000000000010100111
11111111111010011011
00000000000110110000
00000000000010000000
00000000000100010111
11111111110101000111
00000000000000110011
00000000000011110001
11111111111000010010
00000000000000100001
11111111111101100010
11111111111100001000
11111111110110100010
00000000000010001110
00000000000110110110
11111111111100000101
00000000000100110010
00000000000100010011
11111111110110000111
00000000000100101011
11111111111011000101
00000000000001101110
00000000001001000000
11111111111000000001
11111111110110110111
00000000000000111001
11111111110110100001
00000000000111011001
00000000000111101011
00000000000110010010
11111111111110001001
11111111110111100111
11111111111101010001
00000000000000010110
11111111111111111101
00000000000010011000
00000000001010101101
11111111111101100011
00000000001001110011
00000000000001101000
11111111110110001010
00000000001010100111
11111111110111010100
00000000000110000010
00000000001011100011
11111111111101001011
11111111111100101100
11111111110111101111
00000000000000010001
11111111111010000100
11111111111000111101
11111111111011000000
11111111110111001101
00000000001010100010
11111111110101001110
11111111111101110111
11111111111010010111
11111111111110111011
11111111111011110001
11111111111111100101
11111111111100100111
11111111111010110000
00000000000101110001
11111111110101101000
11111111111100111100
11111111111110011011
00000000000010011000
11111111111000111100
11111111111110010010
00000000000110000001
11111111111100101000
00000000001010101011
00000000000010100001
00000000000010111001
00000000000100101100
11111111111001111010
11111111111110100100
11111111110111000011
11111111110110111110
00000000000001010100
00000000000000011111
00000000000000011000
00000000001001110010
11111111110101000110
11111111110111011110
11111111111111011011
11111111111000011001
00000000000110100000
00000000000010000100
11111111111111001000
00000000000011010110
11111111111101100001
00000000000110010110
11111111110101101011
00000000000000110001
00000000001001010110
00000000000000100111
00000000000000111010
00000000000010011011
00000000000010111111
11111111110101110100
00000000000011101110
00000000000010000101
00000000000010101000
00000000000010100001
11111111111000000100
00000000000101100010
11111111111110010110
11111111111101000010
00000000001000111110
11111111110111100110
00000000000010100001
11111111110110001101
00000000000100000110
11111111110111100110
00000000000010010101
11111111111111001010
11111111111111101111
00000000000101010011
