11111111111011110111
00000000000111111110
00000000001001101011
00000000000100011001
11111111111101001011
00000000000100110101
11111111110110001111
11111111111100010011
11111111111000101101
11111111111110010100
00000000000110011101
00000000001000110011
11111111111011101010
11111111111000000101
11111111111001100011
11111111110111110100
11111111110110101110
11111111111101100100
11111111111010101010
00000000000110101100
00000000000101111101
00000000000000111100
11111111110111110101
00000000000100011101
11111111111111110101
00000000000001011000
00000000000110010111
11111111111010010000
00000000000101011100
11111111110110101110
00000000000100111101
11111111110111101101
11111111111100001000
00000000001011110100
11111111111001011001
00000000000000100100
11111111111111010000
00000000001010111101
00000000000001101111
00000000001010111010
00000000000110100101
00000000001010010101
00000000000101010000
11111111110100100100
00000000000101110110
11111111111000110110
00000000001001010111
00000000001001010011
00000000001001111111
00000000000100101101
00000000000010011011
00000000000001000100
00000000001100101111
11111111111001111111
11111111110101000100
00000000000111101001
11111111111000101101
00000000001011000010
00000000001011000000
00000000000011101110
11111111110110010011
11111111111000010110
11111111110101000111
11111111111111101000
00000000000101001100
11111111111001001110
00000000000110000101
11111111111110100100
11111111111100100100
11111111111011001011
00000000000000111000
00000000001011010100
11111111111010100010
11111111111010100001
11111111111001010001
11111111110100100001
00000000001011001001
00000000000101100000
11111111111101101011
00000000000111011010
00000000001001001001
11111111111001101000
00000000001001101001
00000000000010011001
11111111111110100000
11111111111001110101
11111111111000100000
11111111111111101011
00000000000011111100
00000000000011000001
11111111111001000010
11111111110010011010
00000000001011100000
00000000000101011101
00000000000110001000
00000000000000101001
11111111111101001001
11111111110110011111
11111111111011010110
11111111111010100011
11111111111000111101
11111111110111100111
00000000001001110000
00000000001001011000
00000000000011000100
11111111111010011010
11111111111110110110
00000000001001001110
11111111110110110101
00000000000101011001
00000000000001001100
00000000000011111010
00000000001000111100
00000000000000100111
00000000000001101010
11111111111010101000
11111111111011111010
11111111110111010111
11111111110111010101
00000000000100111110
