00000000001001101000
00000000000011110110
00000000001001110000
11111111111111000000
00000000000001010101
11111111110110110101
11111111111011001000
11111111111110001000
00000000000001000010
00000000001000011011
00000000000111000111
00000000000010111101
11111111111000101100
00000000000010111011
00000000000111011000
00000000000101011010
00000000000001101100
11111111111111111000
11111111111110001010
00000000001011011010
11111111110111001100
00000000000010000000
00000000000110101011
11111111111111010011
00000000000011001101
11111111111101110011
11111111111010010111
11111111110111010110
11111111111100011001
00000000000011000111
11111111110110000100
11111111111000010001
00000000000000111000
00000000000101011101
11111111111010111011
11111111111000101001
00000000001000101011
11111111110100111111
11111111111100010010
00000000001000101010
11111111111100111010
11111111110111100111
11111111111011100111
00000000000111000110
00000000000101010000
11111111111000010111
00000000000100001010
00000000000010010001
00000000000010001101
00000000000100100000
11111111110111101011
11111111110100111110
00000000000010010001
11111111111100100111
00000000000101010101
00000000000010011001
11111111110111110111
11111111110101010000
00000000001000010010
00000000001011011100
00000000001100010011
00000000000000110101
11111111111010010000
11111111110110011010
00000000000100111110
11111111111100111100
00000000001001010010
00000000001001010001
00000000000000010000
00000000000111010100
11111111110110101111
11111111111110111010
11111111110111000010
00000000000111010000
00000000001001010011
00000000000110001001
00000000001000010100
11111111111001010001
11111111111001100001
00000000000101101110
00000000001000100110
00000000001001001100
00000000001001110101
00000000001000000101
11111111111100111001
00000000000101001111
00000000000110101000
00000000000110100011
00000000000111010010
11111111111011111011
00000000001000011001
00000000001010111011
11111111111000111101
11111111111011011001
11111111111100100010
11111111111001110010
11111111110110010011
00000000001001011110
11111111111100110000
00000000000010010100
00000000000101010000
00000000000000100100
11111111111001111101
00000000000111001111
00000000001000101101
11111111111010000001
11111111111101010101
00000000000100110111
11111111111001011001
11111111111110011101
11111111111111101010
00000000000011100001
11111111111001101010
11111111110110011010
11111111111111011110
00000000000011010110
00000000001100010101
00000000000101100011
00000000001010110101
00000000001000110010
