00000000001001011011
00000000000111000001
11111111111011100000
11111111111101000110
11111111111101110110
00000000000110000011
11111111111001010110
11111111110111111110
11111111110111001001
11111111111100000110
00000000000000101110
11111111111001101100
11111111111101011000
11111111111000101001
11111111111100010001
11111111111011100001
00000000001010101111
00000000000110111011
11111111111110100011
00000000001010001100
11111111111101101001
00000000001000010110
00000000001001000110
11111111111001111000
00000000001000000101
00000000000100100101
00000000000110001111
00000000000000010110
11111111111010010011
11111111111001001100
00000000001000110000
11111111111110101001
11111111110100010001
00000000000000000110
00000000000001111100
00000000000101010000
00000000000100000100
11111111110101111110
11111111111011101111
11111111110111000100
00000000000111000101
00000000000101110001
00000000001001110011
11111111111001101101
00000000000000110001
11111111111100000111
11111111111000000010
00000000000001111100
00000000001010000100
11111111111010000001
11111111111110001111
00000000000001000100
00000000001011001001
11111111111000011000
11111111110010000100
11111111111111110001
11111111111111010100
11111111111010111000
00000000001010100011
00000000001000100101
00000000000010101101
00000000000000010100
00000000000111010000
11111111111101010111
11111111111000101001
00000000001001111101
00000000000010111010
00000000000010100001
00000000000010111101
00000000001010110010
00000000000100011001
00000000000100000001
11111111111010101100
00000000001000101111
00000000001001110010
11111111111100000010
11111111111011101011
00000000001001000100
11111111111100101011
11111111111111010010
11111111111110000111
11111111111000010100
11111111111100011101
11111111110110111001
00000000001011010101
11111111111011100000
00000000000111001001
11111111111110101110
00000000000100110010
00000000000110110001
00000000000101110000
00000000000000000010
00000000000111001010
11111111110101101000
00000000000100000101
11111111111100111011
11111111110101110110
00000000001000110000
00000000000011101010
00000000000000011010
00000000000110011001
11111111111111101101
11111111110110001110
11111111111010001000
00000000000000100001
00000000000101100111
00000000000001101101
00000000001001100110
00000000001010001001
00000000000111000000
11111111111000001110
11111111110110110100
11111111111011011000
11111111111110100011
00000000000111010001
11111111111010101011
11111111111000101111
00000000000000101010
00000000000010101001
11111111111001011011
