00000000001001001100
11111111110110111111
00000000001010110111
00000000000110011100
00000000001010111010
11111111111111000001
00000000001010011100
00000000000011000101
00000000000111000111
11111111110110000010
00000000000001000010
11111111111000010011
11111111110011110111
11111111110101001111
00000000000101111101
11111111111101011010
00000000001011100000
11111111111001111001
00000000001001000011
00000000001100101000
00000000001000111001
11111111110111011100
00000000001000100000
00000000001000100000
11111111111000101001
00000000000110000010
00000000001010110001
00000000000011010111
11111111110111000000
00000000001010101111
11111111111000110010
00000000000011010001
00000000000000111011
00000000000001101011
11111111111010001001
00000000000111001101
00000000000011110110
11111111111011001001
11111111111000100101
11111111111101111110
11111111111110000101
00000000000011110101
00000000000111010001
11111111111100101100
11111111111001111111
00000000000110000110
00000000000010011110
11111111110110011011
11111111111100010101
00000000000111110101
00000000001001101100
11111111111110001110
11111111111101100000
00000000000010101101
00000000001001101110
00000000000001110010
00000000001011101000
00000000000110101010
00000000000000000110
00000000000011000001
00000000000100000011
00000000000110000011
00000000000110000001
11111111111101001100
00000000000001100010
11111111111011100111
11111111111001010001
00000000001000110111
11111111110110000101
00000000001001000111
11111111111000101111
11111111110110001110
00000000001010001011
11111111110110110000
11111111111011101100
00000000000101010010
11111111111101101010
11111111111110001010
11111111110110111100
11111111111000011001
11111111111010100010
00000000001001000110
11111111111011101000
11111111111111001011
00000000000100110010
00000000001010100101
00000000000011100010
11111111110101011000
00000000000100000000
11111111111110111110
00000000000111101100
11111111111001001010
11111111111101111110
00000000001100010011
00000000001001111001
00000000000010001000
00000000000111101111
11111111111010001011
11111111111000010110
00000000001001000110
11111111111000010011
11111111111100001011
00000000000001100111
00000000000110001000
00000000001000111100
00000000001001000100
11111111110101010000
11111111111010110111
00000000000111000000
00000000001010100000
00000000001010111110
00000000000110011010
00000000000100000011
11111111111000011100
11111111111010000000
00000000001000101111
00000000000011000011
00000000000011000100
00000000000001111111
11111111111100111011
