00000000001001111001
00000000000000110000
11111111110111000101
11111111111100110010
11111111111100011001
11111111110110001001
00000000000010100010
11111111111011111000
11111111110110011000
11111111111010101000
11111111110110001001
11111111111001101100
00000000000110101111
00000000000010011101
00000000000111001001
11111111110111010101
11111111111111110001
00000000001010110101
00000000001001110100
11111111111001101000
11111111111100111110
11111111111101001000
00000000000001111011
11111111111010101111
00000000000110000000
00000000000110000101
00000000000100111000
11111111111101000111
11111111111110110111
00000000000011111100
00000000001100010011
11111111110110001000
11111111111001100100
00000000000110111000
11111111111011011101
00000000000010010010
11111111111000011101
00000000000001011110
11111111110110000110
11111111111101000000
00000000000100100010
11111111111110111111
11111111110111011001
00000000000011010011
00000000000010000100
00000000000001100011
00000000000110100100
00000000000100010010
11111111110110101101
00000000000011001111
11111111111011011000
00000000000100111111
11111111111001010110
00000000000110101111
00000000000011001011
11111111111101100100
00000000001000101011
00000000000101101111
11111111111100011111
00000000001001011010
00000000000101100110
11111111111101111110
00000000001001100110
00000000000111011000
00000000000100111001
11111111111101010101
00000000000000111010
00000000000111000000
00000000000100010010
00000000000101011101
00000000000010101001
00000000000011110001
00000000000011111011
11111111111101101110
11111111110100100010
11111111111110100100
00000000000001111110
00000000000010010001
00000000000111101010
11111111111001100010
00000000000010100001
00000000001000111111
00000000000110010010
00000000000011110100
11111111111000010000
00000000000011011001
11111111110100110000
11111111111000010001
11111111110111100001
11111111111110001011
11111111111011000100
11111111110101111110
00000000001011000100
11111111110111100010
00000000000110101010
00000000001010010110
11111111111000110111
11111111111001100000
11111111111001011101
11111111111010000000
00000000000000110011
11111111111101000110
00000000001010011000
11111111111011011000
11111111111010101010
11111111110101111100
00000000001010001110
11111111111010001001
11111111111101100101
00000000000011010110
11111111111111011010
11111111110111001011
00000000001001110011
00000000001110100111
11111111111101001001
00000000001000101100
00000000001001110011
11111111111100010111
00000000000011100111
00000000000011110101
