00000000000010010101
00000000000100111100
00000000000111011110
11111111111100001001
00000000001001001100
00000000000111100111
00000000000101001010
00000000001101101100
00000000000110100100
00000000001001000111
00000000000101001100
00000000000111100011
11111111110110010011
00000000000000010000
11111111111011011001
00000000001001101100
00000000000100010101
00000000000111010100
00000000001010001101
00000000000011000111
11111111110111011000
11111111111010111011
00000000000001000111
00000000000001010001
00000000000101011111
00000000000011001110
11111111111100101011
11111111111100011010
11111111111101011000
11111111111010101100
00000000000010101000
00000000000110100000
11111111111000110010
11111111111010011011
00000000000100000101
00000000001000010010
11111111111011111001
11111111110101111001
00000000000001100110
11111111111011000011
00000000000000101011
11111111111010111010
11111111111111000011
11111111110110010001
00000000000010011101
11111111111100100011
00000000000000001011
00000000000110000010
00000000000000010100
00000000000011100000
11111111110101111111
00000000000100111110
11111111111011010100
11111111110110100010
11111111110101111011
11111111110110001011
00000000000100101111
00000000001010001111
11111111111100101000
11111111111101000010
00000000001000011000
11111111111110101010
11111111111100101100
11111111111101010010
00000000000011000010
00000000000000011101
00000000001000010111
11111111110110011011
11111111111001010110
11111111110101010001
00000000001010110000
11111111111110110111
00000000000000101010
11111111111001011111
00000000000110000101
00000000000000101001
00000000000110010001
00000000000100010010
11111111110110100100
11111111111000010011
00000000001001011000
00000000000101111100
00000000000100000001
11111111111111111100
00000000000111010001
00000000000101010011
11111111111011001100
00000000000000000011
11111111111100111010
00000000000010100100
11111111111100110011
00000000000110101100
11111111110111000011
00000000000001010101
11111111111000111100
00000000001000101101
11111111111000110101
11111111110111010100
11111111111101000110
00000000000111101100
11111111110111000000
00000000000000011001
00000000000101000001
11111111110111100110
11111111111111111110
00000000000011001111
00000000001001001111
11111111111011011110
11111111110100111011
11111111110110111000
11111111111000100000
00000000000011101001
11111111111111100001
11111111110011101110
11111111111010011010
11111111111111010110
00000000000011100101
11111111111010101101
00000000001001000011
00000000000001101101
