11111111111111001110
00000000000110011111
00000000000100001110
00000000000111100101
00000000000101100100
11111111111010110011
11111111111100010011
11111111111011100001
11111111111001011110
11111111111110111111
00000000001000110011
11111111111010111011
00000000000010101100
11111111111011111100
00000000001001011110
11111111111001000111
11111111111111000101
11111111111010001101
00000000001010111011
00000000000010011111
11111111111010011001
00000000000001001000
00000000000001011111
00000000000011111101
00000000000010110010
11111111111010111101
11111111111100000001
11111111111110010001
11111111111110111000
00000000000110010101
11111111111010100111
11111111111011110000
11111111111010110000
00000000000001001010
00000000000101001000
11111111110101111101
00000000000010001101
00000000000111011000
00000000000111010111
00000000000000000101
00000000000101001100
11111111111000000001
00000000000000010001
11111111111010100100
00000000000001100101
11111111110101100001
00000000001001001100
00000000000011000011
00000000000001011010
11111111111111110101
00000000000000000101
00000000000000001010
00000000001001001010
00000000001010000111
11111111111110101000
11111111111011000010
11111111111101000111
11111111111010101111
00000000001001000101
11111111111011001001
00000000001001101001
00000000001100001110
00000000000101100101
00000000001010110101
11111111110111110101
00000000000000011100
00000000001001111110
00000000000010000110
00000000001000100111
11111111111111100000
00000000001011011010
11111111111011100010
00000000001001011010
11111111110111001100
00000000000111101100
00000000001010010001
11111111111001100110
00000000000110111110
00000000000100000011
11111111110010111100
11111111111110111110
00000000000010101110
11111111111010000100
11111111111010111111
11111111111101001011
11111111111101001010
11111111111100101011
11111111110101010100
11111111111101000101
11111111111100100011
00000000001001010100
11111111110011011011
11111111111011010101
11111111111101000100
00000000000101000100
00000000000001111000
11111111111001111011
00000000000101100001
11111111111001011111
00000000000010110110
00000000000010001110
11111111110110010001
00000000000110001010
11111111111001101001
11111111111100111010
11111111111110111000
00000000000010101101
11111111111000100001
00000000000011001110
00000000000001101010
00000000001001110101
00000000000110100100
00000000000111110001
11111111111101100100
00000000000001110111
11111111111101100001
11111111111000000111
00000000000101011110
11111111110111010001
11111111111010010001
