11111111111011111011
11111111111011000000
00000000000100011101
00000000000000110010
11111111111000010011
00000000001001010000
11111111111111100110
00000000001010101010
00000000000011110110
11111111110111110110
11111111111101010000
00000000001010111101
00000000000101100111
00000000000001011000
00000000001001100011
00000000000011110000
11111111111110111111
11111111111110111111
00000000000111110000
00000000001010011001
11111111111101010100
11111111111001001111
11111111110110001001
11111111111111000100
11111111111010001001
11111111110101110100
11111111111100100110
11111111111111001000
11111111111101101010
00000000000011111001
11111111111100110011
00000000001001011001
11111111110110001110
00000000000001011100
11111111111001001110
00000000000100000101
11111111111011111101
00000000000011110010
11111111110101110000
11111111111010110001
11111111111110101101
00000000000000011100
11111111111000101001
11111111111100111001
00000000001000010110
00000000000110110110
11111111111101011010
11111111110101010001
00000000000101110010
11111111110101101011
00000000000111011001
00000000000100000100
00000000000101100010
11111111110110011000
11111111111110011011
00000000000100111101
11111111111111000101
00000000000111001101
00000000001001000101
00000000000110011001
11111111111001100111
00000000000110100010
11111111111000100101
00000000001000001111
00000000000001001111
11111111111010100001
00000000000000011010
00000000000111000110
11111111110110001110
11111111111100101010
11111111111011011000
11111111111010101011
11111111111010101101
11111111111011011100
11111111111100101101
11111111111000001101
11111111111010011100
00000000000000100101
00000000000000011101
00000000000100000000
00000000000110011001
00000000000000000111
11111111110111001010
11111111111010110011
00000000000101111001
00000000000011001110
00000000001001001010
00000000001001101101
11111111110111100000
00000000001010011010
00000000001000101101
11111111110111010100
00000000000110001110
00000000001010011100
11111111110101010010
11111111111000010001
11111111111000011110
11111111111111100110
00000000000101101000
00000000001000100010
00000000000101101110
00000000001011110000
11111111111110101111
11111111111001010100
11111111111010100100
00000000000011101110
00000000000110001101
11111111111001111010
11111111111010111111
11111111111011111001
11111111110110000011
00000000001011111001
11111111111011000001
11111111111110011110
00000000000100100010
11111111111000000001
00000000001001100000
00000000000000111101
11111111111111100011
11111111111000101011
