11111111111001101001
00000000000010001000
00000000000011111110
11111111111101101111
11111111111000010011
11111111111011011100
11111111111000010101
00000000000011001100
11111111111000010100
00000000001001111100
00000000000011001110
00000000000000001111
11111111111110010001
11111111111110101100
00000000000010001100
00000000001000111101
11111111110110101000
00000000000110001011
00000000000001001010
11111111111101111011
00000000000001010010
00000000000001011101
00000000000110011010
00000000000001001000
11111111111101001111
00000000001010101100
11111111110111111011
00000000000101101000
11111111111001101101
00000000000100001101
00000000000111001101
11111111111100011111
11111111111010011010
11111111110101100000
11111111111010010001
11111111110101011000
11111111111101110000
00000000001010011000
00000000001001010010
00000000000100010010
00000000001010111110
11111111111101011111
00000000000100110110
11111111111011010000
00000000000000001100
11111111111100110011
11111111111100101000
00000000000100011100
11111111111110110000
00000000001011001111
11111111111011001111
11111111110101101110
00000000000110111000
11111111111001100100
11111111110110100011
00000000001000010101
11111111111000100011
00000000000111100101
00000000001001001001
00000000000011001001
00000000000111111001
00000000001001000100
11111111110110111110
00000000001001101010
00000000001010011101
00000000000111101100
00000000001011000111
00000000000101011001
00000000000011000100
00000000000010000000
00000000000111110100
00000000000001001010
00000000000110011111
00000000000110001000
00000000001000100000
00000000001011100111
00000000001010011001
11111111111101110001
00000000000100111111
11111111110110101011
11111111110100111001
11111111111010001101
00000000000110000000
00000000000011010111
00000000000101011001
11111111111000010000
11111111111011010111
11111111111100000000
00000000000100101111
00000000000110101110
00000000001001010110
00000000000011110011
00000000001011110101
00000000001100010111
00000000000010100101
11111111111100011100
11111111111100110101
00000000000001010101
00000000001010111100
11111111111110010110
00000000000000010101
00000000000111010101
11111111111000101010
11111111111001000100
11111111111110000001
11111111111111011101
11111111111101000011
00000000000001000001
00000000000010100011
11111111111100001101
11111111111000101001
00000000000110000001
11111111111001111110
00000000000000100000
00000000000110010111
00000000000001111001
11111111111111111011
11111111110110101011
11111111111000010011
00000000000010101010
