00000000000110001010
11111111111010010011
11111111110111111001
00000000000000111111
00000000001001110101
00000000000001101111
11111111111011011111
00000000000100100000
11111111111000100111
11111111111011010101
00000000001001001000
11111111110111001010
11111111110111110111
11111111111011001000
11111111111110000011
11111111111001110000
00000000001000110111
11111111110110100000
00000000000010100010
00000000001000110000
00000000000100100101
11111111111000011001
11111111110110110010
00000000001000101101
00000000000101110111
00000000001001111101
11111111111111010010
11111111111101010001
11111111110111110001
11111111110111100000
00000000000001001011
11111111110111010001
11111111111000011010
11111111111100010001
00000000000111101100
11111111111110011010
11111111111111110100
00000000000001010001
00000000001010000101
11111111110101100111
11111111110111100000
11111111110111111111
11111111110101010101
00000000000011011001
00000000000001001110
11111111111111110111
11111111111110100110
11111111111010100011
11111111110101100000
11111111110111100110
00000000001000000100
00000000001010000110
11111111110101011111
00000000000110000110
00000000000010010010
00000000000110111010
11111111111111000010
11111111110111000000
11111111111111001110
11111111111110001101
11111111111000000000
00000000000001110000
11111111110111100011
00000000000011010100
00000000001001011000
11111111111001000001
11111111110111000011
11111111110110000101
11111111110110100110
00000000001001100111
11111111111011101101
00000000000100101101
00000000001001010110
11111111111101111101
11111111110100100111
11111111111101001101
00000000000110100111
11111111111110101110
00000000000011000011
00000000000111110111
11111111110110100000
00000000000111000110
00000000000011100111
11111111110111110111
11111111111110000010
00000000000101011010
00000000000111111010
11111111111101001010
11111111111111011011
11111111110101000101
00000000000011010011
11111111111100111001
11111111110111111110
11111111111111100001
00000000000101111010
00000000000101111111
00000000000011110101
11111111111000110111
11111111110111011010
11111111111001101000
00000000000101011011
00000000000111101010
11111111111000110001
00000000000011010110
00000000000001110001
11111111111000100001
00000000000110011101
11111111110110010011
11111111111001010111
11111111110110101000
00000000001010111001
11111111111100110011
11111111110111111100
00000000000101101010
11111111111001000000
11111111111001000010
00000000000111101001
00000000000011100000
00000000000000110100
00000000000000101001
