11111111111001100001
00000000000001110001
00000000000001010110
00000000001010100111
11111111111000111111
11111111111111011111
00000000000000100011
00000000000110010011
00000000000111111100
11111111110111111100
11111111111110111101
00000000000001000000
11111111110110101100
00000000000101010010
00000000000010011001
11111111111111011011
00000000001001000010
11111111111000001110
00000000000001110000
11111111110111101110
00000000000101111110
11111111111100011010
11111111111110101101
11111111110111011101
00000000000111010011
11111111110101111001
11111111110101001111
00000000001010010010
11111111111110100111
00000000000010101111
00000000000110011011
00000000000101101010
00000000000110001001
11111111110111101000
00000000001010000111
00000000000000001100
11111111111111101100
11111111111101001100
00000000000101011110
00000000001101110000
00000000000000101010
11111111111101000110
00000000000011011010
11111111111101111010
00000000001001100100
11111111111000110100
00000000000010100110
00000000000110101000
11111111111010101011
00000000000011000011
11111111111010111110
00000000000110111010
00000000001011100000
00000000001010111001
11111111110100100111
00000000001001010000
00000000001000110001
00000000001011110100
00000000000110101000
11111111111001010011
11111111110100011100
00000000000011000000
11111111111100111111
00000000001001010011
11111111110100001100
11111111111110011100
00000000001010010100
00000000000011011110
11111111110110101011
00000000000000000100
00000000001001011010
11111111111011100111
00000000000010010100
11111111111101000010
00000000000110111111
11111111111010111111
11111111110111101110
11111111111000110110
00000000000011110001
00000000000100000101
11111111111000101001
00000000000010000101
00000000000000001000
00000000000100000010
11111111110110100110
11111111110110111010
00000000000100011101
11111111111111000011
00000000000101100110
11111111110101011100
11111111111101000111
11111111111011100111
00000000000000101001
00000000000110100001
00000000000111101101
00000000000001000100
00000000000111001101
00000000000000010101
11111111110101111001
00000000001100000011
00000000000110010001
00000000000110101000
11111111111110011101
11111111111011111000
00000000001010001101
11111111111100010110
11111111111111111001
11111111111000010011
00000000001000111111
00000000000011100000
00000000001010100110
00000000001010101110
11111111111000110010
00000000000010011011
00000000001001011010
11111111111100000001
00000000000010011000
00000000000010011110
11111111110111111100
11111111111111010110
