00000000001111101000
11111111110011100110
00000000001111100100
00000000010011000111
11111111111100010010
00000000000010010111
00000000001101100111
00000000001011001001
00000000001110000001
11111111111110111010
00000000000110110000
00000000010000111000
00000000000101101111
11111111110001101110
11111111111100010101
11111111110100111111
00000000010110001011
00000000000000001111
00000000001100011000
00000000001010001101
11111111111110110110
11111111110010001110
00000000000100011100
00000000000101101000
11111111111110001010
00000000000111010101
11111111111011010010
11111111111011111011
00000000010000000100
11111111110010000011
11111111111101011010
00000000000100010101
11111111111101100011
00000000000101001000
11111111111001000100
11111111111101010010
11111111110101101010
11111111111011110011
11111111111101111111
11111111110010100100
11111111110101000100
00000000001010000010
00000000001011011011
11111111101100111101
00000000000001101110
11111111110010100010
00000000000000001101
11111111111010101010
11111111111010010010
11111111111111000000
11111111110001111011
00000000000010010011
00000000000101001011
11111111110111100001
11111111110101010000
11111111110011010101
11111111111001101101
00000000000011101000
11111111110110111001
11111111111101011111
11111111101101101011
00000000000001010010
11111111111110001110
00000000001101110011
11111111110110100000
00000000000011110001
00000000000100010010
11111111110110111010
11111111110100110100
11111111111011000101
00000000010011011111
11111111110001000001
00000000001110101010
00000000010000100010
00000000000010000010
00000000000010111101
11111111111011011111
11111111110010011111
00000000000100110111
00000000000110000101
11111111111101010001
00000000000101111110
00000000010110011111
11111111111010101001
