00000000000101011110
00000000000111111000
00000000001001000110
11111111110101111001
00000000001001000000
00000000000101100011
00000000000011100111
00000000000111000011
11111111111011100110
00000000000110000000
11111111111000001101
00000000001010010110
00000000000111000111
11111111111001000110
11111111111111000100
00000000000010111110
11111111110111011101
00000000000000101101
00000000000011101110
00000000000000000100
11111111111001011110
11111111110110101001
00000000000110010110
00000000001010111111
11111111110111001111
11111111111001111011
11111111110011001010
11111111111100001001
00000000001010011000
00000000000000100001
11111111111110101000
00000000000011111101
00000000001001001000
11111111111000101011
00000000000111110000
11111111111111110101
11111111111010011101
11111111111001111100
11111111110111000101
00000000001100001010
00000000000011100111
00000000000000011101
11111111110110110000
00000000000100001101
00000000000111100000
11111111111010010111
00000000000001000100
00000000001011110101
11111111111010110010
00000000001011100010
00000000000101100111
00000000000010100001
00000000001011011011
00000000000000101010
00000000001101000111
11111111111010111100
11111111111111001011
00000000000010111000
00000000001010000110
00000000000111011011
11111111111001110100
00000000000001110110
11111111110110100111
11111111111010100010
00000000001010110111
11111111111010000111
11111111111010100100
11111111110110011101
11111111111000110010
11111111110110101000
00000000001000111100
11111111111100001000
11111111111001110111
00000000000100101010
11111111110110000001
11111111111100000011
11111111111010001100
00000000000000110000
11111111110101000100
00000000000101100110
11111111111011100010
11111111110011100010
11111111111111101111
11111111111001111001
00000000001011111101
11111111111000101011
11111111111100011100
11111111111100000110
11111111110011111010
00000000000000111010
00000000001011111001
00000000000100110101
00000000000101110111
00000000000010101011
00000000001000110011
00000000000111001101
00000000000010110111
00000000000000010001
00000000001000001001
11111111111101010101
11111111110011011110
11111111111110001011
11111111110110111000
00000000001001110100
11111111110110010111
00000000001011011111
00000000000000001001
11111111111000110000
00000000000111110111
11111111111001000010
00000000000011111010
00000000000010101001
00000000000111001101
00000000000111000101
11111111111011100111
11111111111101001011
11111111110011111010
11111111111000100101
11111111111001101110
00000000001000100101
