00000000000010110000
00000000000101101110
11111111110110000111
00000000000100110011
00000000000110001011
11111111111110001101
11111111110101110101
11111111111000001001
11111111111010100010
00000000000101001000
11111111110111110100
00000000001001111111
00000000001001111001
11111111111010001110
11111111111100011000
11111111110111111111
00000000000011010000
11111111111110111100
00000000000011011101
11111111110101001010
00000000000110010000
11111111111000100111
00000000000010110101
00000000000101111001
11111111111001111011
11111111111111010100
11111111110111110111
11111111111100111110
00000000001000000010
00000000000001111001
00000000000011010100
11111111111001000111
00000000000010000011
11111111111110001110
11111111111011011101
00000000000011000001
00000000000010001010
00000000000110011100
00000000000101011001
00000000001010000101
11111111110101001101
00000000000010110101
11111111110110001111
00000000001001101010
11111111111110010101
11111111111101111001
00000000000010110111
11111111111111001111
11111111111010010101
00000000000001000111
11111111110111000111
11111111111000011110
11111111110110010001
00000000000000101101
11111111111101111010
11111111111101010111
11111111111000101110
00000000001000100100
11111111111010110101
11111111111101101010
00000000000001111011
00000000001000011010
00000000000101110101
00000000000000001110
00000000000010100111
00000000000001110100
11111111110110101011
00000000000011111001
11111111111000100101
11111111111111010010
00000000001010101110
11111111111001011011
11111111111111100111
11111111111001101011
00000000000111101110
11111111111000010000
00000000000011000100
00000000000101001000
11111111111100101110
00000000000110101011
00000000000110010000
11111111111100100101
00000000000011011101
00000000000011001110
00000000000100010111
00000000001000011011
11111111110110000000
00000000000000111111
00000000000100011111
00000000000011000001
00000000000000111001
11111111111000001111
11111111111110011100
11111111111101101111
00000000000001111101
00000000000101000110
00000000001010110111
00000000000011011110
11111111110111001000
00000000000111000000
00000000001001101111
00000000000111010000
11111111111110011101
00000000000010100100
00000000000011000110
00000000000000111111
00000000000011100111
11111111110111011000
00000000000001010011
11111111111110001101
11111111111011001001
11111111111010000011
00000000000110110111
11111111111001001111
11111111111100010110
11111111111101111111
00000000001000001011
00000000000010001110
00000000000001001001
00000000000001010110
