00000000000100110111
11111111101000100101
00000000001011011111
11111111110111100000
11111111111100111101
00000000001110101001
00000000001101000000
00000000001100110111
00000000001100100001
11111111101110101011
11111111101001111110
11111111110011111110
11111111110010110000
00000000000010100100
00000000001011010101
11111111110010000010
11111111111100110101
11111111111011100000
11111111111110001011
11111111110111011010
00000000000001111010
11111111111000100000
11111111110001010011
11111111111000101100
11111111101101111100
00000000001111011011
11111111110101001000
11111111110001001100
00000000001111010001
00000000000100001011
00000000010010001100
11111111111001111101
00000000001110010111
00000000000010111011
00000000000100001000
00000000001000010001
00000000000000001110
11111111111001110101
00000000001111010010
11111111110101011100
11111111111111111111
00000000010001101101
00000000001010010110
11111111111011110000
11111111111111000100
00000000001001101000
00000000001010101011
00000000001011101110
11111111111010001110
11111111110100101111
00000000001011101100
00000000000110111110
00000000000010110101
00000000001011001101
11111111110100110000
11111111101110110001
00000000001100010100
00000000010100100000
00000000000010100110
00000000010101000100
00000000000101111001
11111111110010110100
11111111110001100010
00000000000111101111
00000000000101101000
11111111101110111100
11111111111100110111
00000000000101110010
11111111111001011101
11111111110100110111
11111111101111011101
00000000010000001110
11111111111011111001
11111111110101110111
00000000001000011101
11111111101110101101
11111111110001100111
00000000010011001111
11111111111010100010
11111111111100000100
11111111110001100001
00000000010101010001
00000000010000100000
11111111101101111100
