11111111111001111110
00000000001100111100
00000000001010111001
11111111110011100001
00000000001001100011
00000000000011101001
00000000000011010111
11111111110101010011
11111111111010110111
11111111111110011111
11111111110110101001
00000000001100000000
11111111111010111000
00000000000101100110
11111111110110110011
11111111111110010000
11111111111110100001
00000000001001111101
00000000000101010101
11111111111111100001
00000000000010000110
00000000000001100000
00000000000101000111
00000000001010000011
11111111111011110001
00000000000001101100
00000000000000100001
00000000001001101101
00000000000100001111
00000000000011101100
11111111111111010101
11111111111011010000
11111111111101110100
11111111110110011011
11111111111101101101
11111111110111111110
11111111110111110101
00000000001011000100
00000000001001000101
00000000001001111011
00000000000101000000
00000000000101000110
00000000001011001001
11111111111000111011
00000000000110010011
00000000001001010010
11111111110100011100
11111111111111011001
11111111111111001000
11111111111001100000
11111111111101000011
11111111111100111110
00000000000000011010
00000000001001101000
11111111111100011011
11111111110011011000
11111111111011110001
11111111110110101011
00000000000001010110
11111111111000101010
00000000000100110001
00000000001000010010
11111111111100010000
00000000001000101100
11111111111100011011
11111111111000110110
11111111111000011000
11111111110101101010
11111111111101100000
11111111111100101101
00000000001100001110
00000000000011111100
00000000000000010011
00000000001000011111
00000000000000111001
11111111111010101011
11111111110101111001
11111111111011000001
11111111111001000101
11111111110001011101
11111111111011000110
00000000000101000010
00000000000111010000
11111111111100110000
00000000000101010111
00000000000101001001
00000000000010000111
00000000000010101011
11111111110110100111
00000000001001101110
00000000000111010001
00000000000010001011
11111111110110000101
00000000000001111010
11111111110111110011
00000000000011101110
00000000001010000001
00000000001000100100
11111111111100100000
11111111111000101100
00000000001000110100
00000000000110100100
11111111111110110010
11111111111100100100
11111111111101011100
11111111111100101100
00000000001010100100
00000000000110011011
11111111111010000010
00000000001010110100
00000000001010110010
11111111111001101101
00000000001010100011
11111111111010101111
00000000000100110110
00000000001001011100
11111111111110111001
00000000000010001001
11111111110101010111
11111111111101010100
