11111111111010110001
11111111110111110001
11111111111011010010
11111111111000001001
00000000000110100011
11111111110100110001
00000000000101111100
11111111111100001001
11111111111010011110
11111111110101111010
00000000000010011011
11111111111010111100
11111111111101111110
11111111111000001010
11111111110101000001
11111111110101010001
11111111111010011100
00000000000111011101
00000000001000110101
11111111111001111001
11111111110111101010
00000000000000111000
11111111111110100110
00000000001001100001
11111111111110011101
11111111111110110111
00000000001000011111
11111111110111110000
11111111111111011111
11111111111011000001
11111111111110000001
00000000000110100110
11111111111001110001
00000000000001011100
00000000001001111111
00000000001100000100
00000000000111010100
11111111110111110100
11111111111010010011
11111111111000100111
00000000001010110000
00000000000011101010
11111111111101010000
00000000000111100000
00000000001010010111
11111111111100101001
00000000000100111111
11111111110110011110
00000000001000101001
00000000001011010100
11111111111001001100
00000000001011101001
11111111111100101001
00000000000111010110
00000000001011010011
00000000000101110100
00000000000111101100
00000000000010010011
00000000000000110110
11111111111010111100
11111111111100001010
00000000000111000110
00000000001001011001
00000000000001101011
00000000000100100111
11111111111011000101
00000000000001111111
00000000001000000111
00000000001010101000
00000000000111010000
11111111111000011111
00000000000111100100
11111111111011000110
11111111111110101111
00000000001000000101
00000000001010010011
00000000001001110011
00000000000010010111
00000000001011100100
11111111111100000010
00000000001011010000
00000000001010010110
00000000001000101110
00000000001000011011
11111111110110010110
11111111111101011011
11111111111010011111
11111111111011011111
00000000000011011100
11111111111000000110
11111111110110011000
11111111111011100100
11111111111101101101
11111111110100011001
00000000001011001011
00000000000010010001
11111111111010110100
11111111110101111010
11111111111100010110
11111111111000001001
11111111111100001101
00000000000001101000
00000000000110000001
11111111111101100111
00000000000011101010
11111111111110000111
11111111111101001001
00000000000110100100
00000000000100111101
00000000000000100111
11111111111111011111
00000000001001100010
00000000000100110111
11111111111111010100
00000000000111010001
11111111111111011010
11111111110110100001
00000000001001000010
11111111111101100111
00000000000010000011
