11111111111011100100
11111111111110000010
11111111111101101001
00000000000010110000
11111111111010100000
00000000000101000101
11111111111111011011
11111111111000000111
00000000000110110000
00000000000100001111
00000000000011000111
00000000000111101010
00000000001000100011
00000000001010100110
00000000000000110010
11111111111100111010
11111111111101100100
00000000000101100011
11111111111111011111
00000000000000110100
00000000001000011111
00000000001000001100
00000000001010001010
11111111110111000001
00000000000100101000
00000000000011011001
00000000001010111001
11111111110101110001
11111111111000111010
11111111111100000111
00000000000010001110
11111111110101100001
00000000000001110001
00000000000101100011
11111111111100001101
00000000000011111100
11111111110101010100
00000000001011011001
11111111111010001100
00000000000001011001
11111111111100000001
00000000000011100010
00000000001100010110
00000000001010100111
11111111111000111010
00000000000110010000
00000000000001010100
00000000001001001101
00000000000011101010
11111111111000010011
00000000001001101101
00000000001011001001
11111111110110001011
11111111111001010101
11111111111101011000
00000000000101100001
11111111111011101101
11111111111011110010
00000000000111101010
11111111111010100111
11111111110101101100
00000000000011011011
00000000000110000001
00000000001010000010
00000000000100010100
11111111111101111010
11111111111100110110
11111111110111010110
00000000000001001101
00000000000101011010
11111111111111000101
11111111111101001010
00000000000011001001
11111111110110101010
00000000000110111101
00000000001000101101
00000000000110001100
00000000000011010101
00000000000111000101
11111111110101010001
11111111111000111110
00000000000111000100
11111111111111010000
00000000000101100000
11111111111100110111
00000000000101001100
00000000000001001010
11111111111001100000
00000000000111111100
11111111110101101000
00000000000001110111
11111111110100000000
11111111111001001100
00000000000101011111
00000000000100000010
11111111111101110011
00000000001010011110
00000000001000010011
11111111111011110100
00000000000000001101
11111111111001101101
00000000000001011001
11111111111101101101
11111111110100110100
00000000000011101001
00000000000111010111
11111111110110101111
00000000000000100101
11111111110111111110
11111111111000111000
11111111110110101101
11111111111110001100
11111111111111101000
00000000000111000101
11111111111100101100
11111111111100001010
00000000001001001100
11111111110111010100
00000000000010101001
11111111110101100011
