00000000000001001010
11111111111100110001
00000000001011011001
11111111110101111010
00000000001011001100
00000000000010110010
00000000000110100111
00000000000011000100
11111111111000101101
00000000000110010110
11111111110111101101
00000000000001100011
00000000001000100100
00000000001001100011
00000000001010111010
00000000001001001001
00000000000011010111
11111111111011001000
11111111111000010101
00000000000010001100
00000000001000111011
00000000000110100010
00000000000110110101
00000000000111011011
00000000000011011110
00000000000011011001
00000000000000010110
11111111111110001100
00000000000011001001
11111111111111101111
11111111111111001000
00000000000110010111
11111111111011110110
00000000001001110100
11111111111100101100
00000000000000010010
11111111111010101011
00000000000010100111
11111111110101011111
00000000000110101111
11111111111000111010
00000000000000100111
00000000000100001110
11111111111010100110
00000000001000110100
11111111111000001011
11111111111010110010
11111111111111110110
00000000000100101011
11111111111001100010
11111111110110000101
11111111110010100100
00000000000010111101
11111111111101010011
11111111111011110100
11111111111010100001
00000000001100110011
11111111111101010101
11111111110111111101
00000000001001100110
11111111110110011000
11111111111100011111
00000000001001101111
11111111111101100001
11111111111100100011
00000000001001111101
00000000000011010110
00000000000011110010
11111111111101011011
11111111111110001111
11111111111010111001
00000000000001111110
11111111111101111110
11111111111100011011
11111111111001101111
11111111110111110101
11111111111000010100
00000000000011101100
00000000000101111001
00000000000000011010
11111111111110010001
00000000000001010101
00000000001010000100
00000000000101111011
11111111111000101100
00000000001000100100
00000000001000010101
11111111111110100100
00000000000101010000
11111111111100111010
00000000000011100100
00000000000001100100
11111111111011100001
00000000000100101000
11111111111011001100
00000000001000010111
11111111111001111111
00000000000111010101
11111111111000000010
11111111111001110010
11111111111110000000
11111111111111001101
11111111111010010100
00000000000110100001
00000000000110001001
00000000001001011001
00000000001100011000
11111111111010111100
11111111111011011000
00000000001001111110
00000000000101010110
11111111111001011110
00000000001010001110
00000000001001000111
11111111111100100101
00000000000010000110
11111111111010100111
00000000000000011101
11111111111001101000
11111111111100000001
