00000000000011000000
00000000001010110111
11111111111001100101
11111111111111011000
00000000001110011100
00000000001010101001
00000000001110010011
00000000001111110001
11111111111101011011
11111111101110001001
00000000001001101001
00000000000110110011
00000000000101110000
00000000000111110100
11111111110101101010
00000000001000101100
00000000010010011110
11111111101011111000
11111111111001110001
11111111111100010010
11111111111100000010
00000000000011110001
00000000001010100001
11111111101010110010
00000000001000110001
11111111101001000100
11111111110001111111
00000000000011111011
00000000001000001000
00000000010000100110
00000000001111011000
00000000010010001100
00000000001010111010
11111111111011110000
00000000000101111100
11111111111111111010
11111111110101011001
11111111101011001010
00000000001101001101
00000000001111010111
00000000000011101000
00000000001100010100
11111111101110000010
11111111111010111101
11111111110001101100
11111111110111111010
00000000001101111100
00000000010000010100
11111111110001010101
00000000000011100010
00000000001001011101
11111111110111101001
00000000010000011100
00000000001101000011
11111111111000011011
11111111110110000101
11111111111101000100
11111111101100110011
11111111110100001011
11111111111010011001
11111111110100111101
00000000000011110101
11111111111011100001
11111111101111000011
11111111110111011011
00000000001111010011
11111111110101010101
00000000001000001110
00000000000111100000
00000000000110000010
00000000010000110101
00000000001010000010
00000000000101100100
00000000000111100111
11111111111000110010
00000000000110101100
00000000001001100100
00000000001111101100
00000000001110110111
11111111101111011001
11111111111101101100
00000000001000110010
00000000000011110011
11111111110001101000
