00000000000101010001
11111111110101001100
00000000000110000000
00000000000011000000
00000000000111000011
11111111110101000100
00000000000011011110
11111111110111111110
00000000000101111011
11111111111111010100
00000000001000111011
11111111111110000011
11111111111001001100
11111111111101101110
00000000000011101110
11111111111111111101
11111111111110101010
00000000001001001101
11111111111000011110
11111111111011100000
11111111111111011110
11111111111111110001
11111111111110001101
00000000000111011101
00000000000000001010
00000000001011110101
00000000000000111100
11111111111111101000
11111111110111110000
11111111111011001110
11111111111111010000
11111111111001000110
00000000001010000101
00000000001010001101
11111111111111011100
11111111110010000011
00000000000010000010
00000000000000010100
11111111110111111010
00000000000111011111
11111111111110010101
11111111111101010000
00000000001010000111
11111111111001111001
11111111111010110101
00000000000101000011
00000000000110111000
00000000001011001100
11111111111001110001
00000000000100111010
00000000000101100011
00000000000111000111
11111111110110001010
11111111111101111011
11111111111101000010
11111111110111101101
00000000000101101100
00000000000000011011
11111111111110011100
11111111111011011010
00000000000000100010
11111111111101000000
11111111110110110001
00000000001001111001
11111111111110010001
00000000001000101101
00000000000101000111
00000000001000101111
00000000000011010100
11111111111100110110
00000000000101001001
11111111110110100100
00000000000111101001
00000000000000010010
00000000001001011101
11111111111110101110
11111111111110110110
11111111111100111101
00000000001010011011
11111111110101011010
00000000000000111100
00000000000010101001
11111111110111100010
11111111111100101000
11111111111001001110
11111111111011011110
11111111111001000100
00000000000111100101
00000000001101110101
00000000000100011111
11111111111001111000
11111111111000100110
00000000000100110100
00000000000010100101
00000000001010101000
00000000001010011011
00000000000011001011
11111111111100000010
00000000001010111001
00000000000111011000
11111111111101011111
11111111110101100111
11111111110110101101
00000000000001001100
11111111111011011001
00000000000111010100
11111111111100000011
00000000001001000011
00000000000010011110
11111111110011100011
00000000000110101111
11111111111100000100
11111111110101001000
11111111110101010010
11111111111110101010
11111111111100000100
00000000001001110011
11111111111111101010
00000000000100101101
11111111111101101101
