00000000000100001101
00000000000001111011
00000000001001010110
00000000001101001011
11111111111010111000
11111111110111100101
00000000000100100101
00000000001010101111
00000000000010010001
00000000000010101011
11111111111110111100
00000000001000111000
11111111111100101100
00000000000101001010
11111111111101101110
00000000000001010100
11111111110111000011
00000000000000100001
00000000000010011000
11111111111110001001
11111111111111110100
11111111111010100011
11111111110111100000
11111111111011011101
11111111110110110101
11111111111011010011
00000000000100001010
11111111111100111001
00000000000101010100
00000000001000011110
00000000000110110111
00000000000100010001
11111111111101000000
00000000000011110000
11111111110111110101
11111111110100110111
00000000000111101110
00000000000011111011
11111111111101110010
11111111111001110110
00000000000100100100
00000000000011110111
00000000000100101011
00000000001001101010
11111111111011100100
11111111111011001000
00000000000110001101
00000000000001011100
11111111110101001111
11111111111110001111
11111111110101011000
11111111110100100011
00000000000110110011
00000000000101100100
00000000001010000111
11111111110100111101
00000000001000111110
11111111110110011100
11111111110011100110
00000000000110110010
00000000001001110011
11111111111000100001
00000000000100111110
11111111111110010001
00000000001101010011
11111111111011011110
11111111111010010001
00000000000100011001
11111111110110000001
00000000000011000011
00000000000011101110
11111111111010111011
11111111111100011001
00000000000100011100
00000000000011100100
11111111111100000011
11111111111001011001
00000000000001101010
11111111111110000111
11111111111101011010
11111111110100001110
00000000000100101110
11111111111000000001
00000000000101110001
11111111111111011111
00000000000110001010
11111111111100110010
00000000000110001011
00000000000011111110
00000000000110101000
11111111110110110110
11111111111000110100
00000000000101100101
00000000001011110011
00000000000000000111
11111111111101101111
11111111110110111100
00000000001100010100
00000000000011010001
11111111111001100110
00000000000101000110
00000000000111101010
11111111111111111011
11111111111010001011
00000000001000010100
00000000000100100110
00000000001010110011
11111111110110010011
11111111111010111101
11111111111110101000
11111111111010010110
00000000000101010111
00000000000011110101
11111111111001000100
00000000001100001100
11111111110111111100
00000000001011001101
11111111110110101010
11111111111111110000
00000000000011110101
