00000000000111001111
00000000001001100011
00000000000011010101
11111111111001010100
11111111111101110111
00000000000000000100
11111111110111110110
00000000000110111000
11111111111001000001
11111111111101000101
00000000001000000011
00000000000101111101
00000000000001001011
11111111110101010010
11111111111001101010
00000000000110011111
11111111111010110110
00000000001001101101
00000000000011111011
00000000001001011001
00000000001000110111
00000000000001000100
11111111111000011100
00000000000110011000
00000000001010000110
00000000000001100010
00000000000001100010
11111111111011110011
11111111111110100000
00000000000000000010
00000000000101101110
11111111111001010100
11111111110111100001
11111111111010001110
11111111111001101010
11111111111110001001
00000000000010100100
11111111111011000011
00000000000100001010
11111111110110010111
00000000000011001111
11111111110110010101
11111111111110101001
11111111111100011000
00000000001000001011
00000000000110110000
11111111111110010101
11111111111001001110
11111111110110011101
11111111111100111001
11111111110111110001
00000000000011010111
11111111111111010011
00000000001000011111
00000000000000110111
11111111110101101011
00000000001001010111
11111111111011001101
00000000000111111000
00000000000101101011
00000000001100100011
00000000000001010001
11111111110101010100
00000000000011110101
00000000000110101000
11111111111110100011
00000000000011101100
11111111111110100001
11111111111101000010
11111111111010110011
00000000000110001100
00000000000111101111
11111111111101011111
11111111111001101100
00000000000101000010
11111111111100110011
11111111111010100110
00000000001001000101
00000000000001011001
11111111110110100011
11111111111001001101
00000000001000101111
00000000000101000001
11111111111001011101
00000000001001111101
00000000000011100011
00000000000111000010
11111111110110110100
11111111111010110101
00000000001000101110
11111111110110011001
11111111111001101110
00000000000110000110
00000000000111010011
00000000000011010100
00000000000111000100
00000000000100110101
11111111111101101001
00000000000000100011
00000000000011001000
11111111111000110111
00000000000100001010
00000000000110100100
11111111110100101001
11111111111011110110
11111111111010101111
11111111111010001110
00000000000110100001
00000000000101101111
11111111111010111010
11111111111110001111
00000000000101101000
00000000000101101000
11111111111010101101
11111111110110101101
00000000001010000100
00000000000010000011
00000000000100111100
11111111110111000000
11111111111000100101
