11111111110110000110
00000000001111000100
11111111111001011101
11111111110000100110
00000000000011100111
00000000001000010110
00000000001000001011
00000000001110011000
00000000000110001111
11111111111011000101
00000000001011101001
11111111101111111000
11111111110111010010
00000000000011010011
11111111110001100100
00000000000101010010
00000000000101001100
00000000001010001010
00000000001111101110
00000000001100011111
11111111111111101000
00000000001110010010
00000000010010100110
00000000001010011011
00000000000000110000
00000000001110000010
00000000000100100000
00000000000111101110
00000000001110010000
00000000010100101000
00000000001010111000
00000000001001000110
11111111110110010111
11111111101110110111
00000000001110111100
00000000001100011001
00000000000001011010
11111111111111000001
00000000001110100100
11111111111001110000
00000000010001110001
11111111110000001101
00000000001000111011
00000000000010100111
00000000000010000011
11111111101110010000
11111111111100011000
11111111111010101011
00000000000000100011
00000000001010100100
00000000001001110010
11111111111110001001
11111111111010010101
00000000001101101010
00000000001010010101
11111111110010100001
11111111110001110010
11111111110111000100
11111111110100101100
00000000000010010001
11111111110100000101
00000000001010111101
00000000001000110000
11111111111000001011
11111111111011000000
11111111101110011010
11111111110011110000
00000000001001001001
00000000001001101000
00000000000001010100
00000000000011000100
11111111111111111010
00000000001001110011
11111111111011011000
11111111110011100010
11111111101110110111
00000000010000111011
11111111111001111110
00000000000111011000
00000000000011100101
11111111111000110110
00000000000001011001
11111111111110110100
11111111101111101101
