00000000000110000011
11111111111001001100
11111111111011101110
00000000000111101110
00000000000001110010
11111111111101101111
00000000000011000010
00000000000000011101
11111111111010100110
00000000000011001110
00000000001000100000
00000000000011001100
00000000001011011111
11111111111100011100
11111111110110011000
00000000000100001100
00000000001001111000
11111111111011010010
11111111111111101010
00000000000000101110
11111111110111000010
00000000000000011011
11111111111000011101
00000000000000100110
00000000000001101011
00000000000001001000
00000000001011011011
00000000000000101111
11111111111111111011
00000000000101100000
00000000000110000100
00000000000011011111
11111111110101011101
11111111111100110011
11111111111011010100
00000000000111011000
00000000000111111000
11111111111000001100
00000000000110101101
00000000001010101111
11111111110101110100
11111111111011100110
00000000000011101101
11111111111001101100
11111111110100001101
00000000000100000100
00000000000000100011
00000000001011100110
00000000001001110000
00000000000001111010
00000000000100001110
00000000000101111000
00000000000100100101
11111111110110111101
11111111110101011000
00000000001001011111
00000000001011000101
11111111111010001111
11111111110110110111
11111111110110100111
11111111110111111001
11111111110110110101
11111111111100000110
00000000000010000110
00000000000100110101
00000000001010110101
11111111111011110101
11111111111100011001
00000000000111101001
11111111111000010000
00000000000001010111
00000000000111011110
00000000000000110110
11111111110111110010
00000000000100110111
11111111111111000111
00000000001001001110
00000000001011001111
11111111111100011011
00000000000000010111
00000000001001101101
11111111111111011101
00000000000110111101
00000000001000100111
00000000000001000101
11111111111010001001
11111111111111111010
00000000001000110010
00000000000101000100
11111111110101010101
00000000000101011001
11111111110111000101
11111111111001001001
11111111111101001100
11111111110110111101
00000000000011100111
11111111111011111100
00000000000101010011
11111111111011001100
11111111111001001101
11111111111110100111
11111111110100111001
11111111110101000001
00000000000000000001
00000000000001110011
00000000001000010010
00000000000111000001
00000000000000111110
11111111110101100010
11111111111101101001
00000000001000010001
00000000000110101111
11111111111010101000
00000000000000100111
00000000001001110000
11111111110101001110
11111111111011110011
11111111111011101101
00000000000101110111
00000000000000011010
