00000000000111000000
11111111111101001100
00000000001010001000
00000000000001010011
00000000000111111001
00000000001010100000
00000000001010000110
11111111110111101110
00000000000010000011
00000000000101101100
00000000000100110111
00000000001010100010
00000000000101000111
11111111110111001011
11111111111001111001
11111111111100110010
11111111111011110011
00000000000001110010
00000000000111100000
00000000001011011011
00000000000011100000
11111111111001010100
11111111111010110110
00000000001000100100
00000000000101110011
00000000001001000010
00000000000111111000
00000000000110011100
11111111111001101111
00000000001000010001
11111111111111011111
00000000000100111110
11111111111101100111
00000000000011000110
00000000000100101111
00000000000111000110
11111111111111011001
11111111111101110000
00000000001001100100
00000000001001001011
11111111110110110010
00000000001010011101
00000000000101010101
00000000000101100101
11111111111100000000
00000000000110110100
00000000001011011110
00000000000010001101
11111111111111111110
00000000000010101101
00000000001001100011
00000000000111000011
11111111111101010100
00000000000110000001
00000000000110010101
11111111110110111101
11111111111001110100
00000000000100111011
00000000000101101101
00000000000000001110
11111111111001100111
00000000000101001100
00000000000111110010
00000000000010110100
00000000000101011001
11111111111100000101
11111111111011100011
11111111111101000100
11111111111111010100
11111111111101011011
11111111111110100001
00000000000010111010
00000000000011110110
11111111111000100010
11111111111010001101
00000000000010111101
00000000001001101101
11111111111110110011
11111111110111000101
11111111111100100101
00000000000010101101
11111111111011100110
00000000000011110011
11111111110111101100
00000000000010111001
00000000001011111011
11111111111010000010
11111111111000101001
00000000000011011011
11111111111000011110
11111111111110001101
00000000000100000010
00000000000110100000
00000000000010100011
11111111111001010001
11111111110111101101
11111111111101100010
00000000000010110110
11111111110110110101
11111111111010110110
11111111111101010111
00000000000100111110
00000000000001011001
00000000001010001001
00000000001001001001
11111111111111100101
11111111110100010010
00000000000110000101
00000000000010100111
00000000001000100011
11111111110111100101
11111111110111101010
00000000000100111100
00000000001000110101
11111111110100110100
00000000000101001001
11111111111011011011
00000000000011001111
11111111111110010100
00000000000001110101
