11111111111110000001
11111111111101001011
11111111110111000011
00000000000101110110
00000000000110111100
00000000001000111101
00000000000011100101
00000000000111010011
00000000001000000110
00000000000100001010
11111111111110101010
11111111111000010111
00000000001000110110
00000000001011111100
11111111111000111001
11111111111110100110
00000000001100011001
00000000001010000100
00000000001001011101
11111111111001111100
11111111110110110000
00000000000011101110
11111111110111001111
11111111110111100100
00000000001001001010
11111111111000000000
00000000001001111001
00000000000111100001
00000000000101011101
11111111111001111011
11111111110111011101
11111111111100011100
11111111111101111010
00000000000001100110
00000000000111010110
00000000001011011011
11111111111000000001
11111111110111000101
00000000000101000101
11111111110011111011
00000000000110001010
00000000000110000010
00000000000000101000
11111111111110100001
00000000000001000100
00000000000000011010
00000000000001101010
11111111111001111011
00000000000011001000
00000000000011000111
00000000000110010010
11111111111001101010
00000000000110100111
11111111111111010101
00000000001101100001
00000000000011011011
00000000000101110011
11111111111000110001
11111111111101000001
00000000000110101001
00000000001011010001
00000000000000000111
11111111111000101001
11111111110100110010
00000000000101011101
00000000000001000101
00000000001011100110
11111111111100110100
00000000000101101111
00000000001010000010
00000000000110110010
00000000000100110010
11111111111010000101
00000000001011011101
00000000000001010000
00000000001001001000
11111111111001011100
11111111110011110110
00000000000100101100
11111111111001000111
11111111111100110110
11111111110110001011
11111111111101001011
11111111110111101100
00000000000110000110
11111111110100010011
11111111111000110110
11111111111110001010
00000000000001010101
00000000000100101100
11111111111100000111
11111111111110111010
00000000001010001010
00000000001011101100
11111111111100000000
11111111111111100001
11111111111001011110
00000000000010101011
00000000000011000011
11111111111010111001
00000000000010111011
00000000000100000101
00000000000010100110
00000000000100101010
00000000001100100100
00000000000110010010
00000000001011011101
00000000000000111000
00000000000011001010
11111111111111010001
11111111111101001100
00000000000001011111
11111111110111101100
11111111111001110100
00000000000100101001
00000000000101011001
00000000000000100010
00000000000001101110
11111111111111100001
00000000000000110101
