11111111110110000110
00000000000011111111
11111111111010010000
00000000000000111110
11111111110110011101
00000000000001011001
00000000000101001110
00000000000000100000
11111111111001000100
11111111111100100011
00000000000100100100
00000000000100001000
00000000000110111101
00000000001001001100
00000000000011001111
11111111110100010000
00000000000100001010
11111111111100100001
11111111111101000111
00000000001001100000
00000000001000000110
11111111111101100111
11111111111110001110
11111111111111111101
11111111111100000111
00000000000000100010
00000000000110100010
11111111111001111001
11111111111100110000
11111111111011000111
00000000000111010010
11111111111001100011
11111111110111110000
11111111110100101001
00000000000111000111
00000000000111101000
00000000000100000000
00000000000001110100
00000000000001111010
11111111111110100100
00000000000101100100
00000000001001010001
11111111110110000001
11111111110110111101
11111111111010010000
11111111111000101110
00000000000010111101
00000000000011000001
11111111111001011101
00000000000101010010
00000000001011111110
11111111111011100101
11111111111011101111
00000000000111110101
00000000000111001110
11111111111110011110
00000000000001111000
11111111110110110111
11111111110110010000
00000000001100001111
00000000000001000100
00000000000001111000
11111111111011100111
11111111111100011100
00000000001001101110
11111111111111000100
00000000000011010010
11111111111101010000
00000000000011111011
00000000000111101001
00000000001000001100
00000000000001110100
00000000000100010011
11111111111000101100
11111111110111001111
00000000000101001111
11111111111110111111
11111111111000010000
11111111111000001111
11111111110011000101
00000000000011010010
00000000001001000100
11111111111110111101
00000000000111100100
11111111111101010110
11111111111000110011
11111111111010011111
00000000001000100000
00000000001001001010
11111111111001001101
00000000000011110110
11111111111000100100
00000000000100111000
00000000001011111111
11111111110100101111
11111111111101001101
00000000000101011011
00000000000010110101
11111111110101110110
11111111110110111110
00000000000101110100
00000000001010001110
00000000000110110110
00000000000100111011
11111111111001101100
11111111110111100001
11111111111101101010
00000000001010100010
00000000000011010010
00000000000111101010
00000000000110000100
00000000001000110110
11111111110110111000
00000000000010101100
00000000001001001010
00000000000100100011
11111111110110100111
00000000000011100111
00000000001100101111
11111111111110001110
