00000000001010000101
00000000001001101100
11111111111001000111
00000000000101000010
00000000001010011000
11111111111000010101
00000000000011101011
11111111111110000001
00000000000001100100
00000000000000100110
00000000000010100100
00000000000111000110
11111111110110011011
00000000001001000110
00000000000101011000
00000000001011011100
00000000000101010011
00000000001101001001
11111111111001111101
00000000001001101001
11111111111010010011
11111111111000000100
11111111110101011011
00000000000001001001
00000000000101111001
00000000001010111110
11111111110100001101
00000000001101000001
00000000000001111011
00000000000000100001
11111111111101101110
00000000000000100111
11111111111101011001
00000000000100000111
11111111110110010010
00000000000001001010
11111111111011111000
00000000000110101100
11111111111000010110
00000000001000100011
11111111111111001111
11111111111000100101
11111111111010111110
00000000000001110111
00000000001001111011
00000000000010100010
11111111111101100010
11111111111010101001
00000000001001001110
11111111110110001010
00000000000100001010
00000000000010101000
00000000001011111110
00000000000110000110
00000000000011111011
11111111110100101001
00000000000000010111
00000000000010010010
11111111110101110011
00000000000101100111
11111111110110101011
00000000001001000100
11111111111001110001
11111111110110110000
11111111111010011101
11111111110101100000
00000000001001001111
00000000000101000001
00000000000011010001
00000000000001010010
00000000001001010010
11111111111110110111
00000000000000111000
11111111111001100000
00000000000001111011
00000000000100001110
00000000001001011001
00000000000101110000
00000000001011101111
11111111111101111011
11111111111101001100
00000000000000111101
00000000001010001001
11111111111100011010
00000000000010011000
11111111111010110011
11111111111001101000
00000000000111001011
00000000000111000010
00000000000010011001
00000000001000001110
11111111110100100110
00000000001011001101
11111111111010111110
11111111110100001010
00000000000011001011
11111111111101101110
00000000000010100001
11111111111110111010
11111111111110110011
11111111111000100011
11111111111001100111
00000000000010101001
00000000001011011011
00000000000101111011
00000000000101110001
11111111111101001100
00000000000000011011
11111111111001000100
00000000000000100100
11111111111001101100
00000000000001111011
00000000000001001110
00000000000010001101
11111111110011111010
11111111111101000000
11111111110110110011
00000000000111101001
00000000000010110100
11111111110110011101
