11111111111111011011
00000000000100100111
11111111111000010010
11111111110101101010
00000000000111101100
00000000000001101100
11111111110101010110
00000000001001110110
11111111111001010101
00000000000001100111
00000000000100101010
00000000000010001100
11111111111111011000
00000000001010000001
00000000000000100110
11111111111011001110
00000000000101100101
00000000001010000101
11111111111101001111
00000000000000100001
00000000000110011110
11111111111001010111
11111111110111000000
00000000000100101010
00000000000100000101
00000000000100110111
00000000000000000000
00000000000000111101
00000000000110100101
11111111110111111001
00000000000110110101
00000000001010000000
11111111111111000001
11111111111110110010
00000000000000010101
11111111111101010000
11111111111011101000
00000000000001010000
00000000000101001011
00000000000110101000
11111111111000100101
11111111111101110101
11111111110111010001
00000000000011100100
11111111111010010001
11111111111101100000
11111111111000010110
11111111111101001111
00000000001001010101
11111111111100110101
11111111111110000001
11111111111100010111
00000000001000010101
11111111111110100101
00000000000010111001
00000000000100011001
11111111111110111000
11111111111110110010
11111111110110110110
00000000000001111110
11111111111000001101
00000000000101101011
00000000000101010101
11111111111000110011
00000000001010001100
11111111110111000011
00000000000001001100
00000000001000101000
00000000000001010001
00000000000001010101
00000000000110000010
00000000001000011101
00000000001000001111
11111111110111011101
11111111111110011111
11111111111011101110
00000000000110010000
11111111111010011011
00000000001011000010
00000000001001100000
11111111110101111011
00000000001001101001
00000000000001010011
00000000000111010001
11111111111010100000
11111111111101101110
11111111110110000010
00000000000010011111
11111111111111111011
00000000001100010101
11111111111111111001
00000000000100111101
00000000000011011011
11111111110111110101
11111111111100011100
11111111111010010010
00000000000101111111
11111111110110001010
11111111111000101000
11111111111101010011
11111111111111110101
00000000000110110000
00000000001000101110
00000000001010001110
11111111110110000100
11111111111110011101
00000000000101101011
00000000000100110010
00000000000000110011
11111111111100000010
00000000000100101011
00000000000101110100
11111111111010101000
00000000000110001011
00000000000110010111
00000000000111110010
11111111111000011010
11111111111110100001
00000000000101010001
00000000000000100011
