11111111111000010111
11111111101011101001
11111111111101110101
00000000000001000000
11111111110001111100
00000000001001101101
00000000000100011111
00000000000100100110
00000000000011001011
11111111110101010111
00000000001000011010
11111111111001100110
00000000001011010100
11111111111101011101
00000000001001001101
11111111111010100100
00000000010010111101
11111111101111111000
11111111101001101110
00000000000000111100
00000000010100100000
00000000001011101111
11111111111111101111
00000000001000010111
11111111111000101110
00000000001011101011
00000000001100101001
11111111111001111100
11111111110001101100
11111111111000001110
00000000010010100000
11111111110111100111
11111111110110011010
00000000001101100110
11111111111001001110
00000000010000100011
00000000001101100101
00000000000101010000
00000000001000000011
00000000010011111001
11111111110100110111
00000000010010101101
00000000000011000001
00000000001011011010
11111111111011100100
11111111101100111010
11111111101111100101
00000000001101111111
00000000001001001001
11111111111110011000
11111111110011111110
00000000001000011111
00000000000000011010
00000000001101101110
00000000001110111010
11111111110100101000
11111111110000100111
11111111111000011001
00000000001000100111
00000000001110010101
00000000001100100100
00000000010001010001
00000000001100001011
00000000001011000101
11111111110101111111
00000000000100111111
00000000001000001001
00000000000111011011
11111111110000000101
00000000010001000000
11111111111000111000
11111111110010011011
00000000000110100101
11111111110100110110
11111111110111011000
11111111110000111000
11111111111000011011
11111111101111111010
00000000001111111111
11111111111000000010
11111111111110101010
00000000001000100100
00000000000010110100
00000000001111001110
