11111111111110001010
00000000000110111010
00000000000001100111
11111111110110000100
00000000001000101000
11111111111101110110
11111111110101111010
00000000000101001001
00000000000011000011
00000000000010000010
00000000000101010001
00000000000110010110
11111111111000101101
11111111111001100111
11111111111110110111
00000000001000101000
00000000000010010101
11111111111011011101
11111111111010011010
00000000001010010111
11111111111110001011
00000000001000101111
00000000000100100001
11111111111000001001
11111111111000000010
00000000000101000011
00000000001010111001
00000000001001100000
11111111111011010000
11111111111001100011
11111111110111000110
00000000001010011110
11111111111001011001
11111111111011100100
11111111111000111001
11111111110110001100
11111111111111101010
00000000001000001000
00000000000110100000
11111111111011011000
00000000000101110010
11111111111110111010
11111111111101110001
00000000001001101110
11111111111011101111
00000000000011010001
00000000000101010000
00000000001001000110
00000000000010110100
00000000000000011110
11111111111011010011
11111111110101111011
11111111110110101110
11111111111011011010
11111111110111110001
00000000000110011111
00000000000000100111
00000000001010110011
00000000000000100111
11111111110101110001
00000000000100101101
00000000000100001110
11111111110111001100
11111111111000010100
00000000000100100101
11111111110111001011
00000000000100110000
11111111111001110110
00000000000111001110
00000000000001111001
11111111110100110001
11111111111101110101
11111111110101001010
00000000001001011010
11111111111011010100
11111111110110011011
00000000000001100010
11111111111100101010
00000000000000101111
11111111111111010100
11111111110111000001
00000000001000100100
00000000001001110011
11111111111010100111
00000000000001100100
00000000000000111101
11111111111010110100
11111111111110000010
11111111110110010001
00000000000101100110
00000000000011011011
11111111110100100011
11111111111011100110
11111111111110111001
11111111111010010101
11111111111000100010
00000000000001110000
11111111111111110111
00000000000001111100
11111111111000110101
00000000000100111011
11111111111101110101
00000000000101011100
00000000000100101001
00000000001000100101
11111111110111100010
00000000001101011101
00000000000101001010
11111111111011111101
11111111111000110001
00000000000100001100
00000000000110111100
00000000000010000110
00000000000111000001
00000000001000001101
11111111111111111110
11111111110110000110
11111111111110001001
11111111110111111000
00000000000010101001
