00000000000100011101
00000000010001010111
00000000001010111110
00000000000011000110
11111111111101100001
00000000000110100011
11111111111101001010
00000000001010101000
00000000001000001011
00000000001010000001
11111111111010111110
11111111110010111101
00000000001000001100
00000000000101000101
00000000001111010101
00000000010000100000
11111111101001101000
00000000000110010100
00000000010010000001
11111111111010100001
11111111101011101111
11111111111001111000
00000000001100010000
11111111111100001100
00000000001001000010
00000000010001101110
00000000001101010000
00000000000111111001
11111111101111011110
00000000001100110001
11111111111110110010
11111111110010000001
11111111110000100010
11111111111100111000
11111111101100111001
11111111111011001111
00000000000101011011
11111111110000110000
11111111111010011000
00000000000110111010
00000000000110111100
00000000010010001010
00000000001100101011
11111111110111111000
11111111110010010100
00000000000101101100
11111111111111100101
00000000000110101011
00000000000101010110
11111111101111100111
00000000000110100101
11111111110100110100
11111111110111010000
00000000001111010010
00000000001010010100
11111111111010110111
11111111111010000111
00000000000010010010
11111111101011011011
11111111110001111101
00000000001101111101
00000000001110001010
00000000001001100110
11111111110001100000
11111111111001010100
11111111110011010001
11111111111010110001
11111111111101100100
00000000001111100111
11111111110000010010
11111111110010011001
00000000000111100010
11111111101111010100
11111111111100011011
00000000000111000000
11111111111011011011
00000000000001000101
00000000001000111001
00000000000000010010
11111111111000100011
00000000001001100110
11111111111001000100
00000000001011101101
11111111101000100111
