11111111110101100001
11111111101110001111
00000000010011011000
11111111110010111010
11111111110100110110
00000000000001010111
00000000010000100000
00000000001101101111
00000000000101011110
11111111111001110111
00000000010101000111
00000000001100100010
11111111111101111100
00000000010000000101
00000000001100100100
11111111110000010101
11111111110011011001
11111111111011000110
11111111111000000001
11111111101111001011
00000000001011011100
00000000000111111011
11111111110001111101
11111111101010111100
11111111111001000111
00000000001101010111
11111111101000110111
00000000000110111001
00000000000010110110
00000000000010000100
11111111110100111100
11111111101101111100
00000000001010000011
11111111101100101001
00000000001100000111
00000000001001011010
11111111101111100000
00000000000000000000
00000000001101101101
11111111111110111001
00000000000101011110
11111111111010110000
11111111111100111110
11111111111100111101
11111111101101010100
11111111111000110110
00000000000001001000
00000000001110010001
00000000001110100110
00000000000010011111
11111111101101000111
00000000010101001101
11111111110100111010
11111111110000101100
00000000000111110110
11111111111010011010
00000000000000001100
00000000000101101100
00000000000100010011
11111111111101101010
00000000001111010110
00000000000000110001
11111111110000000010
11111111110101000001
00000000001011000111
11111111111011000000
11111111110111000111
11111111110010011001
11111111111101011101
00000000001000000010
11111111101111110101
11111111111100010101
00000000001010011001
00000000000010100100
00000000001101100110
11111111101101101001
11111111110000111101
11111111110101100110
00000000001100011100
00000000000000010000
00000000000001010111
11111111110011100010
00000000001101001111
00000000000001001010
