00000000000001110101
00000000000100111110
00000000000011011111
00000000000011011100
00000000000010110111
11111111111010001100
11111111111101100000
00000000000101100011
11111111110100111100
00000000000011010110
11111111111011111101
11111111111111110101
11111111111111101110
00000000001000111101
11111111111110000101
00000000001001111001
00000000001010010100
11111111111011000111
11111111111100101100
00000000000011111001
11111111110111101011
00000000000100100011
00000000000000001110
00000000000001011110
00000000000011011110
00000000000011000010
00000000000100011100
11111111110101011110
11111111111110100011
00000000000010010010
11111111110111011010
11111111110110010110
11111111111101001000
00000000000111001100
00000000000010110000
11111111110111000011
11111111111000110001
00000000000111011111
11111111111111001001
11111111111111010101
00000000000100000000
00000000001010110111
00000000001011110101
11111111111010001011
00000000000101010110
11111111111101101101
00000000000011110011
11111111110111101101
11111111111000100000
00000000001010001010
11111111111011110100
11111111111110010001
00000000001001101111
11111111111001100100
00000000000000010011
11111111110110111101
00000000000100001011
00000000000010111101
11111111111010001001
00000000000011010100
00000000001000000000
00000000001010001111
00000000001000010000
00000000000011100011
11111111111100000010
11111111110101110001
00000000001001000001
11111111111011010011
00000000000110100101
00000000000110000011
00000000001010001100
00000000001001011011
11111111111101110000
11111111111001101101
00000000000010000000
00000000000111101011
11111111111001111011
11111111110110001000
11111111111101111011
11111111110110100011
00000000001011100111
11111111111010110010
11111111110111000110
00000000000000001101
11111111110110001101
00000000000000011011
11111111110110110101
00000000000111101100
00000000000101101101
11111111111101100110
11111111111011100011
00000000001001010001
11111111111100010000
00000000000111010100
11111111110110000100
00000000001000111000
11111111110110010011
00000000000101000000
11111111111010111110
00000000000111101000
11111111111010001110
00000000000011100101
00000000000110110011
11111111111000110100
00000000000111111110
11111111111111101011
00000000000111101100
00000000000110011111
00000000000010011111
00000000000101000101
11111111111011101110
11111111111011010100
00000000000111111101
00000000000111111010
11111111111100001010
11111111111011010011
11111111111100011101
00000000000000000011
00000000000101011100
00000000000010010010
