00000000000011110001
11111111111001011001
00000000000001101100
00000000001001000100
11111111111001000110
00000000001011010001
00000000001000011010
00000000000001001001
00000000001010001000
11111111111100110101
00000000000110110101
00000000000001101000
11111111111000001101
00000000001011100100
00000000001000111001
11111111111111001100
00000000000100000110
00000000001010000010
00000000001001001011
11111111111101110100
00000000000110100010
00000000001000011111
11111111110111010110
11111111111101000000
11111111110111101011
11111111110101000011
00000000000110010110
00000000000011000101
00000000001001001110
00000000001000000000
11111111110111010110
11111111110101101001
00000000001011010101
11111111111110100110
11111111111100110001
11111111111001101111
11111111110111000000
11111111111100111101
11111111110110110111
00000000000001011000
11111111111000010101
00000000000100010010
00000000000110010011
11111111111001010000
00000000000110011001
11111111110110010000
00000000001000100111
00000000001000100000
11111111111010011001
11111111111010101001
11111111110111100101
11111111110111111101
11111111111010100011
00000000001001010101
11111111110101100110
00000000001000000001
11111111110101101011
00000000001010000111
00000000000000000110
00000000000011001000
00000000000000000011
11111111111010111101
00000000001000111111
11111111111111111011
00000000001001111111
11111111111011101100
11111111110111101100
11111111111001010100
00000000001000110100
00000000000111101101
00000000000100010111
00000000001010101010
11111111111101100010
00000000001011010010
11111111111010011001
11111111111001110101
11111111111110111110
11111111111000001011
00000000000011011100
11111111111001100001
00000000000010001101
11111111111100010001
11111111111000111101
11111111111110010100
00000000000010110110
11111111111010110110
00000000001010111101
11111111111101001010
00000000000111110000
00000000000000110011
11111111111100001010
00000000001000111010
11111111110101010101
11111111111011100010
11111111111001011101
00000000000010001111
00000000000011011010
00000000000110011010
11111111111001011110
00000000000100111000
11111111111000001001
11111111111100000000
11111111111110010101
11111111111110001000
00000000000100011000
00000000000000111111
00000000000111100110
00000000000010101001
11111111110101000001
11111111111011110001
11111111111000100001
11111111111010111110
00000000001010010100
11111111111011001001
00000000000011110001
00000000000000101111
11111111111000101001
00000000000101000100
11111111110111111001
11111111111001110001
