11111111111101101110
11111111111000010010
00000000000100000001
00000000000101001001
11111111111000110111
00000000000101110111
11111111111001000000
00000000000011010111
11111111111001101010
00000000000011110101
00000000001010101011
00000000000110010000
11111111111010000111
00000000000111011001
00000000000100110001
00000000001000010000
11111111111100000111
00000000000000011110
11111111111010010100
00000000000100011100
00000000000000111011
00000000001010110100
00000000000111101011
11111111110111111110
00000000000011101010
11111111111100110110
00000000000100000100
00000000001010001101
11111111111000110101
00000000000101110001
11111111111111001100
11111111111001000001
11111111110100100000
00000000000011101100
00000000000101010110
00000000000110100000
11111111111010000000
11111111111001000100
00000000000100100010
00000000001010011001
00000000000000010100
00000000000111111111
00000000000010111100
00000000000011001100
11111111111110111010
00000000000101111010
00000000001001110010
00000000000101110000
11111111111100010011
00000000000010000010
00000000000001100111
11111111111101000001
00000000000001111000
11111111111010010110
11111111110110110101
11111111110111100100
11111111111100001010
11111111111001001000
00000000001011101100
00000000001001010101
11111111111110101110
00000000000001110101
11111111111111111111
00000000000000010100
00000000001011010100
00000000000000110111
00000000000001001011
11111111111111101111
00000000001010101001
00000000000000101100
11111111111001011111
11111111111111000111
00000000000001000010
00000000000010100000
11111111111110011000
00000000001000001110
11111111111101101000
00000000000110001101
00000000000000111110
00000000000101000010
00000000000000110101
00000000000100101000
00000000000011011101
00000000000001011011
11111111111111001110
11111111111100111000
00000000001010000010
00000000000010001111
11111111111011011111
00000000001011100010
00000000001010000110
00000000000100001010
11111111111011101010
00000000000000000100
00000000000101110101
11111111110111010101
11111111110111111110
11111111111101000100
00000000001100010111
00000000001011100010
00000000000010111110
11111111110111001110
11111111111000011000
11111111111110001101
00000000000111011011
11111111111111010010
11111111111111110101
00000000000111011111
00000000000011000011
11111111111001001011
00000000000101100110
00000000001100100011
00000000001011100010
11111111111010001010
11111111111001010100
11111111110110000100
11111111110100001010
11111111111011101110
11111111110111001001
11111111111011100110
