11111111111011010111
11111111111111011100
11111111111111011110
11111111111000101101
11111111111101110111
00000000000000100011
11111111111101100111
00000000001001010111
00000000000011111001
00000000000110000100
00000000000101110010
11111111111101001010
00000000000001001001
00000000001000100010
11111111111100110101
11111111111101101110
11111111111000001010
00000000000111101010
00000000000111001101
00000000000110101011
11111111110111110110
11111111111000101000
00000000000110000111
11111111111011000000
11111111110111001011
00000000000000100011
00000000001001111010
11111111110110111001
11111111111111011010
00000000001001001101
00000000000010000110
11111111111011001110
11111111111100110001
00000000000010001101
00000000001000100110
11111111111110100110
11111111111101101000
11111111111010110011
00000000000111010000
00000000000101001011
11111111111001001111
11111111110110010011
11111111111111111000
11111111111100000110
00000000000010000100
00000000001000010010
00000000001011000100
00000000001000011101
11111111111010110010
00000000000010110101
11111111111110000110
00000000000001111001
11111111111011000100
11111111111111100001
11111111111100101011
11111111111001110100
00000000000000100100
00000000000000100011
11111111111100010011
00000000001010001001
00000000001001101111
00000000001000011000
00000000000001110010
00000000000111011111
11111111110110010000
11111111110111011011
11111111111000101000
11111111111011001101
00000000001000110011
00000000001010111001
11111111111000000010
11111111111101100111
00000000001000011010
11111111111001101100
00000000001010001111
00000000000011110001
11111111111000100110
11111111111011110100
11111111111101100011
11111111111000001111
11111111111100111110
11111111111000110010
11111111111111100100
00000000000011110110
00000000000111001001
00000000000000011101
00000000000011010111
11111111111010000010
11111111111111100010
11111111110110111111
11111111110111011001
00000000000111011010
11111111111001000101
11111111110111011101
00000000000100010000
11111111111011001101
00000000000010100110
00000000001000001111
00000000000101111011
11111111111001011111
00000000001001010011
00000000001001001010
00000000000000001111
11111111110110110010
11111111110101111001
11111111111010000011
00000000000001110011
11111111111011010010
11111111111001110110
11111111111010011111
11111111110110001010
11111111110111001010
00000000000001011001
00000000000110101010
11111111111010000101
00000000000100011101
00000000000010110101
11111111110111111100
00000000001010100010
11111111110101000001
