00000000000000011010
00000000000000100101
11111111111111111101
00000000000001001010
00000000000001001011
00000000000001011000
00000000000011010001
11111111111111100000
00000000000101101110
00000000000000000000
00000000000000011100
00000000000000000000
00000000000000011011
00000000000100101000
00000000000001000101
00000000000000101100
00000000000010011101
00000000000001110101
00000000000010100011
00000000000000000010
11111111111111110100
11111111111111101110
00000000000000000101
11111111111111010110
11111111111110011111
11111111111110010101
11111111111111111110
00000000000001011111
11111111111111001010
00000000000000000100
11111111111111100100
00000000000000001000
00000000000000111100
00000000000000100010
11111111111111101001
11111111111111100011
11111111111111011000
00000000000001011001
00000000000000001110
00000000000001111101
00000000000001111010
11111111111111111001
11111111111111101011
00000000000000000000
00000000000000100101
00000000000001000000
00000000000100010010
00000000000001101011
11111111111110111101
00000000000001100110
11111111111111111100
11111111111111010101
11111111111111111000
00000000000000101010
11111111111111110110
00000000000000100001
11111111111111100000
00000000000001110111
00000000000000000110
00000000000010001000
00000000000011000010
00000000000000111101
00000000000010001000
00000000000000000111
00000000000001000101
00000000000000000100
00000000000000010000
11111111111111111101
00000000000010000010
11111111111111111111
00000000000000001000
11111111111110111111
00000000000000011101
00000000000010010100
00000000000000100111
11111111111111011010
11111111111111110110
00000000000000101101
00000000000001001100
11111111111110111111
11111111111111110100
11111111111111010100
11111111111111100111
11111111111111010011
11111111111111011110
00000000000000100001
00000000000000000100
00000000000001111101
00000000000010110111
00000000000000101111
00000000000001000010
00000000000001001011
00000000000000000010
00000000000001001111
00000000000001010011
11111111111110111101
11111111111111111101
00000000000000000110
11111111111111001111
00000000000001110010
11111111111111110000
11111111111111101010
11111111111111101011
11111111111111000011
00000000000000111001
00000000000000000101
00000000000001010010
00000000000000101110
11111111111111000010
11111111111110101110
11111111111111111000
11111111111111010011
11111111111111100100
11111111111110100011
00000000000000100010
11111111111111001111
00000000000000110110
00000000000000000100
11111111111111001101
11111111111111111101
