00000000000110001011
00000000000010100000
00000000000100110001
11111111111110111001
11111111111101111011
00000000000111011101
11111111110101001001
11111111111011110011
11111111111001110111
11111111110111000110
11111111111000100011
11111111111110110001
11111111110101101111
00000000000011011100
11111111111100110101
00000000000011010011
00000000000011001111
00000000000110010001
11111111110100111100
00000000000110010001
00000000000110101011
11111111111010101101
11111111111011101110
00000000000001001001
11111111111010001100
11111111111101001111
00000000001010000011
11111111110111000000
11111111111101000110
00000000000011100111
11111111111100011101
00000000000001101100
11111111111001000001
11111111111101100111
00000000001000110011
11111111111010010000
11111111111100000101
00000000000010010001
00000000000010000011
00000000000101100000
11111111111010011100
11111111111011001110
11111111110110010111
00000000000010000101
11111111110111111000
00000000001100011010
11111111111000010010
11111111111100010010
00000000001011101110
00000000000000001110
11111111111111001101
11111111111101100100
00000000000000101100
11111111111100000111
00000000000011001111
00000000001001111000
00000000001011011001
00000000000111011000
00000000000110001010
00000000000010001001
00000000000001001000
00000000000101111100
00000000001000010010
11111111111011010111
11111111111100011011
00000000000011100101
11111111111011111010
11111111110110011110
00000000000010001111
11111111111011110111
00000000001001101100
11111111111010110100
00000000000011110110
11111111111111100100
11111111111010111101
00000000001001001101
11111111111011000000
11111111111001110001
11111111111100010011
00000000000011110100
11111111110111000011
00000000000011100000
11111111111110000011
00000000000100001100
11111111111100110001
00000000001000110110
00000000000000111101
11111111110100111111
11111111111110001011
00000000000001011001
00000000000011111110
11111111110101110100
00000000000101010110
00000000000101011101
00000000000111100110
00000000001010101010
00000000001001100010
11111111111111100111
11111111110110110011
11111111110110110101
00000000001010011000
11111111111001011011
11111111111111010001
00000000000100100011
00000000000110100111
11111111111010110110
11111111110111100001
11111111111100010101
00000000001000101000
00000000000100110011
00000000001101100001
00000000000011110010
00000000001001100000
00000000000000100010
11111111111000101110
11111111111000011100
00000000000111000011
00000000001001101011
11111111111011000001
11111111111001010101
