11111111111001000010
11111111111100100100
00000000000011111001
11111111110101001110
11111111110101101111
11111111111110100100
11111111111011011100
00000000000010100110
00000000001010110110
11111111111111001000
11111111111001100111
11111111111100110000
11111111110111000110
00000000000110011111
00000000000011111111
00000000000011111111
00000000000000000000
00000000001010010000
11111111111010000010
11111111111001111100
11111111111110111100
00000000000000011100
11111111110101101111
11111111111110100101
11111111111110101001
00000000000100000111
11111111110101101000
11111111111101101010
11111111111100111100
00000000000010011000
11111111110101011010
11111111111101111010
00000000001010111001
11111111111001010011
11111111111000001000
00000000000011100100
00000000001000000111
00000000001001111110
11111111110101100100
11111111110011100011
11111111111000001101
00000000000011110110
00000000000010000110
11111111111011000011
11111111111100100010
00000000001000111101
11111111110110111000
00000000000000100110
00000000000111111111
00000000000110100101
00000000001001011100
11111111111110000011
11111111111010011111
11111111111101100001
00000000000011110010
11111111110110111111
11111111110110000101
00000000001001111010
11111111110110111000
00000000000100010011
00000000000110100010
00000000000010111010
00000000000010100111
00000000001010001011
11111111110111010011
00000000000100011100
11111111111001101101
00000000000101010110
11111111110111001110
11111111111111110110
00000000000010110100
00000000000000110101
00000000001001011110
11111111110101000101
11111111110111001011
11111111111010111011
00000000001001101010
00000000000110011010
11111111111111101001
00000000001000110010
11111111111110010100
11111111111111101001
00000000000011010001
00000000000111101101
11111111111100111110
11111111111011111010
00000000001010000011
00000000000000111011
00000000000111100000
00000000000111100111
00000000001000101100
00000000000100010111
11111111111001100110
00000000000000111001
11111111111101001100
00000000001000100010
00000000000110110100
11111111111010101011
11111111111101110100
00000000000001110011
00000000000011000011
11111111111101001010
00000000000110100100
00000000000001011101
11111111111010010001
00000000000111100100
00000000000000111100
00000000000100110110
11111111111100011111
00000000001010000100
00000000001000011001
00000000001010010001
00000000000111101100
11111111110110001111
00000000000011011010
00000000001010011110
11111111111001110110
00000000001000111101
00000000001000000100
11111111111000101010
