11111111110111011011
00000000001011111110
00000000000000011110
11111111110110000100
11111111110100011111
00000000000000100111
11111111110111010001
11111111110111000111
11111111111011111001
00000000000110010110
11111111111101110111
00000000001001110111
11111111111001001011
11111111111011101010
00000000000000011000
11111111110101101101
11111111111111111001
00000000001001011100
11111111110101111110
00000000001010100101
00000000000000010101
11111111111001101111
11111111111100011111
00000000000010010000
00000000000111011110
00000000001010010011
11111111111010010000
00000000000111010000
11111111111011010001
11111111110101111001
00000000001000110111
00000000001001010101
00000000001001010010
11111111111110110011
11111111111010110110
11111111111000001101
00000000000000010101
11111111110101010010
00000000000000000000
11111111111111110100
00000000000110010011
11111111111101101100
00000000001011001000
11111111110101111011
11111111110111110000
11111111110110010101
11111111110110011000
11111111111101000000
00000000000010101110
00000000001010100000
00000000001100011001
11111111111000110000
11111111111111011010
00000000000101101101
00000000000011100100
11111111111011100011
11111111111101101110
11111111111110010000
11111111110101111101
11111111111110111001
11111111111110110000
11111111110111111100
11111111111011001110
00000000000101001010
11111111111111011000
11111111110101101110
11111111111100011011
00000000000110010101
11111111111000110000
11111111111010011011
11111111110111010110
00000000000100110000
00000000001010010011
11111111111111101010
00000000001110000000
00000000000011011110
00000000000110010110
00000000000100111101
00000000001001111001
11111111110111101001
11111111110011101001
00000000000010100110
11111111111110000110
00000000001000100010
00000000001010010000
11111111110101000111
00000000001010010010
00000000000000011001
00000000001010101101
00000000001000101010
11111111111100100000
11111111111101011010
11111111111011000110
00000000000001011001
00000000000100101101
00000000000011000000
00000000000010001010
00000000000000001110
00000000000111101000
11111111111110010110
11111111111000000010
00000000000111100001
00000000001000001110
11111111111011110100
00000000000001001101
00000000000011001010
00000000000000101110
11111111110110101000
11111111111010111101
11111111110111000100
00000000001011101100
11111111110110101000
11111111111111001100
11111111111011110101
00000000000011101101
11111111111010000100
00000000000011110001
00000000000101111110
00000000000111010111
11111111110111111111
