11111111111010000010
11111111111010100110
00000000010001010101
11111111111101000100
00000000000101010111
00000000001100110110
11111111110110100010
00000000000100100000
11111111110111010101
00000000000111110110
11111111111111011100
00000000000101111100
00000000000001110011
00000000000110101100
11111111111000101011
00000000010000100101
00000000000100010110
11111111101010100111
11111111111110011000
11111111110010001000
00000000000111001000
00000000001101000000
00000000010000010011
11111111110001010001
11111111111111101001
00000000000011110001
00000000001001110000
11111111101001111011
00000000001010101001
00000000000100011110
00000000001001000101
11111111111100001110
11111111101100010010
00000000000110001101
00000000001010101000
00000000000011000000
11111111110111110101
11111111110101111010
00000000001000100100
00000000001110110101
00000000010010000111
00000000000110001110
11111111111000001010
00000000010001010101
00000000010001000111
00000000001101001001
00000000010001010011
00000000001110001000
11111111111001110100
00000000001110011101
11111111110000010100
00000000001001010001
00000000001000011110
11111111110100100100
11111111110001011100
11111111111111000001
11111111110000100010
11111111100100010100
00000000000010101011
00000000001101111001
11111111100111111100
00000000001010100010
11111111110011010001
00000000001001100000
00000000010010000100
00000000001011101011
00000000010100101011
11111111111010010100
11111111110010011001
11111111110100001001
11111111111001111011
11111111110110110101
11111111111011011001
00000000000000000101
00000000001000010110
11111111110010001101
00000000001001011011
00000000001100010000
00000000000001111001
00000000000000000011
00000000001000010100
00000000001000101011
11111111110001001001
00000000000110010000
