00000000000101101010
11111111111011111111
00000000000011010101
00000000000111100011
11111111111011001110
11111111110100100000
00000000001000110010
00000000000001010111
00000000000110011101
00000000001000010110
11111111110110011000
00000000000011010100
11111111111111101011
11111111111100001100
00000000000101101111
11111111111100100101
00000000000110001000
00000000000111010001
00000000000001011110
11111111110110111000
00000000000001111111
11111111111100101010
11111111111100110011
11111111111001001111
00000000001011101010
11111111111000100100
00000000000011110001
11111111111111010111
11111111111101111001
00000000000000100111
00000000001001111100
11111111111100100101
00000000000110001001
11111111111111000111
00000000001000110100
00000000000011110110
11111111111010010010
00000000000110000100
00000000000101011101
00000000001010101100
00000000001010111001
11111111111010010000
00000000000000111100
11111111110101000101
11111111111000111100
11111111110111001110
11111111110110101101
00000000000100001110
00000000000011010101
11111111110110100011
00000000000101011010
00000000001001101100
00000000000100111000
11111111111011111001
00000000000000000110
11111111111111001110
00000000000001100010
11111111111111100101
11111111110110010011
00000000000100110100
00000000000100111011
11111111111001000111
00000000000100010001
11111111111010001011
00000000000010001011
00000000000010011011
11111111110101001101
00000000001010011011
00000000001001111001
11111111110110000000
11111111111011011111
11111111111110000011
00000000000101101011
00000000000011111011
00000000000110011001
00000000001001110110
11111111110111101100
11111111111110010100
00000000000011110000
00000000001001100001
00000000001010101110
00000000001001001010
11111111111001111011
11111111111111101011
00000000000010111111
00000000000111011110
11111111110111100101
00000000001000001011
11111111111001101000
00000000000110001111
11111111111000110101
00000000000011111010
00000000000110010100
11111111110101010111
11111111111010001101
11111111111001110000
00000000000000101111
11111111110111111000
00000000001010100100
11111111110100111110
11111111110101110000
00000000001001101101
11111111111111111000
00000000000101000110
11111111111001001101
11111111110111011011
00000000000111110101
11111111110110101110
11111111110111010000
00000000000001010101
11111111110100001001
00000000000110101001
11111111110111111100
11111111110101010010
00000000000001000101
11111111111000100111
00000000001010000001
00000000001010010100
00000000000000011001
11111111111011111110
