11111111111100001010
11111111111100010111
11111111111001000100
00000000001101100011
00000000000011001100
11111111111001010110
11111111111111110101
11111111110111101001
00000000001010010001
00000000000111011000
11111111111000001000
00000000000100100111
11111111111000111101
00000000000001011110
11111111111111111010
11111111111101110011
11111111111100100011
11111111110101000110
00000000001000000011
11111111111110110111
11111111111111101010
00000000000011001011
11111111110110111001
11111111110111010001
00000000000011010000
00000000000110010011
00000000001010001111
11111111111010100000
00000000000101001010
11111111110101010111
00000000000000010110
11111111111000100100
00000000000101111110
00000000001010010110
11111111111110001001
00000000000101001010
11111111111101101101
11111111111110000111
11111111111011000110
00000000001101011000
11111111111010110010
00000000000001111101
00000000000001010111
11111111111010000001
00000000000010110000
11111111110101000100
11111111110101101111
00000000000000101010
00000000001001101010
00000000000001000000
00000000000111001111
00000000000001010110
00000000000110110110
11111111111110110011
11111111111101101100
00000000000110101001
11111111110100010110
11111111111110010001
00000000000100111101
00000000001000101110
00000000000100001111
11111111111111110111
11111111111101010100
11111111110111101110
11111111111110100011
00000000000111100000
00000000001000100111
00000000000101101010
00000000001010101100
00000000000100110000
00000000001011000001
00000000001011100110
00000000001000001100
00000000000000111011
00000000000101100011
11111111111100011111
11111111111100110111
11111111111010101010
11111111111000001101
11111111110100110110
11111111111010110011
00000000001100001000
00000000000000110100
11111111111011101100
11111111111100101011
11111111110101101001
11111111111100101100
11111111111010001110
00000000001100001110
11111111111110100011
00000000000111010100
11111111111000001011
11111111111010101011
11111111110101001000
11111111111011101111
11111111111011010111
00000000000111110001
00000000001000111010
11111111110110001110
00000000001111000111
00000000000111001100
11111111111101110001
00000000000110100100
00000000001001000110
00000000000110111001
11111111110111101011
00000000001011100001
00000000000000001100
00000000000001001000
11111111110101101000
00000000001000100001
00000000001000001010
11111111111000011000
11111111110110000011
00000000001100011110
11111111110111000001
11111111111110010100
00000000000100111110
11111111111011100011
00000000001000000101
