00000000000010010111
00000000000010111000
00000000000000101101
00000000000000000100
11111111111001000011
00000000000101011010
11111111110101010011
00000000000000010101
00000000000101011011
00000000000100100101
11111111111010110001
11111111110111001101
11111111110111111101
11111111111100110110
00000000001010000010
11111111111110100001
00000000000000001101
11111111111111100110
00000000000101100000
00000000000011001010
11111111111111110001
11111111111000111000
00000000000110100001
11111111111000101111
11111111111110110011
00000000000011010000
00000000001010100111
11111111111110001000
11111111111001011100
11111111110111100001
11111111111110011001
11111111111110101000
11111111111011111001
00000000000001101001
00000000000110101010
00000000000001000001
11111111111001000010
11111111111000110101
00000000000001010100
11111111111101001000
11111111111000101001
11111111111010010011
11111111111010000000
00000000000110100110
00000000000010111011
00000000000111001011
11111111111111001011
11111111111001100110
11111111110110111100
11111111111100111101
11111111111110010010
11111111110110011101
00000000000010100000
00000000000110011101
00000000001001101000
00000000000001110000
00000000000100111100
00000000000011110010
00000000000010101101
11111111110101011010
00000000000001011000
00000000000100111001
00000000001001111101
00000000000110101010
00000000000110110001
11111111111010000000
11111111111010010101
00000000000010101101
11111111111010110011
00000000000011001110
00000000000111110010
11111111111101001010
11111111111100100101
11111111111110010111
11111111111111100000
11111111111001000101
11111111110111010101
00000000000010100011
11111111111011111110
11111111111010100000
00000000000100000101
00000000000011011111
11111111111100001101
00000000001001101011
00000000000011110000
00000000000000100100
00000000000111101101
11111111111111111111
11111111110110011110
11111111111000100011
11111111111100100001
00000000001010010001
00000000000111010100
11111111111001011011
11111111111101101000
00000000001010000011
00000000001001011110
00000000000101001011
00000000000010000000
11111111111100101010
11111111111110001001
00000000000100101101
00000000001001001001
11111111111001010100
11111111111001110110
11111111110110001110
00000000000101110000
00000000001010011011
11111111110101011110
00000000000000001101
00000000001000100100
00000000000000011011
11111111111101110010
11111111111000110010
11111111111011010100
11111111110101011010
11111111110110110000
00000000000000110101
00000000001001110111
00000000001001111100
