11111111111011110110
11111111110101011101
11111111111000011110
11111111111011011010
11111111110111100001
11111111111100110000
11111111111100010010
11111111111011101100
00000000000101111100
11111111111001010000
00000000001001101011
00000000001010010100
00000000001000111101
00000000000100110010
11111111110011111101
00000000001011011010
00000000001010001100
11111111111100000110
00000000000111111110
11111111110111001111
00000000000110010110
11111111111111001101
11111111111011011010
00000000000000001010
00000000000111100110
00000000000110110010
11111111111111010101
11111111111011011111
11111111111101001100
11111111111110100101
11111111111011011101
11111111111000001101
11111111111010101110
00000000001000100011
00000000000111111100
00000000000111010111
00000000000000000000
11111111110110100111
11111111111111010010
11111111111101000111
11111111111010011000
11111111110110001011
11111111110101101100
11111111111000000110
11111111111101000101
11111111110110111101
00000000000110111101
11111111111001001011
11111111111101110000
00000000001010110010
00000000000110110010
00000000000011011111
00000000000110101101
11111111111010001010
11111111110101101101
11111111111101101101
11111111111001001110
00000000001000100001
11111111111111011010
00000000000010100100
00000000001010000010
11111111111001000001
00000000000110011101
11111111111111011000
11111111110110110001
00000000000001111001
00000000000101001110
00000000001010000111
00000000001001110011
00000000000010100011
00000000000011111100
00000000001000011111
00000000000100101010
00000000000100110110
11111111111000100010
11111111111001001100
11111111111011011011
00000000000100110101
11111111111100100011
11111111110110000010
00000000000000100011
00000000000011000111
11111111111000001001
00000000000100110101
11111111111011011100
00000000000100001000
00000000001001000001
00000000000110001111
11111111111000101111
00000000001001111001
11111111111010110100
00000000000001100100
11111111110100111001
11111111111101101010
11111111111111111011
11111111110110000011
00000000000100010001
11111111110100010101
00000000000110011011
00000000000100001000
00000000001000101101
11111111111101000111
00000000001000011001
11111111111010000111
00000000000001110111
00000000000111011001
11111111111011100011
00000000000010101011
00000000000110111101
11111111110110110110
11111111111010000001
00000000000111111110
11111111111001000010
11111111111100100011
00000000001000100101
00000000001011001110
11111111110101000001
11111111111101010011
00000000000011000000
11111111111010001110
