00000000000000010000
11111111111010000010
00000000000111100101
00000000000001010000
11111111110110111001
00000000001100001011
00000000001010110010
11111111111100010100
00000000000110111001
11111111111001101011
00000000001001001110
00000000000011011011
11111111110101101011
00000000000001010010
11111111111000000111
11111111111110000100
00000000000010100100
11111111110100100110
11111111110111100000
00000000000100111100
00000000000001100011
11111111111100011000
11111111111111101010
11111111111101011100
11111111111101101001
11111111110100010010
00000000000000101010
11111111110110110101
00000000001010010101
00000000000101100001
00000000001001111010
00000000000001101000
11111111111010111100
00000000000000100011
00000000000010000010
00000000000101001011
00000000000010110110
00000000001011111010
00000000000011110110
00000000000101000000
11111111111010101011
00000000000111111000
00000000000101110010
11111111111001111000
11111111111010101110
00000000000100101001
11111111111010001101
11111111111111001000
11111111111000111110
00000000000010011000
00000000001001011111
11111111110111001000
00000000001001011000
11111111111000100100
00000000000100001101
11111111111101001100
00000000000100010100
00000000000111101110
00000000000010010010
11111111111100001101
00000000000010101110
11111111111001111100
00000000001011001111
00000000000010000101
00000000000110000111
11111111111010011100
00000000000000010110
11111111111011111110
11111111111010011000
00000000000110111110
00000000000000110101
00000000000010110101
11111111111011100001
00000000000010110001
11111111111110000000
00000000000100010100
00000000000100100000
00000000000001110011
11111111111111101110
11111111111011101110
00000000001010011100
11111111110111101111
11111111110101011001
00000000001010100010
11111111111001010000
11111111111001000100
11111111111001111101
11111111110111111111
11111111111011010001
11111111111111100010
11111111111100010101
00000000000111110101
00000000000100000111
00000000000111000011
11111111111011101110
11111111111111111100
00000000000001001101
11111111111111000000
00000000000000110000
00000000000100000000
00000000000010010111
11111111111011110111
00000000001011100010
00000000000100101011
00000000000101111101
11111111111101001101
11111111110110101010
00000000000000100000
00000000000111111110
00000000000110000111
11111111110101101111
11111111111100101010
11111111111100110011
11111111110111111011
11111111111101110001
00000000000101001010
00000000001000001110
11111111110111110101
11111111111101100000
11111111111010100110
