00000000000101010000
11111111110100110101
00000000000110100011
00000000000101011101
11111111111011000100
11111111111100101111
11111111110101101110
00000000000001000010
00000000000111001001
11111111111010000001
00000000001010001011
00000000000111111110
11111111111000101111
11111111110101000100
11111111111011111100
11111111110101000101
00000000000001001000
11111111110111010011
11111111110011101100
00000000000110110111
00000000000100010110
00000000000000011111
11111111111000110110
11111111110100010001
00000000000001100110
00000000000011110000
11111111110111010111
11111111111111000100
11111111111010111011
11111111111011110010
00000000000100010000
00000000001000011111
00000000000110010101
00000000000000110100
11111111110101011011
11111111111010010010
11111111110101100000
11111111110100110010
11111111111011011010
00000000000110000001
00000000000101001111
00000000000111110100
11111111111011001110
11111111111010010111
00000000001001001010
00000000000000001101
00000000000011010100
11111111111000001110
11111111111011001110
00000000000111100101
11111111111100100011
00000000000101011011
11111111110100011000
00000000001000111100
11111111110101110001
00000000001010001101
11111111111100001011
00000000000001000010
00000000000010010111
00000000001011101110
11111111111101011001
11111111111010111110
11111111110011011011
11111111111000100010
11111111111011010101
00000000000000111111
11111111111011001000
00000000001001010010
00000000000110000011
00000000000110011111
00000000001000100010
00000000001010111011
00000000000101111101
00000000000110010100
00000000001010100111
11111111111111000001
11111111111100000100
11111111111001110001
00000000000101010000
11111111111110110100
00000000001010011110
00000000000011000010
00000000001010101111
11111111111010010100
00000000000010101100
00000000001010010000
00000000000000111010
00000000000010011101
00000000000101100100
00000000001001110101
11111111110111011000
11111111110111101000
00000000000001101000
00000000000001110011
00000000000100100100
11111111110110110011
00000000000101010111
00000000001100001110
00000000000100000100
11111111111010010000
00000000000000100110
00000000001000100011
00000000000011101000
00000000001000111100
11111111110111101100
00000000000100001110
00000000000111111100
00000000001000111111
00000000001011010100
00000000000110000000
00000000000011111010
00000000001100011100
11111111111100101011
11111111111000101110
00000000000100100000
11111111111011010110
00000000000011100010
00000000000010100011
11111111111000011001
00000000001011010010
