00000000000011101110
11111111111010001010
11111111110101001001
11111111111001101101
11111111111011010101
11111111111011101100
11111111111110000101
11111111111001110101
11111111111101001110
11111111110110011110
00000000000001011110
00000000000001101101
11111111111101100000
00000000001001101100
00000000000001011100
11111111110111010100
00000000000011001001
00000000000111011000
00000000000010110100
00000000000011011111
00000000000110101101
11111111110101100100
00000000000100001101
00000000000111110000
11111111111100010011
00000000000110111101
11111111111001010101
00000000000011001010
00000000001000111001
00000000000010101101
00000000001010000111
00000000000011100100
11111111111000110100
00000000000110111101
11111111111111010100
00000000000101111110
00000000001000011001
11111111111000000001
11111111110101011000
11111111111110011001
00000000000000010000
11111111111010001111
00000000000010001110
00000000000000000000
11111111111010100100
11111111111110001011
11111111110101001111
00000000000101000010
11111111111101100010
00000000001001100111
11111111111110110110
00000000000101001000
00000000000001011010
11111111111001011010
11111111111010010111
00000000000010100100
00000000000101000000
11111111111110110101
11111111110111110110
00000000000010111010
11111111110110110001
11111111111111001000
11111111111111101011
11111111111110011010
11111111111000111011
00000000000001000110
00000000001000011101
11111111111010000101
00000000000111101010
11111111111101000000
11111111110111111010
11111111111001010100
11111111111110001110
00000000000011101010
11111111111010101100
00000000001000110000
11111111110111110000
11111111111011100101
11111111110111110110
11111111111100011001
11111111111000010100
00000000000010100101
00000000000011010111
00000000001001011111
00000000000110010111
11111111110110110010
11111111111110001101
00000000000001111111
11111111111000110001
00000000000101110001
00000000001000100011
00000000000001101110
00000000000101001111
00000000000110000101
11111111111000010100
00000000001000010011
00000000001010011011
11111111111101000001
00000000000100110010
11111111110111011000
11111111111101101110
11111111111100000110
11111111111111010000
00000000000110001110
11111111110101100100
11111111111111011111
00000000000001101101
00000000000101100011
11111111111011100011
11111111111111010111
11111111111111110100
00000000000110001100
11111111110111110000
00000000000000100101
11111111111101100010
00000000001001000001
00000000000100111010
00000000001001111110
11111111111110001101
00000000000100111101
