00000000000101010101
00000000001110010111
11111111110111111010
11111111111001001000
11111111111011001110
00000000001100101010
11111111111010001101
11111111110110001101
00000000000000110010
00000000000100000111
11111111110101000100
11111111111100001101
11111111111001100000
11111111111011101000
00000000001011010101
00000000000100100100
11111111110100001000
00000000000010100011
00000000001101100101
00000000000001110000
11111111111100001110
00000000000101100001
11111111111110001101
11111111111101010010
00000000000101110110
00000000000001000011
00000000000000110100
00000000000100111100
00000000000011010000
00000000001000000101
00000000000001011101
11111111111110101010
11111111111111010100
00000000001010010110
11111111110101000100
00000000000010001111
00000000000111100011
11111111110110110100
00000000001100100001
00000000001000100011
00000000000110001111
00000000001000100001
00000000000100100001
11111111111101010000
11111111111100010101
00000000001010000101
00000000001100011010
00000000001010000111
11111111111101101111
00000000000100111011
00000000000001000100
11111111111001101001
00000000001011111100
00000000001000000101
11111111111110101001
11111111111011101110
11111111110111011111
11111111111111111000
00000000000101100001
11111111111000010000
00000000000010010111
11111111111011101000
00000000001100111011
11111111111111110001
11111111111111111011
00000000000000110101
11111111110100010111
00000000000010110101
11111111111111001001
00000000000110011111
11111111111111000101
00000000000101110000
00000000000101110111
00000000000001010010
11111111111011101100
00000000000001010100
00000000000100011110
11111111111011101111
11111111110110011001
00000000000101111010
11111111111011000001
11111111110100110101
00000000000111110000
11111111110111111000
00000000000011000001
00000000000000110100
11111111111010011111
11111111111011000111
11111111111001001111
11111111110100111001
00000000001010101101
11111111110111110101
00000000001010101000
11111111110101111111
00000000001001001111
11111111111110000010
11111111110111001001
11111111111100100010
11111111111000011000
11111111111100101110
00000000000100000001
00000000000110011000
00000000000110110001
00000000000101011111
11111111111111111111
11111111111111110101
11111111111001010000
11111111111000100011
11111111111100000001
11111111111000100010
11111111111100010000
11111111111110111110
11111111110100110000
00000000001011100011
11111111110101110110
11111111111000001110
11111111111100101101
00000000000010101101
00000000000111101110
00000000000100011011
