11111111111100001100
11111111111011001010
00000000000100100000
00000000001000111101
00000000000111011111
00000000001001001000
11111111110101001100
11111111111011011101
00000000000110101101
00000000000101010010
11111111110101110110
00000000000000110011
00000000000010000110
00000000000010101001
00000000001001100010
11111111111110001000
00000000000010101001
11111111111001000101
11111111111110100110
00000000001010100001
11111111111000010011
11111111111111110100
11111111111000101111
11111111111100001011
00000000001010000010
00000000000011011111
00000000001001010001
11111111111001011000
00000000001000110010
11111111111100100110
00000000000011000100
00000000001001000000
11111111111001111101
11111111111101100110
00000000000010111101
11111111111100010101
00000000001010001011
11111111110111101011
11111111111101110010
00000000000010000001
11111111111000010101
11111111111110100000
11111111110101110101
11111111111000000001
00000000000100111001
00000000000100111110
00000000000000010011
11111111111101111001
11111111111110111001
00000000000010011110
00000000000000111110
00000000000100110011
11111111111110100000
11111111111100001000
11111111111100110001
11111111111000010110
11111111111010101110
00000000000001101001
00000000000110100011
11111111111110001100
11111111111010101100
00000000000011101010
11111111111100100110
00000000000001000100
00000000000011110001
00000000000001000100
00000000000100110011
00000000000110100000
11111111110100110111
00000000000010110011
11111111111111100000
00000000000010101010
00000000000100100010
11111111111000010001
11111111111000011011
00000000000000011000
11111111111110101011
11111111111111001011
11111111111011101100
11111111110100110110
11111111111011001100
00000000000011000000
11111111111111000000
00000000000001111001
00000000001001011111
00000000000000001100
00000000001001101000
11111111111101001011
11111111111011101110
11111111110110011101
11111111110100110111
00000000000100101001
00000000000100101111
00000000000101111111
11111111111101011011
00000000000110010110
00000000000010111111
11111111110101110001
00000000000100000110
11111111111000101011
00000000000001010101
00000000001000011000
11111111110110011101
11111111110111110010
11111111111101111111
00000000000010011111
00000000001010001001
00000000000010100010
11111111111110000111
00000000001010110011
00000000000001000001
00000000000111110000
00000000000110000000
11111111111111101111
00000000001001000110
00000000000110100011
11111111111110110110
00000000000101010011
00000000000100010111
11111111110110100001
