00000000001011000011
11111111111101000000
00000000001011101110
00000000000011011111
00000000000011001001
11111111111000111010
11111111111100110010
00000000000010010010
00000000000010101010
11111111110110010010
11111111111111001100
00000000000011010101
00000000000111011011
00000000001001111111
00000000001001010001
11111111111001110010
00000000000100100110
11111111111100101000
11111111110110000111
00000000000011110110
00000000000000011011
00000000000101010111
00000000000111111101
11111111111001101011
00000000000101001001
11111111111101110100
00000000000010010110
11111111111011101001
00000000000110011001
11111111110110110000
11111111111111110000
11111111110101001010
11111111110011100011
00000000001000111101
11111111111110111111
11111111111111000001
11111111111011011010
11111111110111000011
00000000000100111100
00000000000010110000
11111111111001010110
00000000001010010001
11111111111110111000
11111111111111000011
11111111110111111000
00000000000110101001
11111111111001010001
11111111110111011001
00000000000000000111
11111111111011010101
11111111111001010111
11111111111010101001
11111111111001010000
00000000000000001100
00000000000110110100
11111111111010111111
00000000000011110010
00000000000010111101
11111111111101101111
11111111110110010001
11111111111000100001
11111111110111111011
11111111110101110111
00000000001000100001
00000000001000100110
11111111111110100111
00000000000001110011
00000000000000010001
00000000001001110000
00000000000011100110
11111111111110101011
00000000000001111001
00000000000100000001
11111111110101000100
00000000000100111010
11111111110110101101
00000000000011101001
00000000000001100101
11111111111111000110
00000000001010101110
00000000001000000001
11111111111011111000
11111111110110101001
00000000000001000010
00000000000011000010
00000000000100110000
00000000001001111110
00000000000100110000
11111111110110110000
00000000000000111011
00000000000101001101
00000000000000110000
00000000001000111011
11111111111101101011
11111111111100111011
00000000000100110101
00000000000111100100
11111111111011000110
00000000001000001100
11111111110110001011
11111111111011010101
11111111111011010011
11111111111001001001
11111111111001110000
11111111111101000100
00000000000010000000
11111111110011001101
00000000001000100100
00000000000011101110
00000000001010111000
00000000001000001110
00000000000111010101
11111111110101011110
00000000000000101101
11111111111111011001
00000000000011000011
00000000001000010110
00000000000001100100
00000000000011110110
00000000000101010110
