11111111110110000111
11111111111100011111
11111111111000001111
11111111110111101011
00000000000111101011
00000000000011000011
11111111111011001000
00000000000000000000
00000000001001010101
11111111111101001111
00000000000010101110
11111111111101000101
11111111110111101100
00000000000111100011
11111111111001001101
11111111111001101110
11111111111110111100
11111111111100110011
11111111111100000001
00000000001001111101
11111111111001101011
00000000000100110101
11111111111110010001
11111111111001011000
00000000000110101111
11111111111101010111
00000000000000101110
11111111111100100100
11111111110111010000
00000000000010001111
00000000000000100110
00000000000110111100
11111111111011101010
11111111111111101111
00000000000101010111
11111111110111111100
00000000000011111011
00000000000000010000
00000000000010001110
11111111111111001100
11111111110110111001
00000000000110000110
11111111111110010110
11111111110111111000
11111111111010111101
11111111111111010011
11111111111010111011
00000000001001000011
00000000000101011010
00000000001001100110
11111111110100100101
11111111111001001111
00000000000011100001
11111111111111100001
00000000000101111100
11111111111100001001
00000000001000111111
11111111111100000100
11111111111001001001
00000000000000111111
11111111111010010011
11111111111011111000
00000000001001001000
00000000000110000010
00000000001000101010
11111111111100010111
11111111111001100100
11111111110111111111
11111111110110100110
00000000001000001100
00000000000011101111
11111111111011111101
11111111110101010010
00000000000001111000
11111111110101100101
00000000001001000111
11111111111110100000
00000000000000101101
00000000000000000000
11111111110111011100
11111111110111110011
00000000001000001001
11111111111011110000
11111111110100111111
11111111111110011101
00000000000000111001
00000000000010000110
00000000000010101010
00000000001001000101
11111111111100110100
11111111110110011000
00000000001100100100
11111111111010111000
11111111111101000001
11111111111110000100
00000000000010111100
11111111111011001111
00000000000010111000
11111111111111010110
00000000000000011101
11111111111111101000
11111111111110011010
11111111111111010100
00000000000111111001
00000000000110100110
11111111111111010101
00000000000001001101
00000000001000000110
11111111110101110000
00000000001100011010
00000000001001100101
11111111111000011110
00000000000010000011
11111111111001101001
11111111111101111100
00000000001001100111
11111111110111101110
00000000000100100000
11111111111110111101
11111111111001001110
