11111111110111000110
00000000000101110101
00000000000101110000
00000000001001100101
00000000001010111010
11111111110111111010
11111111111110101100
00000000000110011010
11111111110111000101
11111111111010000101
11111111111010011100
11111111111100001110
00000000000111100010
11111111110111001100
00000000001011000001
11111111110110110101
00000000001001110011
00000000000000010111
11111111111001000010
11111111111010001000
00000000001001010011
11111111111111111110
11111111111110111111
11111111111100101111
00000000000011110011
11111111110110101111
11111111111110110101
00000000000011110110
11111111111000001110
11111111111000110101
00000000001001010010
00000000001001111100
00000000000101111111
11111111111010000111
11111111111010101100
00000000000010001110
11111111111010110111
11111111110101111110
11111111110110010101
11111111111110010001
00000000000000011111
11111111111010101101
11111111111100100001
00000000001010111000
11111111111010111101
11111111111101101000
00000000001001101111
11111111111000111011
00000000000111111010
11111111111000111100
00000000000000011000
11111111111011111110
11111111111101000010
00000000000001101111
00000000001000000110
11111111111010011100
00000000001000100100
00000000001000000011
00000000001000000011
11111111111001110111
11111111110101011110
11111111110100110101
00000000000101110111
11111111111001000100
00000000000000101111
11111111111101101101
00000000000100011000
00000000000000000000
11111111111111001100
00000000001000010000
11111111110101001101
00000000001001011111
00000000000100011111
11111111111100000011
11111111111101110101
11111111111100010100
00000000000010001010
11111111111011010100
00000000001001111000
00000000001010001100
00000000000101111011
11111111110111010101
11111111111010001110
11111111110101110101
11111111111000100001
00000000000111111101
00000000001000001010
00000000000100000101
00000000000110110101
11111111111010101010
11111111111100101111
00000000000111110010
00000000000001000100
11111111111100101011
11111111111100000101
11111111110110101010
00000000000000110101
00000000000000010111
11111111111000110101
11111111111010010110
11111111111110011010
11111111111110010010
00000000001001111001
11111111111011111101
11111111111011001011
11111111111010100101
11111111111100110011
11111111111011110001
11111111110101100001
11111111111010100100
11111111111001101101
11111111111101010100
00000000000010011111
11111111111101010110
00000000001011101010
11111111111010100100
11111111111011111110
11111111111000101010
11111111111010111111
11111111111110110110
