00000000000111111110
11111111111011001101
00000000000101110101
00000000000000000010
11111111111010100001
11111111110110010001
11111111111111001110
00000000000000110011
11111111111000001010
11111111110110010011
00000000000111011110
11111111111110000001
11111111111100010001
00000000000111100011
11111111111010111010
11111111111000100000
11111111111110011110
00000000000000110101
11111111111111111101
11111111110111101001
11111111110110111111
00000000000101010111
11111111111001100010
00000000000100001100
00000000000000110001
00000000000000101010
00000000000011110101
11111111111010110010
00000000000101101001
11111111111010110100
00000000000010000111
00000000000000010010
11111111110111111111
11111111111010100111
11111111111111010011
00000000000101101100
00000000001000011001
11111111111000111111
00000000000100101100
00000000000011000011
11111111111111110101
11111111111011010100
11111111110111010111
11111111111000110110
11111111111000011000
11111111111001111110
11111111111100000101
11111111111000111111
00000000000111011011
00000000000110100011
00000000000001001101
11111111111101101111
11111111111010010111
11111111111110011001
11111111111110110000
00000000000111011011
00000000001010011111
11111111111000100011
11111111111111111000
00000000000101000011
00000000000101101000
11111111111011011100
11111111111100111100
11111111111010000100
11111111111010011110
11111111111000011101
00000000000111011001
11111111111011100100
11111111110110111000
00000000000110110110
11111111111111110111
00000000000111011000
11111111110111100101
11111111111111000111
00000000001001100001
11111111110111100111
00000000000010110011
11111111110101110010
00000000000001000100
11111111111101100010
11111111111110101000
00000000000110110010
11111111110111010101
11111111111111000000
00000000000111101000
11111111111001010010
11111111111010101010
11111111111000011101
11111111111100101110
00000000000110111101
00000000001010001010
00000000000111001111
11111111111001111110
00000000001001000101
00000000000010101110
11111111111100101010
00000000000111110001
00000000000111011110
11111111111010101111
11111111111011111110
11111111111010101100
00000000001000000101
00000000000111010100
00000000000110110111
00000000001000000001
00000000000111001101
00000000000111110011
11111111111000100010
00000000000001001001
11111111111011010010
11111111111111011101
00000000000110010100
11111111111000101101
00000000000000001010
11111111111010000000
11111111111110010000
00000000000010011011
00000000000010011010
00000000001001000101
00000000000110000001
